<pad>	0
<s>	0
</s>	0
<unk>	0
▁the	-3.09462
,	-3.31103
▁of	-3.60484
.	-3.68845
:	-3.71653
▁and	-3.93628
s	-3.99439
▁in	-4.08894
▁to	-4.27929
▁a	-4.34107
▁question	-4.45886
▁context	-4.46234
?	-4.46696
▁is	-4.73836
▁	-4.81596
ed	-4.83188
ing	-4.85313
▁The	-4.91449
-	-4.97538
▁was	-5.06093
▁as	-5.19713
▁for	-5.24504
'	-5.27217
▁(	-5.28564
▁What	-5.29204
▁by	-5.38117
▁are	-5.43478
▁with	-5.47759
▁on	-5.52631
▁from	-5.60279
ly	-5.62133
▁that	-5.62796
▁"	-5.66265
▁In	-5.68538
d	-5.76842
e	-5.79714
▁be	-5.85918
▁were	-5.90207
)	-5.91687
▁or	-5.95008
▁an	-5.9954
▁at	-6.00444
▁which	-6.02698
▁what	-6.03044
y	-6.0839
"	-6.13233
▁has	-6.16066
th	-6.23475
▁have	-6.28189
▁A	-6.35353
▁did	-6.3642
▁first	-6.3878
lso	-6.4101
▁it	-6.42591
n	-6.45798
▁its	-6.4776
▁other	-6.49806
▁many	-6.52706
),	-6.52733
▁their	-6.53251
▁not	-6.54138
▁one	-6.60543
;	-6.60753
▁can	-6.66025
▁most	-6.69509
▁used	-6.72737
▁New	-6.72768
▁his	-6.73819
▁S	-6.77438
▁city	-6.78812
▁been	-6.8089
al	-6.82295
▁two	-6.88841
▁more	-6.90279
/	-6.90653
▁such	-6.92061
▁some	-6.93405
).	-6.94403
▁this	-6.94796
▁all	-6.96405
▁How	-6.97828
▁had	-6.99401
▁century	-7.00605
▁It	-7.00902
▁Who	-7.03053
▁but	-7.04727
▁between	-7.05528
▁system	-7.07941
st	-7.08312
▁into	-7.08974
er	-7.09877
▁music	-7.09935
▁Wh	-7.10616
▁who	-7.10959
a	-7.13118
▁people	-7.13327
▁than	-7.14504
▁Catalan	-7.14782
▁year	-7.14919
▁name	-7.1518
▁does	-7.17773
▁government	-7.19986
]	-7.22842
▁language	-7.23124
▁after	-7.23338
▁over	-7.23707
▁years	-7.23922
▁called	-7.24125
▁only	-7.2532
o	-7.2717
▁City	-7.27231
▁dur	-7.27392
▁population	-7.28542
▁million	-7.28861
▁China	-7.29506
▁time	-7.29661
▁there	-7.29662
▁term	-7.30386
▁use	-7.30557
▁when	-7.31918
▁Street	-7.32133
▁w	-7.32533
▁On	-7.33911
en	-7.33933
▁season	-7.34691
▁do	-7.3618
▁early	-7.36519
▁up	-7.37284
▁un	-7.373
▁three	-7.3836
▁may	-7.39233
▁Thi	-7.39763
t	-7.40438
▁known	-7.40965
▁Avenue	-7.41277
▁C	-7.41423
▁Unit	-7.41888
▁under	-7.42619
▁number	-7.42954
▁include	-7.43097
▁world	-7.44545
▁he	-7.4536
▁out	-7.45702
▁form	-7.45734
▁F	-7.45756
▁York	-7.46504
▁D	-7.46604
▁East	-7.46991
▁about	-7.47927
▁they	-7.48182
▁through	-7.48319
▁languages	-7.49361
",	-7.49369
▁made	-7.51177
▁new	-7.52267
▁American	-7.52356
▁including	-7.52878
▁state	-7.54709
▁often	-7.54854
c	-7.55355
ould	-7.5539
▁country	-7.55411
came	-7.55998
▁Southampton	-7.56558
▁E	-7.58151
▁part	-7.58183
ion	-7.58573
▁States	-7.58645
▁public	-7.61265
3	-7.61459
out	-7.619
▁Delhi	-7.63437
▁both	-7.63462
h	-7.6413
▁R	-7.64168
▁M	-7.6418
▁There	-7.6524
▁P	-7.65787
▁World	-7.66453
ic	-7.66943
▁different	-7.67364
▁each	-7.68001
es	-7.68073
▁being	-7.68294
i	-7.68729
▁large	-7.68871
▁high	-7.69766
".	-7.70344
▁I	-7.7038
▁major	-7.70487
▁Where	-7.72133
▁these	-7.72325
▁War	-7.72624
▁countries	-7.7442
▁National	-7.74448
▁located	-7.7542
▁since	-7.75833
▁Chinese	-7.76449
▁re	-7.7668
—	-7.76712
▁well	-7.7712
▁t	-7.77137
▁where	-7.77204
–	-7.77421
▁Whe	-7.77532
▁B	-7.77873
▁As	-7.77939
▁T	-7.78168
▁official	-7.78449
▁work	-7.78601
▁Times	-7.79432
▁so	-7.80297
▁type	-7.80882
S	-7.81259
▁treaty	-7.81669
▁four	-7.82191
▁end	-7.82236
in	-7.82434
▁based	-7.82697
▁several	-7.82724
▁University	-7.83081
▁period	-7.83608
▁English	-7.83802
▁needed	-7.83957
▁power	-7.84518
▁while	-7.84567
▁released	-7.85013
or	-7.85461
▁/	-7.85556
▁support	-7.85619
▁will	-7.85981
r	-7.86042
▁non	-7.86645
▁20	-7.87104
▁common	-7.87132
▁Park	-7.87593
▁largest	-7.88028
▁2008	-7.88118
▁found	-7.88259
▁area	-7.88926
▁much	-7.8904
▁wood	-7.8976
▁Idol	-7.89836
▁same	-7.90197
▁For	-7.90893
▁Ac	-7.90948
▁international	-7.91022
▁example	-7.91116
▁later	-7.92418
▁West	-7.92561
▁schools	-7.9276
able	-7.92985
▁Canadian	-7.9299
▁using	-7.93113
▁Republic	-7.93328
▁show	-7.93396
▁school	-7.93578
▁Some	-7.93766
cording	-7.9423
▁Helena	-7.94969
▁law	-7.95204
▁modern	-7.9526
▁de	-7.95509
▁Europe	-7.9575
▁May	-7.96104
▁Plymouth	-7.96197
▁British	-7.96206
▁within	-7.96276
▁paper	-7.9644
▁German	-7.97032
▁April	-7.97442
the	-7.98094
ation	-7.98613
▁provide	-7.98685
ich	-7.98797
▁standard	-7.99082
▁Chopin	-7.99138
▁follow	-7.99425
▁North	-7.99641
▁region	-8.00638
▁human	-8.01204
▁like	-8.01993
an	-8.02086
▁per	-8.0232
▁word	-8.02597
▁dogs	-8.02724
▁island	-8.02916
▁European	-8.03131
.[	-8.03408
▁January	-8.03482
▁place	-8.03672
▁architecture	-8.03935
▁Western	-8.03944
▁2010	-8.03997
▁become	-8.04107
▁her	-8.04136
▁systems	-8.04202
▁Nanjing	-8.04807
▁among	-8.05053
side	-8.05229
til	-8.05769
▁considered	-8.05899
▁U	-8.06189
▁US	-8.06296
▁Dur	-8.0648
▁them	-8.07495
▁Buddhism	-8.07548
▁usually	-8.07593
▁popular	-8.07621
▁These	-8.08813
▁began	-8.08974
▁around	-8.09448
▁television	-8.09876
▁However	-8.09877
▁Tito	-8.09931
▁W	-8.10326
▁Boston	-8.10367
▁single	-8.10435
▁satellite	-8.10447
▁own	-8.10596
▁how	-8.10851
▁Guinea	-8.10863
▁no	-8.11124
▁long	-8.12693
ity	-8.13183
▁Saint	-8.13734
▁service	-8.13895
▁local	-8.13933
▁du	-8.14038
▁second	-8.14753
▁French	-8.14829
▁kind	-8.14873
▁make	-8.15223
▁rate	-8.15378
▁iPod	-8.15391
▁before	-8.15727
▁19	-8.1582
▁development	-8.16632
▁South	-8.17292
▁Somali	-8.17686
▁Spanish	-8.17786
▁now	-8.17801
▁held	-8.18286
▁Center	-8.18479
▁School	-8.18489
▁any	-8.18761
▁MP	-8.18805
hose	-8.18968
▁3	-8.19275
▁London	-8.19288
▁established	-8.19482
ical	-8.1959
▁dialects	-8.20293
▁various	-8.20859
▁important	-8.20859
ary	-8.21056
l	-8.21178
▁Russian	-8.21297
▁media	-8.21481
▁2007	-8.21552
le	-8.21632
very	-8.2198
ies	-8.22302
▁2	-8.22352
ous	-8.22682
▁take	-8.22685
▁Soviet	-8.22778
▁start	-8.23318
▁another	-8.23323
▁remain	-8.23364
&	-8.23532
▁traditional	-8.23582
Bissau	-8.24283
▁John	-8.24391
▁BeiDou	-8.24622
▁November	-8.25172
▁Council	-8.25192
▁Apple	-8.25724
▁addition	-8.25841
ve	-8.25862
▁Island	-8.26022
▁times	-8.26066
▁military	-8.2628
▁Union	-8.2629
▁sometime	-8.26539
▁change	-8.27149
▁format	-8.27165
ce	-8.27341
")	-8.27689
us	-8.2783
▁Many	-8.29177
▁Bell	-8.29541
▁could	-8.29716
▁five	-8.29717
▁primar	-8.29728
age	-8.2978
▁building	-8.29891
▁September	-8.30839
▁St	-8.31193
▁2011	-8.31238
▁billion	-8.31431
▁14	-8.31733
▁built	-8.32012
▁International	-8.32012
▁African	-8.32121
est	-8.32266
▁students	-8.32335
▁available	-8.32697
▁V	-8.32936
▁He	-8.33063
▁India	-8.33064
nd	-8.33066
▁less	-8.33067
▁age	-8.33086
▁near	-8.33203
▁set	-8.33252
▁back	-8.3327
▁present	-8.33491
▁Greek	-8.33798
▁Estonian	-8.33843
▁Middl	-8.33991
ive	-8.33995
▁N	-8.34139
▁contain	-8.34169
▁2014	-8.34283
▁II	-8.34407
▁west	-8.34585
▁16	-8.34807
▁b	-8.34935
▁life	-8.35026
g	-8.35199
▁group	-8.3528
▁2015	-8.35538
▁education	-8.35623
▁province	-8.35626
▁members	-8.35766
▁developed	-8.35967
▁late	-8.36209
▁Atlantic	-8.3623
▁water	-8.36297
▁main	-8.36412
▁13	-8.36538
▁north	-8.36627
▁England	-8.36847
▁result	-8.36866
▁Marshall	-8.36875
▁[	-8.36926
▁Africa	-8.37307
▁former	-8.37874
▁dialect	-8.37894
▁12	-8.38119
▁18	-8.3813
▁groups	-8.38148
▁south	-8.38675
▁estimate	-8.38722
▁reported	-8.39023
▁includes	-8.39027
▁small	-8.39274
▁After	-8.39355
▁cities	-8.3936
▁song	-8.3949
▁1	-8.39761
▁house	-8.39927
▁d	-8.40152
▁G	-8.40548
▁along	-8.40762
▁AC	-8.40797
▁order	-8.40963
▁highest	-8.41374
▁Whic	-8.41578
▁national	-8.41769
▁represent	-8.41892
▁percent	-8.41932
▁An	-8.41936
▁Internet	-8.41941
▁Eastern	-8.41996
▁third	-8.42001
▁data	-8.42055
▁services	-8.43038
▁l	-8.43419
▁stations	-8.4348
▁named	-8.43883
▁particular	-8.43926
itation	-8.44265
-1	-8.44282
▁March	-8.44605
▁Central	-8.44615
▁final	-8.44635
▁live	-8.45
▁At	-8.45062
▁control	-8.45233
▁Defence	-8.45258
▁head	-8.45312
▁Islands	-8.45422
▁included	-8.45523
▁President	-8.45951
still	-8.46191
▁Manhattan	-8.46593
▁Nations	-8.46618
▁October	-8.46649
▁process	-8.47017
▁genes	-8.47272
▁December	-8.47279
▁influence	-8.47486
▁even	-8.47834
ment	-8.47834
▁BBC	-8.4792
▁created	-8.4818
on	-8.48449
▁said	-8.48664
▁College	-8.48919
▁home	-8.48933
▁short	-8.49277
▁Other	-8.49434
▁industry	-8.49491
▁company	-8.50067
▁Unite	-8.5011
▁announced	-8.50139
▁making	-8.50272
▁construction	-8.50338
▁2013	-8.50374
▁4	-8.50727
▁Oklahoma	-8.50785
▁few	-8.50913
▁forms	-8.5099
▁launched	-8.51293
ily	-8.51322
▁approximate	-8.51648
▁H	-8.5173
▁president	-8.51824
▁7	-8.51858
▁("	-8.51953
▁mean	-8.52128
▁business	-8.52155
▁distinct	-8.52157
▁if	-8.52265
▁11	-8.52347
▁Polish	-8.52383
[	-8.52472
▁records	-8.52485
▁p	-8.52547
▁computer	-8.52561
▁similar	-8.52594
▁land	-8.52773
to	-8.52776
▁e	-8.52797
▁s	-8.5291
▁Royal	-8.52991
▁either	-8.53011
▁words	-8.53034
▁higher	-8.53129
▁Institute	-8.53301
ers	-8.5352
▁State	-8.53742
▁Be	-8.53774
ok	-8.53938
▁typical	-8.54061
▁K	-8.54094
▁m	-8.541
▁Forces	-8.5419
▁energy	-8.54404
▁digital	-8.5441
▁DST	-8.54458
▁average	-8.54493
▁Roman	-8.54894
▁play	-8.55045
▁against	-8.55196
▁referred	-8.55208
▁provided	-8.55404
▁came	-8.55875
ar	-8.5595
▁street	-8.56343
▁2012	-8.5638
▁radio	-8.56644
▁family	-8.56667
▁pubs	-8.56745
▁buildings	-8.56758
up	-8.57084
▁original	-8.57139
▁Bern	-8.57195
▁research	-8.57398
▁last	-8.57443
▁km	-8.57466
▁line	-8.57691
▁record	-8.57709
▁Somalia	-8.5782
▁regions	-8.58348
▁'	-8.58569
▁station	-8.58793
m	-8.58813
▁capital	-8.58937
▁commercial	-8.58946
▁Latin	-8.58954
▁consist	-8.5898
▁gene	-8.59405
ian	-8.59622
▁Church	-8.59648
▁claim	-8.59721
▁O	-8.59783
▁era	-8.5985
▁earthquake	-8.60485
▁history	-8.60485
▁treaties	-8.60493
▁UK	-8.60493
▁Great	-8.60502
▁every	-8.60516
▁day	-8.60718
▁light	-8.60787
▁size	-8.6101
▁great	-8.61217
▁however	-8.61274
▁comics	-8.61568
."	-8.61612
▁21	-8.61798
▁names	-8.62
▁dog	-8.62035
▁Schwarzenegger	-8.62066
▁food	-8.62631
▁lead	-8.6283
▁offer	-8.62863
▁People	-8.62904
▁terms	-8.63259
▁L	-8.63412
▁range	-8.63553
▁10	-8.63618
▁Congo	-8.63656
▁co	-8.63658
▁Empire	-8.63673
▁legal	-8.6368
▁With	-8.63794
▁join	-8.64363
▁further	-8.64487
▁technology	-8.64499
▁Kansas	-8.64517
▁study	-8.64524
▁given	-8.64557
▁inter	-8.64571
▁material	-8.64591
▁birds	-8.64851
▁political	-8.64995
▁degrees	-8.65071
▁special	-8.65208
▁independent	-8.6534
▁university	-8.65352
▁Records	-8.65387
▁although	-8.65399
▁refer	-8.65529
▁No	-8.65567
▁5	-8.65613
▁far	-8.65727
▁perform	-8.65941
▁Asia	-8.65992
▁game	-8.66001
▁commonly	-8.66112
▁specific	-8.66178
▁aspirated	-8.66207
ther	-8.66304
2	-8.66379
▁air	-8.6661
▁becaus	-8.66821
▁1990	-8.66884
▁c	-8.66919
▁HDTV	-8.66967
▁contemporary	-8.66967
▁party	-8.67003
▁All	-8.67124
▁games	-8.67135
p	-8.67486
▁full	-8.67572
▁America	-8.67691
▁begin	-8.67804
▁migration	-8.67818
▁Portuguese	-8.67838
▁RIBA	-8.67838
▁half	-8.67865
ial	-8.68095
▁pub	-8.68534
▁northern	-8.68689
▁source	-8.69391
▁Buddhist	-8.69398
▁Canada	-8.69508
▁web	-8.69512
▁Along	-8.6953
▁allow	-8.69587
▁published	-8.69699
C	-8.70016
▁Zhejiang	-8.70403
▁general	-8.70915
▁certain	-8.7124
▁2009	-8.71426
▁total	-8.71692
▁best	-8.71808
▁urban	-8.72122
▁help	-8.72153
▁France	-8.72168
▁Christian	-8.72179
The	-8.72185
▁return	-8.72327
▁Right	-8.72934
▁social	-8.73003
▁level	-8.73165
ally	-8.73421
▁seven	-8.73657
▁top	-8.73681
▁success	-8.73751
▁meaning	-8.73827
▁sold	-8.73883
▁site	-8.73901
B	-8.7393
▁living	-8.73951
▁July	-8.73971
▁areas	-8.74141
▁generally	-8.74298
ance	-8.74707
▁General	-8.74718
▁First	-8.74795
▁River	-8.74795
▁book	-8.74893
▁free	-8.74931
▁corruption	-8.74959
N	-8.75318
▁products	-8.75378
ble	-8.75634
▁genome	-8.75702
▁Beyoncé	-8.75704
▁status	-8.75708
▁central	-8.75713
▁body	-8.75757
▁To	-8.75826
1	-8.76047
rd	-8.76327
▁17	-8.76489
▁list	-8.76539
▁August	-8.76558
▁though	-8.76607
▁least	-8.76623
▁Most	-8.76628
▁date	-8.76916
▁feature	-8.77011
▁consonants	-8.77179
▁Development	-8.77548
▁community	-8.77548
▁private	-8.77592
▁written	-8.77626
pite	-8.77639
▁Buddha	-8.77645
▁itself	-8.7767
▁rank	-8.77681
▁works	-8.77781
▁sub	-8.77797
▁produced	-8.77848
▁reduce	-8.78157
as	-8.7846
▁features	-8.78473
▁prim	-8.78478
▁next	-8.78482
▁themselves	-8.78482
▁appear	-8.78644
▁then	-8.78876
▁parts	-8.789
▁2000	-8.79048
um	-8.79099
▁run	-8.79325
▁hunter	-8.79426
▁relay	-8.79429
▁Music	-8.79455
▁ex	-8.79574
less	-8.8002
▁others	-8.80206
▁abbey	-8.80378
▁Valencian	-8.80409
▁15	-8.81022
▁Arab	-8.81249
▁2004	-8.81357
▁hydrogen	-8.81457
land	-8.81678
▁classical	-8.8173
▁week	-8.82053
▁William	-8.82311
▁sector	-8.82334
▁information	-8.8241
▁upon	-8.82411
cross	-8.82495
▁title	-8.8265
f	-8.82669
▁programs	-8.82831
▁current	-8.82834
▁focus	-8.82847
cause	-8.82895
▁Des	-8.83052
▁ancient	-8.83069
▁today	-8.83137
▁serve	-8.83165
▁runs	-8.83222
▁southern	-8.83302
▁series	-8.83313
▁DNA	-8.83323
▁broadcast	-8.83587
▁Universal	-8.84327
▁Government	-8.84327
▁film	-8.84678
▁One	-8.84738
▁Romance	-8.84781
▁rights	-8.8505
▁six	-8.85133
▁caus	-8.85226
▁UNFPA	-8.85281
▁health	-8.85283
▁Japan	-8.86282
▁centuries	-8.86291
▁Japanese	-8.863
▁variety	-8.86315
▁together	-8.86355
▁adult	-8.86476
▁event	-8.86597
ebr	-8.86935
▁eight	-8.87075
▁effect	-8.87309
▁Group	-8.87312
▁June	-8.87313
▁Ministry	-8.87324
uary	-8.87328
▁species	-8.87334
▁audio	-8.8735
▁conditions	-8.8755
▁war	-8.87689
▁started	-8.87719
▁unit	-8.8777
▁host	-8.87855
▁szlachta	-8.88417
ile	-8.88557
▁town	-8.88958
ince	-8.88967
▁Germany	-8.88993
▁states	-8.89126
▁natural	-8.8936
▁significant	-8.89386
▁Human	-8.89387
▁parties	-8.89482
▁won	-8.89495
year	-8.89604
▁office	-8.89609
▁old	-8.89695
▁historical	-8.90105
ially	-8.90223
▁him	-8.90433
▁universities	-8.90437
▁torch	-8.90437
▁Mahayana	-8.9044
▁brain	-8.90452
▁nobility	-8.90474
▁practice	-8.90493
▁black	-8.90694
▁death	-8.90731
▁organization	-8.90738
▁exist	-8.91078
▁wide	-8.91294
▁KU	-8.91505
▁founded	-8.91529
▁Georg	-8.91537
▁almo	-8.91683
▁domestic	-8.9169
▁online	-8.91731
k	-8.92118
▁receive	-8.9219
▁men	-8.92474
▁Russia	-8.92538
▁attempt	-8.92576
▁Washington	-8.92576
▁way	-8.926
▁spoken	-8.92663
▁agreement	-8.92836
is	-8.92879
▁complete	-8.9333
▁subject	-8.93695
▁TV	-8.93828
▁speak	-8.93901
▁regional	-8.93939
▁role	-8.94027
▁past	-8.94321
▁By	-8.9438
▁personal	-8.94647
▁strong	-8.94762
▁greater	-8.94874
▁materials	-8.95016
▁product	-8.95149
▁sound	-8.95243
▁le	-8.9533
▁plan	-8.95471
▁Public	-8.95882
▁associated	-8.95994
century	-8.96164
▁culture	-8.96291
▁market	-8.96333
▁design	-8.96357
▁continued	-8.96434
▁just	-8.9683
▁ten	-8.96903
▁Federal	-8.96996
▁internet	-8.96999
▁Kingdom	-8.97
▁Earl	-8.97024
▁Party	-8.97084
▁file	-8.9731
▁22	-8.97645
▁examples	-8.97721
▁annual	-8.97777
▁followed	-8.9787
▁events	-8.97902
▁economic	-8.9801
▁House	-8.98134
w	-8.98135
▁regard	-8.9814
▁force	-8.98201
M	-8.98367
▁vote	-8.98442
way	-8.9855
ng	-8.98945
▁art	-8.99215
▁character	-8.99269
’	-8.99282
▁children	-8.99282
▁League	-8.99282
▁turn	-8.9929
espec	-8.9937
▁structure	-8.994
▁seen	-8.9944
▁act	-8.99444
▁Indian	-8.99542
▁tradition	-8.9966
▁King	-9.00443
▁Association	-9.00445
▁relief	-9.00447
▁winner	-9.00448
▁CBS	-9.00459
▁should	-9.0046
▁foreign	-9.00482
▁nine	-9.00619
▁down	-9.00667
light	-9.00783
▁days	-9.00829
▁derived	-9.0083
▁minister	-9.00952
▁election	-9.00966
▁direct	-9.01144
of	-9.01254
▁network	-9.01339
▁elements	-9.01376
▁2016	-9.01475
▁earlie	-9.01581
▁again	-9.01587
▁territory	-9.01622
▁Link	-9.01623
u	-9.01623
▁Court	-9.01657
▁saw	-9.01863
▁increased	-9.01891
▁2005	-9.01922
▁related	-9.01939
▁30	-9.01976
▁Slavic	-9.02
▁mid	-9.02038
▁call	-9.02081
▁program	-9.02139
▁stops	-9.02148
▁professional	-9.02153
▁instruments	-9.02176
ably	-9.02383
lar	-9.02408
▁institutions	-9.02498
▁Square	-9.02812
▁Report	-9.02812
▁multiple	-9.0282
▁basic	-9.02875
▁multi	-9.02896
▁Arm	-9.03072
▁added	-9.03191
▁team	-9.03441
▁fall	-9.04024
▁young	-9.04026
▁physical	-9.04079
▁stone	-9.04208
▁Revolution	-9.04305
▁launch	-9.04481
▁position	-9.04688
▁produce	-9.04833
▁access	-9.04909
▁De	-9.04946
▁additional	-9.04979
▁satellites	-9.05024
▁involve	-9.05177
▁operations	-9.05182
▁Over	-9.05287
lthough	-9.05477
▁base	-9.05511
ism	-9.05571
▁father	-9.05718
▁see	-9.06018
▁recent	-9.06126
▁High	-9.06478
▁beginning	-9.06479
▁policy	-9.06492
▁belong	-9.06513
▁sun	-9.06521
▁quality	-9.06652
▁documents	-9.06661
based	-9.06892
▁court	-9.07032
▁25	-9.07193
▁purpose	-9.07227
▁occur	-9.07228
▁100	-9.0729
ted	-9.07429
▁Thomas	-9.07721
▁oldest	-9.0775
▁off	-9.0784
▁below	-9.07852
▁successful	-9.07903
▁engineering	-9.07984
▁moved	-9.08006
▁widely	-9.08143
▁computers	-9.08376
▁stop	-9.08396
▁1991	-9.0892
▁Sichuan	-9.09
▁thought	-9.09081
▁signed	-9.09263
▁defined	-9.09284
▁contrast	-9.09484
▁streets	-9.09526
ieval	-9.09614
▁Catholic	-9.09678
▁recording	-9.09841
▁frame	-9.09903
and	-9.09968
▁class	-9.09979
▁rise	-9.10107
▁money	-9.1027
▁vowel	-9.10273
▁Alps	-9.10283
olar	-9.10376
▁Italian	-9.10385
▁growth	-9.10417
▁Asian	-9.10589
▁create	-9.10608
▁close	-9.10898
▁teams	-9.10934
▁accord	-9.11058
▁person	-9.11221
ist	-9.11262
▁open	-9.11332
▁communities	-9.11568
▁architectural	-9.11601
▁Henry	-9.11617
▁comprehensive	-9.11619
▁canon	-9.11726
▁replaced	-9.11805
▁contestants	-9.11925
▁J	-9.11951
▁remains	-9.12046
▁religion	-9.12354
▁served	-9.12355
▁patent	-9.12358
▁aid	-9.12449
▁Estonia	-9.12722
▁NARA	-9.12883
▁Napoleon	-9.12883
▁Paris	-9.12887
▁James	-9.1289
▁earlier	-9.1293
▁Chief	-9.12934
▁1970	-9.13011
▁allows	-9.13036
ner	-9.13642
▁album	-9.1372
▁Archives	-9.13769
▁cells	-9.1406
▁Technology	-9.14217
▁parliament	-9.14217
▁studies	-9.14217
▁women	-9.14217
▁east	-9.14217
▁varieties	-9.14218
▁Sports	-9.14329
▁coronation	-9.14358
rom	-9.14375
▁introduced	-9.14524
▁depend	-9.14853
▁separate	-9.14894
▁route	-9.15101
▁operate	-9.15377
▁go	-9.15414
▁RSFSR	-9.15568
▁always	-9.15568
▁County	-9.15571
▁wrote	-9.15586
▁organisms	-9.15613
▁mention	-9.15638
▁length	-9.15791
▁Lee	-9.15912
▁responsib	-9.1597
▁bi	-9.16004
▁notable	-9.16056
▁production	-9.16536
▁hav	-9.16738
▁songs	-9.16755
▁9	-9.16811
tan	-9.16847
▁compression	-9.16938
▁square	-9.16938
▁rock	-9.16972
▁whom	-9.17146
ent	-9.17214
▁died	-9.17276
▁develop	-9.17442
▁travel	-9.1747
▁release	-9.17482
▁thousands	-9.17651
▁fourth	-9.17703
▁theory	-9.17808
▁artists	-9.179
▁sports	-9.17971
▁night	-9.17984
▁Office	-9.18284
▁cause	-9.18309
▁Second	-9.18327
▁ethnic	-9.18327
▁spread	-9.1833
▁AFL	-9.18419
▁actual	-9.18444
▁2006	-9.18558
▁Both	-9.1895
▁provid	-9.19026
▁video	-9.19271
▁good	-9.19429
▁users	-9.19441
▁returned	-9.19534
▁describe	-9.19546
▁houses	-9.19594
▁Westminster	-9.19735
tion	-9.19782
▁rough	-9.19786
▁operating	-9.19814
▁6	-9.19893
▁workers	-9.20094
▁changes	-9.20128
▁2003	-9.20461
▁forces	-9.2064
▁organizations	-9.2076
▁contestant	-9.20774
▁pre	-9.20811
▁come	-9.20812
▁attend	-9.20828
▁numer	-9.212
▁Sony	-9.21232
▁months	-9.2137
▁longer	-9.21403
▁loss	-9.21414
▁described	-9.21673
▁lines	-9.21751
▁connect	-9.21786
▁Bay	-9.2181
▁arriv	-9.21857
▁translation	-9.22282
▁movement	-9.22291
▁member	-9.22298
▁staff	-9.22613
▁pronunciation	-9.22613
▁Law	-9.22628
▁eventually	-9.22675
ized	-9.22679
▁required	-9.22917
▁fly	-9.22977
▁deal	-9.23002
▁stated	-9.23214
tic	-9.23329
▁cultures	-9.23532
▁application	-9.23732
▁tend	-9.23776
▁case	-9.23783
▁foundation	-9.23848
▁formal	-9.23896
▁immun	-9.24048
▁Hospital	-9.24084
▁presence	-9.24084
▁above	-9.24084
▁carry	-9.24101
▁lost	-9.24108
▁famous	-9.24128
▁elected	-9.24152
▁technical	-9.24165
▁secondary	-9.24222
▁post	-9.24242
everal	-9.2429
▁gained	-9.24636
▁ago	-9.2464
▁judges	-9.24786
▁contract	-9.25019
▁channels	-9.25179
▁link	-9.2524
▁browser	-9.25246
▁performance	-9.25272
▁Dr	-9.25499
▁Airport	-9.25597
O	-9.2566
▁origin	-9.2581
▁limited	-9.26022
coming	-9.26246
▁increase	-9.2641
▁nation	-9.26459
▁whe	-9.26513
▁med	-9.26598
▁article	-9.26793
▁Black	-9.26843
▁Drive	-9.26935
▁document	-9.26996
▁k	-9.27019
▁branch	-9.27035
▁sent	-9.27078
▁Day	-9.27083
▁mythology	-9.27091
▁prior	-9.27095
▁eliminated	-9.27126
▁8	-9.2713
▁Top	-9.27145
▁nature	-9.27162
▁Al	-9.27237
▁marked	-9.27376
▁formats	-9.27489
▁con	-9.27617
▁residents	-9.27619
▁La	-9.27848
▁style	-9.27884
▁mainly	-9.28105
▁Med	-9.28218
▁relationship	-9.28341
ft	-9.28358
▁ISP	-9.28381
▁economy	-9.2863
▁telephone	-9.2863
▁Poland	-9.28633
▁navigation	-9.28638
▁religious	-9.2865
▁UN	-9.28696
▁Dutch	-9.28715
▁musical	-9.28927
▁miles	-9.28973
▁granted	-9.29035
▁color	-9.29095
▁sales	-9.29136
▁eastern	-9.29157
went	-9.29209
▁trade	-9.29792
▁district	-9.29908
▁v	-9.30033
▁rest	-9.30178
▁Beijing	-9.30192
▁iTunes	-9.30192
▁metropoli	-9.30194
▁HD	-9.30195
▁differ	-9.30254
▁adopted	-9.30283
T	-9.30319
▁en	-9.30344
▁functions	-9.3037
▁larger	-9.30397
▁report	-9.30437
b	-9.30466
▁mi	-9.30536
v	-9.3064
▁standards	-9.30649
▁principles	-9.30796
ization	-9.30801
ese	-9.30877
including	-9.30946
gatherers	-9.31464
▁concept	-9.31521
▁cultural	-9.31531
▁month	-9.31684
▁texts	-9.31742
▁Under	-9.31774
▁Company	-9.31779
▁Education	-9.31779
▁Museum	-9.31779
▁properties	-9.3178
▁activity	-9.31783
▁invented	-9.31835
▁possible	-9.31836
▁businesses	-9.31904
il	-9.31971
▁Old	-9.31983
▁Sir	-9.31992
▁training	-9.31999
▁via	-9.32039
x	-9.32139
▁islands	-9.32203
sexual	-9.32285
▁24	-9.3235
man	-9.32677
▁ft	-9.3277
▁get	-9.33023
▁content	-9.33088
▁continues	-9.33246
▁Society	-9.33392
▁Football	-9.33393
▁damage	-9.334
▁overall	-9.33402
▁h	-9.33409
▁collection	-9.33426
▁instead	-9.33435
▁attention	-9.33452
▁appearance	-9.33454
▁extend	-9.33476
▁Tibet	-9.33584
▁charge	-9.33627
▁issue	-9.33655
▁becom	-9.33723
▁applications	-9.33834
4	-9.33908
led	-9.34114
▁reached	-9.34117
▁Ming	-9.34345
▁pro	-9.34435
▁function	-9.34463
▁composition	-9.34842
▁location	-9.3485
▁resolution	-9.3486
▁breed	-9.34915
▁hold	-9.34958
▁families	-9.35032
▁analysis	-9.35036
▁Long	-9.3505
▁renamed	-9.35051
▁funeral	-9.35053
▁Spain	-9.35081
▁storage	-9.35102
▁rules	-9.35111
▁she	-9.35126
▁police	-9.35133
▁majority	-9.35187
▁Christians	-9.35211
▁maintain	-9.35224
▁Near	-9.3523
day	-9.35367
▁port	-9.35539
▁Jan	-9.357
▁sequences	-9.3613
▁once	-9.36219
▁divid	-9.3632
▁Cap	-9.36411
▁Season	-9.36416
▁distinction	-9.36422
▁da	-9.36452
▁protein	-9.36503
ton	-9.36524
▁cost	-9.36556
▁point	-9.36567
▁eviden	-9.36666
▁airport	-9.36702
▁Foundation	-9.36702
▁vary	-9.36729
▁sites	-9.36764
▁already	-9.36778
▁alternative	-9.3687
▁Army	-9.36988
▁ISPs	-9.37005
ncient	-9.37079
▁divide	-9.37082
▁low	-9.37097
▁receiv	-9.37198
A	-9.37358
cal	-9.37486
▁designed	-9.37896
▁global	-9.38023
ological	-9.3812
▁you	-9.38121
▁broadcasts	-9.38132
de	-9.38314
▁lighting	-9.38382
▁Thomson	-9.38393
▁Alexand	-9.38393
▁Catalonia	-9.38394
▁Department	-9.38394
▁income	-9.38405
▁software	-9.38416
▁Also	-9.38425
▁played	-9.38426
▁Suprem	-9.38473
▁runner	-9.38493
bit	-9.38627
▁Tibetan	-9.38653
▁western	-9.38669
▁definition	-9.38776
▁obligations	-9.38952
▁retain	-9.39078
▁cover	-9.39242
▁She	-9.39293
▁opened	-9.39457
ory	-9.3947
▁birth	-9.39962
▁revenue	-9.40001
▁border	-9.40025
▁Korea	-9.40053
self	-9.40064
▁might	-9.40117
▁Charter	-9.40118
▁Radio	-9.40118
▁Wood	-9.40119
▁Paul	-9.40132
▁Library	-9.40151
▁field	-9.40152
▁1960	-9.40165
▁Proto	-9.40181
▁Classical	-9.40209
▁smaller	-9.40342
▁cases	-9.40542
▁attain	-9.40707
W	-9.40817
▁account	-9.4095
▁consider	-9.41017
▁problems	-9.41332
▁pop	-9.41447
▁units	-9.41482
▁rule	-9.4151
▁Sunday	-9.41598
▁genre	-9.41768
▁Olympic	-9.41778
▁park	-9.41803
▁organism	-9.41822
▁Treat	-9.41845
▁female	-9.41863
▁Congress	-9.41871
▁Community	-9.41872
▁SFSR	-9.41872
▁federal	-9.41872
▁response	-9.41872
▁quake	-9.41872
▁Health	-9.41875
▁HDI	-9.41881
▁Lord	-9.41881
▁contribut	-9.41887
▁ga	-9.4192
▁Dog	-9.41975
ach	-9.41976
such	-9.41989
▁visit	-9.4203
▁prevent	-9.42048
▁BC	-9.42109
▁walls	-9.42129
▁need	-9.42199
▁testing	-9.4236
▁reach	-9.42461
▁analog	-9.42681
▁Slavs	-9.4273
Romance	-9.42823
▁sounds	-9.43029
▁stage	-9.43099
▁grow	-9.4324
▁give	-9.43523
▁Minister	-9.43604
▁newspaper	-9.43613
▁share	-9.43629
▁guard	-9.43637
▁Britain	-9.43658
▁Urban	-9.43659
▁Post	-9.4367
▁III	-9.43681
▁la	-9.43692
▁Brooklyn	-9.43696
▁cent	-9.43706
▁Commonwealth	-9.43726
▁frequent	-9.43757
▁voiced	-9.44244
ey	-9.44444
sh	-9.4447
▁affect	-9.44717
▁hand	-9.44722
over	-9.44737
▁122	-9.44925
et	-9.44986
▁Australia	-9.45313
▁Irish	-9.45476
▁Staff	-9.45476
▁deploy	-9.45477
▁Southern	-9.45485
▁MPEG	-9.45545
▁applied	-9.4555
▁stay	-9.45555
▁action	-9.45594
▁Northern	-9.45619
▁speakers	-9.45629
▁center	-9.45651
▁reports	-9.45765
sides	-9.45852
▁browsers	-9.45881
▁working	-9.4591
▁previously	-9.45942
▁2012.	-9.4611
rought	-9.46181
▁courses	-9.46387
▁uses	-9.46451
2)	-9.46457
owned	-9.46496
▁traditions	-9.46549
▁21,	-9.46718
▁equal	-9.46763
▁23	-9.46881
▁resources	-9.47188
▁Le	-9.47195
▁complex	-9.47236
▁ra	-9.47251
▁inherit	-9.47311
▁Fox	-9.47325
▁equipment	-9.47328
▁societies	-9.47328
▁Battle	-9.47329
▁middle	-9.47331
▁Later	-9.47334
▁existence	-9.47345
▁text	-9.47353
▁proportion	-9.47383
▁believed	-9.47435
▁funding	-9.47635
cit	-9.47658
▁males	-9.47803
▁build	-9.47934
▁cross	-9.47984
I	-9.48349
most	-9.48371
▁lower	-9.48478
▁towards	-9.48987
▁mass	-9.49103
▁7,	-9.49109
▁⟨	-9.49214
▁David	-9.49214
▁Morning	-9.49214
▁companies	-9.49214
▁impact	-9.49215
▁native	-9.49216
▁chemical	-9.49218
▁normal	-9.49226
▁Columbia	-9.49239
▁novel	-9.4932
▁cardinal	-9.49328
▁reference	-9.49334
▁Engineering	-9.49356
▁operation	-9.49434
▁ended	-9.49491
▁31	-9.49546
▁El	-9.50079
▁suggest	-9.50373
▁bar	-9.50478
▁gas	-9.5066
▁Not	-9.50772
▁model	-9.50876
▁display	-9.5102
▁compos	-9.51024
▁Place	-9.51108
▁Division	-9.51137
▁Television	-9.51138
▁watch	-9.51138
▁Research	-9.51138
▁Massachusetts	-9.51138
▁Architecture	-9.51138
▁except	-9.51142
▁speech	-9.51145
▁Robert	-9.5117
▁provinces	-9.51179
▁science	-9.51217
▁decade	-9.51279
▁compared	-9.51379
▁indigenous	-9.51452
ue	-9.51635
ry	-9.51908
▁Z	-9.52082
wood	-9.52217
which	-9.52266
▁iPods	-9.52404
▁individuals	-9.52468
▁12,	-9.52786
▁differences	-9.528
▁us	-9.53
oman	-9.53026
▁Sudan	-9.53098
▁coast	-9.53099
▁else	-9.53103
▁mainstream	-9.53106
▁Standard	-9.53107
▁venture	-9.53108
▁Occitan	-9.53174
▁potential	-9.53174
▁oil	-9.53187
▁hundred	-9.5319
▁Arabic	-9.53195
▁relative	-9.53195
▁Air	-9.53223
▁division	-9.53244
▁older	-9.53252
▁sole	-9.53263
▁industrial	-9.53375
▁section	-9.53467
for	-9.53547
▁movements	-9.53611
at	-9.5364
▁Indo	-9.53756
ose	-9.53762
▁stand	-9.5389
▁factors	-9.54143
id	-9.54164
▁devices	-9.54419
▁hours	-9.54573
▁i	-9.54581
▁broadcasting	-9.54672
▁promote	-9.54992
▁Command	-9.55016
▁campus	-9.55045
▁Web	-9.55072
▁Committee	-9.55098
▁Theravada	-9.55098
▁necessar	-9.55098
▁competition	-9.55099
▁centers	-9.55113
▁mother	-9.55127
▁coverage	-9.55131
▁agricultural	-9.55139
▁child	-9.55153
▁declared	-9.55158
▁owned	-9.55161
▁little	-9.55161
▁Portland	-9.5518
▁playing	-9.55189
▁giving	-9.55192
▁county	-9.55208
▁dance	-9.55215
▁benefit	-9.55275
▁Service	-9.55292
▁resource	-9.55294
▁Life	-9.55331
▁portion	-9.55344
▁gain	-9.55445
utonomous	-9.55802
ˈ	-9.56112
▁covered	-9.56138
▁writings	-9.56331
▁read	-9.56424
▁Commission	-9.56585
▁view	-9.56605
▁components	-9.56664
▁wealth	-9.57079
▁1998	-9.57139
▁activities	-9.57139
▁defeat	-9.57139
▁latter	-9.57141
▁find	-9.57153
▁Princess	-9.57168
cension	-9.57168
▁treatment	-9.57172
▁authority	-9.57173
▁females	-9.57211
▁Low	-9.57263
▁Northwestern	-9.57301
▁continue	-9.57306
▁Emperor	-9.57312
▁Lithuania	-9.57322
▁quarter	-9.57336
▁cell	-9.57366
▁phonology	-9.57368
▁version	-9.57375
▁image	-9.57384
▁respectively	-9.57535
▁stress	-9.57537
▁Act	-9.57573
▁Charl	-9.57713
se	-9.5772
▁affected	-9.58045
ship	-9.58212
update	-9.58363
▁Red	-9.58368
▁king	-9.58516
P	-9.58601
▁car	-9.59017
▁require	-9.59055
▁powers	-9.5912
▁store	-9.59202
▁beyond	-9.59222
▁headquarters	-9.59222
▁Jersey	-9.59223
▁Gallo	-9.59223
▁Modern	-9.59223
▁prominent	-9.59223
▁feet	-9.5923
▁Twi	-9.59231
▁dead	-9.59232
ability	-9.59236
▁sea	-9.5925
▁ratio	-9.59255
▁emergency	-9.59262
▁Edward	-9.59267
▁Blue	-9.59284
▁1980	-9.59306
nother	-9.59324
▁involv	-9.59324
▁neighbor	-9.59385
▁cast	-9.59409
▁distinguished	-9.59424
▁suspended	-9.5949
▁intended	-9.59502
▁letter	-9.59544
▁noble	-9.59805
▁24,	-9.5992
▁Wi	-9.59944
▁viewed	-9.60006
▁centre	-9.60023
▁republic	-9.60206
▁reasons	-9.60214
▁clocks	-9.60389
not	-9.60411
old	-9.60488
▁files	-9.60514
▁th	-9.60515
▁conduct	-9.60573
▁blocks	-9.60958
▁likely	-9.60967
re	-9.61106
▁charter	-9.61113
5	-9.61167
▁Devon	-9.61349
▁agencies	-9.6135
▁agriculture	-9.6135
▁experience	-9.6135
▁basis	-9.61353
▁widespread	-9.61355
▁voiceless	-9.6136
▁league	-9.61361
").	-9.61368
▁survey	-9.61372
▁summer	-9.61387
▁churches	-9.61396
▁winning	-9.61405
▁shift	-9.61417
▁removed	-9.61481
▁Michael	-9.61531
▁label	-9.61582
▁breeds	-9.61586
▁types	-9.6165
▁Queen	-9.61668
▁ground	-9.6167
▁1080	-9.61671
▁climate	-9.61671
▁project	-9.61674
▁difference	-9.61683
▁Ca	-9.61752
/.	-9.61784
▁fans	-9.61857
▁unst	-9.62012
▁slaves	-9.62056
ie	-9.62149
ia	-9.62267
▁double	-9.62347
▁elections	-9.62556
▁Somalis	-9.62583
ough	-9.62718
▁obtain	-9.62754
▁save	-9.62773
ra	-9.62864
▁My	-9.62877
im	-9.62989
▁Se	-9.63439
▁attract	-9.63504
▁Governor	-9.63525
▁terminal	-9.63552
▁derive	-9.63561
▁command	-9.63655
▁joint	-9.63854
▁break	-9.63925
▁occurred	-9.63942
▁accepted	-9.63972
ternal	-9.64021
▁aspiration	-9.64148
▁recently	-9.64164
▁shown	-9.64392
▁visited	-9.64469
▁therefore	-9.64484
▁selling	-9.64551
ine	-9.64667
H	-9.64676
▁learn	-9.64963
▁trans	-9.64995
▁2007.	-9.65233
efence	-9.65328
▁wherea	-9.65385
▁block	-9.65395
▁exchange	-9.65419
▁anti	-9.65437
▁replace	-9.65449
▁images	-9.65492
▁ever	-9.65616
▁Ocean	-9.65652
etc	-9.65691
▁Zelda	-9.65746
▁agency	-9.65749
▁65	-9.65751
▁Afr	-9.65754
▁Additionally	-9.65759
▁municipality	-9.6579
▁*	-9.65814
▁apartheid	-9.65832
▁borders	-9.65869
▁tried	-9.6588
▁requirements	-9.66021
▁His	-9.66025
▁settlement	-9.66106
▁idea	-9.66119
▁genetic	-9.66152
▁humans	-9.66202
▁employed	-9.66294
▁g	-9.66402
▁directly	-9.66434
▁lack	-9.66494
▁coding	-9.66561
▁continu	-9.66656
▁Iranian	-9.66709
do	-9.66756
currently	-9.66906
▁connected	-9.66944
▁bit	-9.67023
▁Ro	-9.67433
▁leg	-9.67448
D	-9.67597
▁previous	-9.6766
▁offices	-9.67722
▁mu	-9.67739
line	-9.67834
▁element	-9.67993
▁structural	-9.68009
▁Hudson	-9.68019
▁literature	-9.68019
▁strength	-9.68019
▁surround	-9.68019
▁Bridge	-9.68019
▁Network	-9.68019
▁programming	-9.6802
▁genomes	-9.68026
▁Ott	-9.68029
▁1930	-9.6803
▁security	-9.68043
▁expression	-9.68046
▁Wall	-9.68047
▁>	-9.68049
▁organized	-9.6809
▁Secretary	-9.68245
▁Iran	-9.68302
▁rais	-9.68351
▁import	-9.68366
▁disco	-9.68464
▁cut	-9.68507
▁operated	-9.68858
▁Free	-9.68874
▁numbers	-9.68969
ty	-9.69047
▁transfer	-9.69226
▁northwest	-9.6967
▁ways	-9.697
▁environmental	-9.69803
▁Games	-9.69973
time	-9.69985
▁respective	-9.70007
ficially	-9.70009
▁active	-9.70018
▁minor	-9.70313
▁Parliament	-9.70345
▁Switzerland	-9.70345
▁knowledge	-9.70345
▁copies	-9.70345
▁football	-9.70345
▁Renaissance	-9.70345
▁grammar	-9.70346
▁Yugoslavia	-9.70346
▁property	-9.70351
▁retail	-9.70353
▁gold	-9.70367
▁immediate	-9.70397
▁governor	-9.70455
▁medi	-9.70455
▁budget	-9.70474
▁covers	-9.70491
▁Constitution	-9.70534
▁increasing	-9.70606
▁District	-9.7064
▁processing	-9.70667
▁interest	-9.70768
▁effective	-9.70822
▁Man	-9.70862
gatherer	-9.70883
▁architect	-9.70965
▁Ra	-9.70975
▁controll	-9.71031
▁right	-9.71037
▁(1	-9.7109
▁too	-9.71444
▁formation	-9.71537
▁met	-9.71764
like	-9.71897
▁molecul	-9.71992
ressed	-9.72242
▁constitution	-9.72289
ə	-9.72483
▁simpl	-9.72505
⟩	-9.72519
▁Prince	-9.72696
mechanical	-9.72707
▁Brazil	-9.72725
▁Communist	-9.72725
▁studied	-9.72725
▁temperament	-9.72725
▁royal	-9.72726
▁Houston	-9.72726
▁Devonport	-9.72727
▁management	-9.72729
▁policies	-9.7273
▁consent	-9.72731
▁framework	-9.72732
▁heavi	-9.72734
▁Organization	-9.72735
▁piano	-9.72736
▁Underwood	-9.72737
▁Row	-9.72741
▁Hill	-9.72742
sky	-9.72744
▁enhance	-9.72744
▁Canon	-9.72783
▁expected	-9.72793
▁carrie	-9.72814
▁lexical	-9.7282
▁fail	-9.72832
▁civil	-9.72833
▁bring	-9.7284
▁essential	-9.72859
▁army	-9.72859
▁thus	-9.72865
▁establish	-9.72893
▁processes	-9.72922
▁assumed	-9.72933
▁seasons	-9.72967
▁winter	-9.73157
▁away	-9.73212
▁killed	-9.73235
▁Protestant	-9.73246
▁hotel	-9.733
▁component	-9.73316
▁migrate	-9.73317
▁Op	-9.73442
▁geographical	-9.73522
▁3,	-9.73536
▁albums	-9.73626
▁charts	-9.73746
eventh	-9.7377
▁user	-9.73892
▁Co	-9.73988
▁add	-9.7405
▁institutes	-9.74159
ice	-9.74676
▁sell	-9.74689
▁advance	-9.7492
▁comprise	-9.74945
see	-9.75007
▁threat	-9.75046
▁broad	-9.75099
▁peoples	-9.75106
▁traffic	-9.75136
▁Example	-9.75165
▁Festival	-9.75165
▁Gautama	-9.75165
▁bandwidth	-9.75165
▁Abbey	-9.75165
▁society	-9.75165
▁respect	-9.75165
▁density	-9.75168
▁worldwide	-9.75179
▁Even	-9.75182
▁recorded	-9.75201
▁lowest	-9.75202
▁RNA	-9.75222
▁reject	-9.75238
▁Wide	-9.75262
▁done	-9.75303
▁accus	-9.75318
▁evolved	-9.75358
ons	-9.75453
▁classified	-9.75454
▁90	-9.75463
▁Pacific	-9.75468
▁achieved	-9.75521
▁value	-9.75563
▁mixed	-9.75614
▁linguistic	-9.75642
▁characteristics	-9.75651
▁performances	-9.75717
▁machine	-9.75805
6	-9.75817
▁channel	-9.75821
▁mission	-9.75829
eastern	-9.75934
▁Time	-9.76024
▁hour	-9.76094
▁150	-9.76241
▁institution	-9.763
▁finalists	-9.76716
▁colleges	-9.76869
taken	-9.76898
▁reflect	-9.76934
▁deaths	-9.76973
▁leader	-9.77073
▁beer	-9.77183
▁hosted	-9.77183
▁environment	-9.77196
▁ideas	-9.77199
▁films	-9.77248
former	-9.77397
▁Services	-9.77428
rs	-9.77496
istence	-9.77654
▁Hall	-9.77663
▁Business	-9.77664
▁Lawrence	-9.77664
▁Universities	-9.77664
▁Virgil	-9.77664
▁administer	-9.77664
▁hunting	-9.77664
ː	-9.77665
ν	-9.77665
▁stadium	-9.77665
▁Broadway	-9.77665
▁BCE	-9.7767
▁himself	-9.77684
▁capacity	-9.77685
▁situation	-9.77693
▁r	-9.77738
▁Balearic	-9.7774
▁vocabulary	-9.7774
▁amount	-9.77784
▁Sam	-9.77827
▁put	-9.77896
ny	-9.78055
▁Arabia	-9.78146
▁origins	-9.78256
▁functional	-9.78308
▁experimental	-9.78326
▁department	-9.7834
ni	-9.78343
ting	-9.7841
▁stored	-9.78425
▁completed	-9.78488
▁degree	-9.7851
▁independence	-9.78539
▁Force	-9.78543
▁governments	-9.7855
▁electronic	-9.7859
▁figures	-9.78593
▁varie	-9.78598
▁heat	-9.78671
▁premiere	-9.78726
▁magnates	-9.78735
coding	-9.78739
▁virtual	-9.78783
▁San	-9.7879
▁Out	-9.78823
▁plants	-9.79101
▁Lu	-9.79128
▁efforts	-9.79263
eft	-9.79352
▁target	-9.79387
speaking	-9.79431
▁suffer	-9.79445
▁Ten	-9.79505
▁toward	-9.79639
▁news	-9.79732
▁Civil	-9.79871
ists	-9.79892
G	-9.79902
▁serves	-9.79922
▁versions	-9.79938
▁Islam	-9.8003
li	-9.80033
▁approach	-9.80171
▁Code	-9.80185
▁limit	-9.80228
è	-9.80229
▁Affairs	-9.80229
▁California	-9.80229
▁Campus	-9.80229
▁Corporation	-9.80229
▁ancestor	-9.80229
▁twice	-9.80229
▁Join	-9.80229
▁aircraft	-9.8023
▁chapter	-9.80233
te	-9.80234
▁safety	-9.80236
▁dating	-9.80239
▁Cook	-9.80248
▁territories	-9.80249
▁path	-9.8026
▁price	-9.8026
▁powerful	-9.8026
▁Of	-9.8026
▁Special	-9.80269
▁Ukrainian	-9.80291
▁Georgian	-9.80292
▁church	-9.80294
▁bass	-9.80301
▁Christianity	-9.80329
▁specified	-9.80357
▁collapsed	-9.80472
▁rival	-9.80537
▁2015.	-9.80559
▁precepts	-9.80595
▁migrants	-9.80695
▁tourists	-9.80695
▁constructed	-9.80701
▁2002	-9.80706
▁expanded	-9.80759
▁problem	-9.8081
▁partnership	-9.80871
▁instance	-9.80993
▁disaster	-9.80995
▁White	-9.81062
▁magazine	-9.81066
▁Un	-9.81071
▁direction	-9.81075
▁roots	-9.81255
▁suggested	-9.8126
▁techniques	-9.81279
▁surviv	-9.81322
▁fire	-9.81479
▁representatives	-9.81722
▁Ages	-9.81919
ne	-9.81992
▁Up	-9.82044
2,	-9.82149
MS	-9.82269
▁dis	-9.82487
▁entire	-9.82499
▁proper	-9.82502
▁fact	-9.82517
▁Swi	-9.8253
▁offered	-9.82722
▁artist	-9.82742
▁dates	-9.82757
▁25,	-9.8281
▁Hangzhou	-9.8286
▁Sanchez	-9.8286
▁Wenchuan	-9.8286
▁bacteria	-9.8286
▁library	-9.8286
▁respond	-9.8286
▁Alpine	-9.82861
▁Follow	-9.82862
▁Police	-9.82862
▁Smith	-9.82865
▁Democratic	-9.82866
▁Tristan	-9.82869
▁mobile	-9.8287
▁10%	-9.82874
▁easily	-9.82875
▁signal	-9.82906
▁commissioner	-9.82918
▁Bond	-9.8292
▁foot	-9.82934
▁Arena	-9.82944
▁1971	-9.82957
▁connection	-9.82978
▁medium	-9.82989
▁pronounced	-9.83012
town	-9.8305
▁holdings	-9.83086
▁Europeans	-9.83359
▁printing	-9.83362
▁matter	-9.83664
▁board	-9.83709
▁estate	-9.83722
▁individual	-9.83785
▁coup	-9.83818
▁college	-9.83852
▁players	-9.84014
▁suffering	-9.84047
▁union	-9.84057
tal	-9.84059
▁initial	-9.84059
▁practiced	-9.84193
▁band	-9.84222
▁mountains	-9.84495
▁1920	-9.84522
▁35	-9.84692
Slavic	-9.84727
from	-9.84759
definition	-9.84796
▁practices	-9.84859
▁ship	-9.8486
mediate	-9.8492
▁40	-9.85098
▁regular	-9.85192
▁subsequent	-9.85199
tha	-9.85287
su	-9.85289
▁treat	-9.85382
per	-9.85392
called	-9.85491
rmal	-9.85496
▁react	-9.85515
el	-9.85515
▁measure	-9.85547
▁Amsterdam	-9.85563
▁politics	-9.85563
▁Bureau	-9.85563
▁extreme	-9.85563
▁Broz	-9.85564
▁academic	-9.85572
▁prince	-9.85575
▁peaceful	-9.85576
▁Layer	-9.85589
▁Thus	-9.85593
▁knot	-9.85602
▁man	-9.85604
▁otherwise	-9.85606
▁Bush	-9.85616
▁manufacture	-9.8562
▁needs	-9.85649
low	-9.85659
▁rose	-9.85663
ling	-9.85664
▁folk	-9.85691
▁say	-9.85754
▁acquir	-9.85789
▁Four	-9.85846
▁locations	-9.85872
▁mail	-9.85879
▁Mary	-9.85949
▁u	-9.86166
▁ones	-9.86215
▁designat	-9.86236
▁You	-9.86266
▁tribes	-9.86307
▁website	-9.86347
▁register	-9.86373
▁SSR	-9.86465
▁sequence	-9.86496
▁communication	-9.86497
▁device	-9.86501
▁cable	-9.86538
▁weekly	-9.8658
▁Archive	-9.86597
ew	-9.86657
▁demand	-9.86668
▁Land	-9.86689
com	-9.86707
▁phonemes	-9.86726
▁Inn	-9.86967
▁26	-9.86997
▁des	-9.871
ɛ	-9.87491
▁avoid	-9.8753
▁enter	-9.87568
▁o	-9.87616
▁Bowl	-9.87664
mong	-9.87807
▁test	-9.87993
▁200	-9.88069
▁move	-9.88112
▁phonolog	-9.88115
▁author	-9.88305
oreign	-9.88319
aught	-9.88341
ι	-9.88341
▁1967	-9.88341
▁Academy	-9.88341
▁Convention	-9.88341
▁Vitruvius	-9.88341
▁regime	-9.88341
▁substantial	-9.88341
▁torchbearer	-9.88341
▁Two	-9.88341
▁Compass	-9.88341
▁Machine	-9.88341
▁Stadium	-9.88341
▁jazz	-9.88341
▁contest	-9.88343
▁Siddh	-9.88344
▁approved	-9.88346
▁Earth	-9.88351
▁review	-9.88357
▁pay	-9.88372
▁Town	-9.88372
ir	-9.88379
European	-9.88395
▁chose	-9.88416
▁seem	-9.88432
▁Jewish	-9.88448
▁contact	-9.88448
▁code	-9.88463
▁listening	-9.88466
▁assistance	-9.88486
▁chief	-9.88495
▁adjust	-9.88496
▁Sanskrit	-9.88568
▁arrested	-9.88573
▁customers	-9.88686
▁grant	-9.88712
▁entirely	-9.88723
na	-9.88755
▁indicat	-9.88849
▁prob	-9.88968
▁occasional	-9.89054
▁monarch	-9.89091
▁annually	-9.89235
▁organ	-9.89308
▁Ba	-9.89414
▁tree	-9.89422
▁Mr	-9.89423
▁Age	-9.89426
▁purposes	-9.89673
▁decide	-9.89716
itive	-9.89895
▁books	-9.89986
▁pages	-9.90018
ward	-9.90319
making	-9.90328
umer	-9.90331
Iranian	-9.90354
classical	-9.90361
▁Q	-9.90501
▁appoint	-9.90515
▁entr	-9.90551
ford	-9.90573
standing	-9.90626
▁nobles	-9.90833
▁recognize	-9.90848
state	-9.90973
▁raise	-9.91101
▁mental	-9.91183
▁PAL	-9.91198
▁elimination	-9.91198
▁expenditure	-9.91198
▁fashion	-9.91198
▁restaurant	-9.91198
▁Glover	-9.91199
▁litter	-9.91199
▁Seminary	-9.91202
▁expensive	-9.91202
▁risk	-9.91203
▁CEO	-9.91205
▁reduction	-9.91206
▁Media	-9.91211
▁1944	-9.91211
cular	-9.91226
titive	-9.91237
▁Crown	-9.91242
▁Information	-9.91257
▁council	-9.91284
▁80	-9.91288
▁1950	-9.91295
▁Spectre	-9.91358
▁Italy	-9.91364
▁Social	-9.91365
▁temporary	-9.91397
▁seek	-9.91402
▁Path	-9.91475
▁Architects	-9.91498
▁sources	-9.91598
▁Operations	-9.91609
▁Han	-9.91682
▁monks	-9.91693
▁advanced	-9.91725
anta	-9.91811
▁Game	-9.91813
▁nations	-9.91814
▁beliefs	-9.91879
one	-9.91993
▁things	-9.92057
▁administration	-9.92104
▁hospital	-9.92143
▁polytechnic	-9.92152
▁productions	-9.92185
▁generat	-9.92224
▁pattern	-9.92276
▁effort	-9.92286
▁tide	-9.923
▁variations	-9.92318
▁Art	-9.92324
▁recordings	-9.92514
▁generation	-9.92568
▁laws	-9.92608
ities	-9.92667
F	-9.92753
▁Schools	-9.92787
ure	-9.92841
▁lay	-9.92879
▁distance	-9.93031
with	-9.93367
-2	-9.93424
▁inside	-9.93493
▁Iberia	-9.93535
▁achieve	-9.93826
▁Gene	-9.94049
▁Chi	-9.94082
▁never	-9.94107
▁Egypt	-9.94117
▁poor	-9.94121
▁prompt	-9.94139
▁1976	-9.94139
▁Amiibo	-9.94139
▁Bosnia	-9.94139
▁Hampshire	-9.94139
▁Kanye	-9.94139
▁Seacrest	-9.94139
▁encompass	-9.94139
▁photophone	-9.94139
▁Cunha	-9.94139
▁Stalin	-9.94139
▁fifteen	-9.94139
▁pressure	-9.94141
▁engage	-9.94141
▁grid	-9.94142
▁visitors	-9.94146
▁soft	-9.9415
▁Jones	-9.94164
▁upstream	-9.94171
▁17,	-9.9418
▁electricity	-9.94193
▁Pope	-9.94199
▁parallel	-9.94203
▁Rome	-9.94242
▁master	-9.94243
▁Madison	-9.94279
▁opera	-9.9429
▁dukkha	-9.94304
▁sharing	-9.94304
▁Sun	-9.94342
▁meters	-9.94359
▁1993	-9.94391
▁combined	-9.94452
▁X	-9.94452
men	-9.94481
▁Wal	-9.94534
▁track	-9.94544
▁4,	-9.94662
▁Prim	-9.94673
▁actor	-9.94734
▁repeats	-9.9484
▁Ka	-9.94853
▁governed	-9.94938
▁bigge	-9.95119
▁bishops	-9.95181
▁temperature	-9.95246
▁mountain	-9.95315
▁writing	-9.95321
▁consonant	-9.9533
ri	-9.95435
▁Australian	-9.95462
▁goal	-9.95514
▁finale	-9.95525
▁theme	-9.95555
▁sport	-9.95635
eval	-9.95723
▁Mik	-9.9578
▁favor	-9.95809
▁te	-9.95817
lecommunications	-9.95837
▁intersect	-9.95915
▁Her	-9.9593
▁serv	-9.95973
▁peaks	-9.9599
▁lives	-9.96276
▁pass	-9.96367
▁crown	-9.96403
▁15,	-9.96668
▁Queens	-9.96716
▁weeks	-9.96816
▁Fund	-9.96935
▁divisions	-9.96947
▁spoke	-9.97018
▁Work	-9.97148
▁Corruption	-9.97169
▁ESPN	-9.97169
▁Entertainment	-9.97169
▁Fradiani	-9.97169
▁census	-9.97169
▁difficult	-9.97169
▁facilities	-9.97169
▁navigate	-9.97169
▁producing	-9.97169
▁settled	-9.97169
▁UTC	-9.9717
▁permitted	-9.9717
▁1987	-9.97172
▁gradually	-9.97176
▁FDR	-9.97177
▁bought	-9.97179
▁1995	-9.9718
▁encoding	-9.97181
▁distribution	-9.9719
▁Fire	-9.97192
▁legislation	-9.97205
▁minority	-9.97209
▁1992	-9.97209
▁we	-9.97249
▁accounts	-9.97315
▁FM	-9.97321
▁colour	-9.97356
▁Year	-9.97368
▁episode	-9.97385
▁boundar	-9.97416
uch	-9.97429
raham	-9.9746
▁recognized	-9.97542
▁southwest	-9.97605
▁borough	-9.97658
▁morning	-9.97754
▁Sta	-9.97945
▁Streets	-9.98037
▁teachings	-9.98069
▁runn	-9.9823
▁space	-9.9839
▁audience	-9.98403
▁room	-9.98421
▁peak	-9.98575
▁sheet	-9.98586
▁institute	-9.98735
▁Marc	-9.98755
▁details	-9.98827
▁employ	-9.98858
▁su	-9.98965
▁page	-9.99042
cation	-9.99077
▁Cons	-9.99161
▁18,	-9.99247
ane	-9.9925
▁roles	-9.99266
°	-9.9939
scale	-9.99553
▁2001	-9.99566
▁render	-9.99571
▁1,	-9.99679
▁Americans	-9.99689
▁2009.	-9.99954
▁acquire	-10.0003
▁internationally	-10.0004
▁profession	-10.002
▁wars	-10.0023
▁Arabs	-10.0024
smooth	-10.0029
▁Administration	-10.0029
▁BMG	-10.0029
▁Centre	-10.0029
▁Peninsula	-10.0029
▁Turkey	-10.0029
▁linguists	-10.0029
▁compensat	-10.0029
▁restrictions	-10.0029
▁Mount	-10.003
▁1964	-10.003
▁protesters	-10.0032
▁sutras	-10.0033
▁shares	-10.0035
▁kept	-10.0039
▁Islamic	-10.0039
▁select	-10.004
▁600	-10.004
▁dropped	-10.0041
▁classes	-10.0043
▁description	-10.0048
▁citizens	-10.005
▁transmitted	-10.005
▁AD	-10.0072
▁Per	-10.0074
▁fl	-10.0075
▁protest	-10.0086
▁nucle	-10.0087
K	-10.0088
▁input	-10.0088
▁relationships	-10.009
▁Change	-10.0104
▁born	-10.0107
▁passed	-10.0109
saw	-10.0142
▁RCA	-10.0143
he	-10.0143
▁Y	-10.0149
▁mono	-10.0149
▁correspondent	-10.0149
▁strip	-10.0151
▁Executive	-10.0152
▁conflict	-10.0163
▁relation	-10.0165
▁representative	-10.0168
▁govern	-10.017
▁arms	-10.0172
▁truth	-10.0178
hood	-10.0183
▁object	-10.0186
▁aspect	-10.0191
7	-10.0202
▁Like	-10.0207
▁orbit	-10.0208
▁CD	-10.0212
ham	-10.0223
▁Arts	-10.0233
▁communications	-10.0243
▁Nu	-10.0247
▁Do	-10.0252
ful	-10.0267
distance	-10.0267
▁disrupt	-10.027
bout	-10.0277
▁st	-10.0293
ats	-10.03
▁projects	-10.0304
▁grounds	-10.0304
▁rare	-10.0317
▁portions	-10.0323
▁Austria	-10.0336
▁Ed	-10.0339
▁historic	-10.0341
▁dark	-10.0345
▁transition	-10.0346
▁corrupt	-10.0347
▁encode	-10.0347
▁Club	-10.0352
▁Oblast	-10.0352
▁industries	-10.0352
▁senior	-10.0352
▁Oxford	-10.0352
▁argue	-10.0352
▁timing	-10.0352
▁Jackson	-10.0352
▁Anglican	-10.0352
▁Heights	-10.0352
▁consumption	-10.0352
▁Deput	-10.0352
▁heartwood	-10.0352
front	-10.0353
▁1848	-10.0353
▁Back	-10.0353
▁casino	-10.0353
▁1840	-10.0353
▁sovereignty	-10.0353
▁trend	-10.0353
▁nearby	-10.0354
fifth	-10.0355
▁honor	-10.0356
▁crime	-10.0358
▁specialized	-10.0365
▁ball	-10.0365
▁exclusively	-10.0366
▁determine	-10.0367
▁big	-10.0367
▁carbon	-10.0368
▁Bill	-10.0373
▁key	-10.0374
▁grain	-10.0379
▁levels	-10.0382
▁historians	-10.0398
▁Go	-10.0406
▁rich	-10.0406
▁technologies	-10.0411
▁pulp	-10.0413
▁explain	-10.0418
▁articles	-10.0421
▁translated	-10.0427
▁officials	-10.0437
▁ranges	-10.0444
▁aim	-10.0462
▁option	-10.0489
▁transmission	-10.0499
▁hit	-10.05
▁clock	-10.0501
▁student	-10.0502
▁finalist	-10.0506
by	-10.0519
▁Seven	-10.0525
▁publication	-10.0537
▁interior	-10.0542
▁unt	-10.0544
▁structures	-10.0547
▁Only	-10.0559
▁critic	-10.0566
▁causes	-10.0568
▁exception	-10.057
▁Is	-10.0576
door	-10.0604
▁wear	-10.0605
9	-10.0608
box	-10.0608
▁dress	-10.0629
▁contribute	-10.0636
▁Car	-10.0637
▁collect	-10.0654
▁temporar	-10.0667
▁187	-10.0668
▁protect	-10.068
▁Hydrogen	-10.0685
▁Sanjaya	-10.0685
▁aesthetic	-10.0685
▁extent	-10.0685
▁principal	-10.0685
έ	-10.0685
▁Census	-10.0685
▁resort	-10.0685
▁subdivi	-10.0685
▁Sparks	-10.0685
▁Jews	-10.0685
▁Scottish	-10.0685
▁Military	-10.0685
▁encourage	-10.0685
▁undergraduate	-10.0685
▁Harlem	-10.0686
▁Shaivism	-10.0686
▁Ivy	-10.0686
▁Pact	-10.0686
▁1949	-10.0687
▁Baker	-10.0688
▁anniversary	-10.0688
▁voyage	-10.0689
▁Khan	-10.0689
▁passage	-10.069
▁50%	-10.0691
▁Persian	-10.0692
▁invalidate	-10.0694
▁gender	-10.0695
▁Grand	-10.07
▁Save	-10.0705
▁Tom	-10.0708
▁white	-10.071
▁destroyed	-10.0715
▁cellular	-10.0716
▁printed	-10.0724
▁holds	-10.0725
house	-10.0726
▁theories	-10.0726
▁flow	-10.0728
mart	-10.0729
level	-10.0739
▁missing	-10.0741
▁assist	-10.0757
it	-10.077
ddy	-10.0779
ten	-10.0783
▁lie	-10.0786
▁side	-10.0789
colonial	-10.08
▁voice	-10.0807
▁£	-10.0816
▁theatres	-10.083
▁8,	-10.0836
▁subs	-10.0837
▁river	-10.0841
▁executive	-10.0841
▁detail	-10.0847
▁organisation	-10.085
▁export	-10.0865
▁£1	-10.0878
▁seat	-10.0907
alai	-10.091
▁signals	-10.0922
▁existed	-10.0931
ant	-10.0933
dependent	-10.0934
▁machines	-10.094
born	-10.0941
Polish	-10.0947
party	-10.0947
▁meet	-10.0952
▁lands	-10.0953
▁Th	-10.0962
true	-10.0965
awa	-10.0974
▁southeast	-10.0975
▁titles	-10.0988
▁Bo	-10.1009
▁factor	-10.101
▁ensure	-10.1021
etween	-10.1027
▁owners	-10.1028
ī	-10.103
▁Countries	-10.103
▁Mockingbird	-10.103
▁Moscow	-10.103
▁category	-10.103
▁colony	-10.103
▁secure	-10.103
▁heavy	-10.103
▁serious	-10.103
▁Agency	-10.103
▁fiber	-10.103
▁circles	-10.103
▁modifie	-10.103
▁ceremonial	-10.103
▁accent	-10.1031
▁diverse	-10.1031
▁Lama	-10.1031
▁motion	-10.1031
▁wireless	-10.1031
▁That	-10.1032
▁license	-10.1033
▁Today	-10.1034
▁donated	-10.1035
▁Treaties	-10.1035
▁explorer	-10.1036
E	-10.1037
▁guarantee	-10.1038
▁green	-10.1039
▁initiated	-10.104
▁branches	-10.1043
▁Labour	-10.1044
ba	-10.1044
▁500	-10.1044
▁alter	-10.1047
▁meditation	-10.1047
form	-10.1048
▁binding	-10.1054
▁ends	-10.1054
▁illeg	-10.1054
▁Netherlands	-10.1067
ix	-10.1078
▁2016.	-10.1082
▁conquered	-10.1083
ations	-10.109
▁signing	-10.11
▁integrated	-10.1101
▁employees	-10.1113
▁incorporated	-10.1115
▁128	-10.1134
▁God	-10.1137
▁dedicate	-10.1155
ecurity	-10.1181
go	-10.1182
▁700	-10.1184
▁concert	-10.1186
▁weight	-10.1189
▁decision	-10.1192
▁Ge	-10.1196
▁System	-10.1197
▁studio	-10.1198
▁museum	-10.1199
▁acids	-10.12
▁thousand	-10.1203
▁readers	-10.1209
▁protests	-10.1235
▁premier	-10.1239
▁table	-10.1245
▁plant	-10.1249
▁meeting	-10.1258
▁plans	-10.1266
▁hous	-10.128
▁Lo	-10.1282
web	-10.1304
dom	-10.1309
▁Ta	-10.131
▁2006.	-10.1319
▁appeared	-10.1319
▁diplomat	-10.132
▁scholars	-10.1348
▁licens	-10.1352
▁here	-10.1355
▁eas	-10.1356
▁programme	-10.1356
ts	-10.1356
▁celebrate	-10.1365
brand	-10.1372
▁Ethiopia	-10.1387
▁Further	-10.1387
▁ISO	-10.1387
▁Karmapa	-10.1387
▁NTSC	-10.1387
▁Peace	-10.1387
▁Sassou	-10.1387
▁brief	-10.1387
▁future	-10.1387
▁Kazakhstan	-10.1387
▁Sound	-10.1387
▁Orange	-10.1387
▁fuel	-10.1387
▁Water	-10.1387
▁Scotland	-10.1388
▁constant	-10.1388
▁iron	-10.1388
▁Jiang	-10.1388
▁weather	-10.1388
▁legislature	-10.1388
▁Bronx	-10.1388
▁1936	-10.1388
▁More	-10.1388
▁railway	-10.1388
▁proposed	-10.1388
▁Pub	-10.1388
▁playback	-10.1388
▁Johnson	-10.1389
▁arch	-10.139
▁collaboration	-10.1391
▁Afghanistan	-10.1392
▁millennia	-10.1393
▁mere	-10.1396
▁GB	-10.1396
▁Assembly	-10.1398
▁MCA	-10.1398
▁Jesus	-10.1398
▁hot	-10.1403
▁adherents	-10.1405
▁planes	-10.1406
▁longest	-10.1406
▁efficient	-10.1407
▁survive	-10.1408
▁archaeologi	-10.141
▁awarded	-10.1412
▁merged	-10.1412
▁disputes	-10.1425
▁30,	-10.1434
▁Are	-10.1435
▁samples	-10.1439
▁onwards	-10.1442
▁gathering	-10.1446
▁Mass	-10.1454
ality	-10.1454
ness	-10.146
▁Fort	-10.147
▁practical	-10.1471
▁explained	-10.1472
▁god	-10.1482
▁°	-10.1485
▁forward	-10.1485
▁f	-10.1488
▁saying	-10.1492
▁1989	-10.1493
▁keeping	-10.1502
▁occasion	-10.1512
▁methods	-10.1522
da	-10.1527
▁patents	-10.1533
apped	-10.1538
▁cuisine	-10.1554
▁Region	-10.1554
▁Lutheran	-10.1557
▁Ne	-10.1558
▁ha	-10.1565
▁Cardinal	-10.1567
▁provision	-10.1569
▁course	-10.1573
ang	-10.1576
▁road	-10.1585
▁transmissions	-10.1591
▁opening	-10.1608
▁2010.	-10.1617
▁patterns	-10.1619
▁monarchs	-10.1626
▁estates	-10.1641
▁mutual	-10.1647
▁Am	-10.1649
▁values	-10.1663
▁chant	-10.1665
ris	-10.1669
French	-10.1674
what	-10.1675
▁accept	-10.1676
US	-10.1677
voiced	-10.1677
▁inspir	-10.1681
▁expand	-10.1681
▁Sea	-10.1697
V	-10.1707
▁kill	-10.1712
▁ran	-10.1725
▁commission	-10.175
▁wh	-10.1754
▁evolution	-10.1755
▁agree	-10.1757
▁Building	-10.1758
▁GDP	-10.1758
▁Hollywood	-10.1758
▁Village	-10.1758
▁Yeltsin	-10.1758
▁concentrate	-10.1758
▁hypothesis	-10.1758
▁Corp	-10.1758
▁Arnold	-10.1758
▁campaign	-10.1758
▁gross	-10.1758
▁Jay	-10.1758
▁Major	-10.1758
▁Audi	-10.1758
▁leaving	-10.1758
▁1994	-10.1758
▁journalist	-10.1758
▁Federation	-10.1758
▁twelve	-10.1759
▁invention	-10.1759
▁verbal	-10.1759
▁debut	-10.1759
▁Trust	-10.1759
▁1969	-10.176
▁creating	-10.1762
▁Armenian	-10.1763
▁CE	-10.1763
▁Bal	-10.1765
▁daylight	-10.1765
▁philosophy	-10.1767
▁try	-10.1768
▁appropriate	-10.1769
▁Bach	-10.177
▁NATO	-10.1775
▁immigrants	-10.1776
▁migrat	-10.1777
▁representation	-10.1778
▁scheduled	-10.1781
▁digitize	-10.1781
▁restricted	-10.1783
▁teachers	-10.1784
▁ɔ	-10.1785
red	-10.1792
▁bank	-10.1795
▁Night	-10.1797
▁engineer	-10.1799
▁declined	-10.1811
▁alleles	-10.1811
▁publishing	-10.182
▁pure	-10.1827
ta	-10.1844
▁contracts	-10.1846
▁manag	-10.1864
▁observe	-10.1867
▁experiment	-10.1869
▁ɛ	-10.1873
▁promoted	-10.1878
▁Re	-10.1886
▁learning	-10.1891
▁pieces	-10.1897
▁traits	-10.1897
▁evening	-10.1929
▁offering	-10.1931
▁Egyptian	-10.1935
bel	-10.1952
▁extra	-10.1953
▁acid	-10.1957
▁behavior	-10.1959
ious	-10.196
itially	-10.197
▁2013.	-10.1976
ors	-10.2002
▁missions	-10.2043
▁pump	-10.2059
government	-10.2059
standard	-10.2059
▁electric	-10.206
New	-10.2061
western	-10.2062
rmed	-10.2068
▁helped	-10.209
▁instrument	-10.2098
▁collapse	-10.2108
▁decline	-10.2115
▁clear	-10.2119
ci	-10.2125
haran	-10.2132
credited	-10.2138
▁correspond	-10.2141
▁Craig	-10.2142
▁Ningbo	-10.2142
▁alcohol	-10.2142
▁entertainment	-10.2142
▁facility	-10.2142
▁favour	-10.2142
▁jurisdiction	-10.2142
▁lumber	-10.2142
▁prehistoric	-10.2142
▁trading	-10.2142
▁decree	-10.2142
▁rapid	-10.2142
▁awareness	-10.2142
▁overseas	-10.2142
▁enemies	-10.2143
▁Karl	-10.2143
▁Archivist	-10.2143
▁lignin	-10.2143
▁unique	-10.2143
▁unaspirated	-10.2144
▁silk	-10.2144
▁substance	-10.2144
▁periods	-10.2145
▁genetically	-10.2145
strial	-10.2146
▁transform	-10.2147
▁fictional	-10.2147
▁send	-10.2148
▁protection	-10.2148
▁ɡ	-10.2151
▁Albert	-10.2153
▁banner	-10.2154
▁Eight	-10.2157
▁visits	-10.2158
Sa	-10.2162
▁1997	-10.2167
▁Churches	-10.2171
▁meant	-10.2177
▁festivals	-10.2183
nergy	-10.2184
▁sign	-10.2186
▁graphic	-10.2187
▁observed	-10.2187
▁al	-10.2188
our	-10.2192
▁points	-10.2196
▁originated	-10.2203
un	-10.2211
▁worth	-10.222
▁chang	-10.2227
▁governing	-10.224
▁arm	-10.2241
▁forced	-10.227
▁routes	-10.2286
▁phenomena	-10.2315
▁Mi	-10.2325
▁Mont	-10.233
▁animals	-10.2332
1,000	-10.2335
▁message	-10.2352
▁ministers	-10.2367
▁aspects	-10.2383
▁tracks	-10.2388
▁homes	-10.2392
▁Cla	-10.2408
▁shape	-10.2411
▁architects	-10.2453
▁transport	-10.2459
original	-10.2464
ilm	-10.2464
lateral	-10.2472
,500	-10.2474
non	-10.2476
kh	-10.2486
▁Matt	-10.2488
▁fight	-10.2498
▁benefits	-10.2507
avigation	-10.2514
▁warm	-10.2522
▁models	-10.2522
))	-10.2535
igital	-10.254
▁emphasi	-10.2542
ς	-10.2542
▁Chamber	-10.2542
▁Common	-10.2542
▁Conference	-10.2542
▁Greece	-10.2542
▁MUSE	-10.2542
▁Nohant	-10.2542
▁Taylor	-10.2542
▁autumn	-10.2542
▁extension	-10.2542
▁kilometres	-10.2542
▁poverty	-10.2542
à	-10.2542
▁visual	-10.2542
Aryan	-10.2542
▁invasion	-10.2542
▁1917	-10.2542
▁clinic	-10.2542
▁1938	-10.2542
▁invoke	-10.2542
▁Review	-10.2543
▁twenty	-10.2543
▁View	-10.2543
▁1981	-10.2543
▁residence	-10.2543
▁1963	-10.2543
▁Yong	-10.2543
▁edition	-10.2543
▁1815	-10.2543
▁bitrate	-10.2543
▁Norman	-10.2544
terre	-10.2544
▁230	-10.2545
▁Sub	-10.2545
▁doctor	-10.2545
▁Boulevard	-10.2545
▁Gothic	-10.2545
▁Three	-10.2545
90	-10.2545
▁Los	-10.2545
▁Store	-10.2545
▁acres	-10.2546
▁celebrations	-10.2547
▁Ukraine	-10.2547
▁capture	-10.2547
▁nothing	-10.2547
▁Ti	-10.2548
▁descent	-10.2548
▁fraud	-10.2552
▁materialism	-10.2553
▁breathy	-10.2553
▁MoD	-10.2555
▁capita	-10.2555
▁correlat	-10.2556
▁Polytechnic	-10.2556
NCT	-10.2558
▁coin	-10.2563
é	-10.2565
▁sister	-10.2565
▁massive	-10.2568
▁Give	-10.2569
▁verbs	-10.2569
▁metal	-10.257
▁enjoyed	-10.2576
▁33	-10.2581
co	-10.2581
▁Steph	-10.2591
▁ba	-10.2591
▁preserve	-10.2592
▁spring	-10.2597
▁mayor	-10.2613
▁whole	-10.2616
▁indicate	-10.2618
▁ho	-10.2625
ified	-10.2629
▁Dani	-10.2634
ership	-10.2637
▁towers	-10.2654
▁vessels	-10.2655
defense	-10.2656
▁beat	-10.2672
▁mark	-10.2673
▁enable	-10.2674
cent	-10.2678
▁undertake	-10.2679
▁concerns	-10.268
▁Wu	-10.2687
%	-10.2697
▁chain	-10.2766
▁village	-10.2771
▁reason	-10.2774
▁request	-10.2775
▁parent	-10.2781
60	-10.2783
▁drug	-10.2784
urric	-10.2795
▁Bri	-10.2809
▁ships	-10.2827
▁enabl	-10.2834
▁limits	-10.2837
▁convention	-10.286
known	-10.287
+	-10.2874
▁implement	-10.2877
▁invad	-10.2877
so	-10.2881
data	-10.289
ree	-10.2893
▁viewers	-10.2896
▁facto	-10.2898
▁transit	-10.2899
▁mix	-10.2902
▁Sha	-10.2902
▁friend	-10.2909
▁win	-10.291
▁feed	-10.2918
note	-10.2919
▁extensive	-10.2931
FL	-10.2941
▁bars	-10.2942
lu	-10.2945
▁judge	-10.2951
720	-10.2951
▁cardinals	-10.2955
▁Reform	-10.2956
remier	-10.2957
▁Communications	-10.2959
▁Language	-10.2959
▁Lexington	-10.2959
▁Rebirth	-10.2959
▁ReplayGain	-10.2959
▁USSR	-10.2959
▁decrease	-10.2959
▁hiatus	-10.2959
▁reservoir	-10.2959
▁spiritual	-10.2959
▁accurate	-10.2959
י	-10.2959
▁Beyonce	-10.2959
▁bodies	-10.2959
▁200,000	-10.2959
▁Gram	-10.296
▁1880	-10.296
▁Pali	-10.296
▁Finnic	-10.296
▁Harrison	-10.296
▁fourteen	-10.296
▁7,000	-10.296
▁authorities	-10.296
▁Xi	-10.296
▁Around	-10.2961
▁graduate	-10.2961
▁Explorer	-10.2961
ercy	-10.2964
▁Angeles	-10.2964
▁arrows	-10.2965
▁complexity	-10.2966
▁selection	-10.2971
athan	-10.2971
▁oversee	-10.2972
▁issu	-10.2972
▁earth	-10.2974
▁battle	-10.2975
▁parks	-10.2978
▁synthesizers	-10.2979
▁gate	-10.2984
▁stopp	-10.2987
▁...	-10.2987
▁sort	-10.2994
▁Israel	-10.3001
▁Cold	-10.3002
▁beings	-10.301
▁37	-10.301
▁Korean	-10.3015
▁saving	-10.3018
▁understanding	-10.304
3,	-10.3041
▁dungeons	-10.3044
▁culturally	-10.3056
▁Sand	-10.3061
▁160	-10.3063
▁Pa	-10.3069
▁foundations	-10.3071
▁comp	-10.3073
▁Qing	-10.3076
vast	-10.308
▁heating	-10.3088
▁nights	-10.3098
▁writes	-10.3101
▁survived	-10.3125
▁1965	-10.313
▁religions	-10.3131
▁incorporat	-10.3134
onda	-10.3144
▁bases	-10.3174
▁waste	-10.318
since	-10.3182
▁populations	-10.3184
▁chart	-10.3192
▁arrive	-10.3196
▁cathedral	-10.3199
▁bodhisattva	-10.32
▁leave	-10.3204
tents	-10.3204
▁Slav	-10.3205
▁Inter	-10.3206
▁relations	-10.3207
▁phoneme	-10.3208
▁Tang	-10.3212
▁participate	-10.3221
▁writer	-10.3224
yan	-10.3225
▁autonomous	-10.3242
ular	-10.3252
▁Design	-10.3283
▁ask	-10.3288
q	-10.3295
ask	-10.3302
▁effects	-10.3305
down	-10.331
Indo	-10.3311
ev	-10.3312
▁orders	-10.3325
▁delay	-10.3325
▁fill	-10.3335
▁theatre	-10.3335
▁none	-10.3336
▁semi	-10.3337
▁(4	-10.3347
▁Je	-10.3349
▁2,	-10.3351
▁financial	-10.3357
▁tour	-10.3358
▁geo	-10.3364
▁express	-10.3365
▁Plan	-10.3376
▁novels	-10.3381
inary	-10.3386
hip	-10.3387
▁exhibit	-10.3388
▁uniform	-10.3391
unicipal	-10.3392
▁municipal	-10.3392
▁sovereign	-10.3393
▁1898	-10.3394
▁Beckham	-10.3394
▁Cambridge	-10.3394
▁Fraunhofer	-10.3394
▁Gordon	-10.3394
▁concentration	-10.3394
▁cycle	-10.3394
▁intelligence	-10.3394
▁victim	-10.3394
▁Latvia	-10.3394
▁Zealand	-10.3394
▁morphological	-10.3394
▁Coast	-10.3394
▁appeal	-10.3394
▁transcribed	-10.3394
DVB	-10.3394
▁Horn	-10.3394
ourished	-10.3394
▁Lambert	-10.3394
▁advice	-10.3394
▁polish	-10.3394
▁Jerry	-10.3394
▁enrollment	-10.3394
▁VIII	-10.3394
▁herald	-10.3394
▁literary	-10.3394
▁Puntland	-10.3394
▁occupied	-10.3395
▁supposed	-10.3395
▁1958	-10.3395
▁1909	-10.3395
▁philosophies	-10.3395
▁behind	-10.3395
▁Singh	-10.3395
▁lifestyle	-10.3395
▁equivalent	-10.3395
▁breach	-10.3395
▁scientific	-10.3396
▁counties	-10.3396
apital	-10.3396
▁Angl	-10.3397
▁arrangement	-10.3397
▁hang	-10.3397
▁Hot	-10.3401
▁ABC	-10.3402
▁Site	-10.3402
▁1400	-10.3404
▁supply	-10.3405
▁neo	-10.3406
▁choose	-10.3406
▁Truths	-10.3407
▁catch	-10.3407
▁slight	-10.3408
▁alone	-10.3408
▁exposure	-10.3415
▁characterized	-10.3416
▁Love	-10.3416
▁Rand	-10.3416
leading	-10.3418
▁freed	-10.3419
▁Test	-10.3426
▁solve	-10.3438
▁Mayor	-10.3438
▁alternations	-10.344
▁bus	-10.3443
▁Beautiful	-10.3449
▁happened	-10.3452
▁1922	-10.3455
▁14,	-10.3464
▁funded	-10.3466
▁subsequently	-10.3467
▁ending	-10.3479
▁meta	-10.348
▁privileges	-10.3482
▁civilizations	-10.3482
▁+	-10.3483
▁sixth	-10.3487
▁occurr	-10.3491
▁Pur	-10.3507
▁passengers	-10.3508
▁Mar	-10.3508
▁regulator	-10.3515
▁Ma	-10.3531
▁cap	-10.3534
▁ro	-10.3537
▁Kil	-10.3538
ubb	-10.3551
▁Ju	-10.3554
▁noted	-10.3559
▁humor	-10.3567
▁struggle	-10.357
▁cartoon	-10.3576
▁cartoons	-10.3577
▁crossing	-10.3589
▁frames	-10.3591
▁visiting	-10.3592
▁signs	-10.3605
▁ranking	-10.3612
▁experiments	-10.3612
ool	-10.3614
▁compet	-10.3624
ard	-10.3627
ded	-10.3634
▁shows	-10.3637
▁Nikaya	-10.3639
▁Lad	-10.3639
▁hits	-10.3645
▁spot	-10.3645
▁interaction	-10.365
▁reduc	-10.3653
▁objects	-10.3653
▁balloon	-10.3653
▁harm	-10.3653
▁decid	-10.3655
▁Adam	-10.3657
▁choice	-10.366
▁animal	-10.3662
▁technique	-10.3663
ke	-10.3665
▁votes	-10.3667
▁Book	-10.3674
▁plural	-10.3674
▁boat	-10.3676
▁micro	-10.3688
▁notes	-10.369
▁Wel	-10.37
uta	-10.3703
▁Balt	-10.371
▁player	-10.3713
ux	-10.3714
▁Light	-10.3727
U	-10.3732
▁hotels	-10.3739
▁1977	-10.3742
lived	-10.3744
Tech	-10.3755
porous	-10.3755
▁Du	-10.3757
break	-10.3765
large	-10.3765
keeping	-10.377
American	-10.377
rum	-10.3785
head	-10.3792
▁Metro	-10.3808
▁Maria	-10.3834
spiration	-10.3838
▁recommend	-10.384
▁quant	-10.3845
▁secret	-10.3845
▁Byzanti	-10.3847
ute	-10.3847
▁64	-10.3848
▁administrative	-10.3848
ρ	-10.3848
▁Blanc	-10.3848
▁Christmas	-10.3848
▁Disney	-10.3848
▁Exchange	-10.3848
▁Magazine	-10.3848
▁Ramadan	-10.3848
▁SECAM	-10.3848
▁SME	-10.3848
▁Sclaveni	-10.3848
▁Surviv	-10.3848
▁Tribunal	-10.3848
▁Uralic	-10.3848
▁Vlad	-10.3848
▁manufacturing	-10.3848
▁marriage	-10.3848
▁Power	-10.3848
▁Crimea	-10.3848
▁Navy	-10.3848
▁Organisation	-10.3848
▁automatically	-10.3848
▁Hunting	-10.3848
▁MGM	-10.3848
▁prominence	-10.3848
▁Harvard	-10.3848
▁expansion	-10.3849
▁append	-10.3849
▁Gandhi	-10.3849
▁1986	-10.385
▁1966	-10.385
▁index	-10.3851
▁taking	-10.3851
▁NH	-10.3853
▁identity	-10.3855
▁NYC	-10.3858
▁8.0	-10.3859
audi	-10.3861
ndem	-10.3861
▁beautiful	-10.3862
▁places	-10.3863
▁Ho	-10.3863
▁Alan	-10.3863
▁Hive	-10.3864
▁comparison	-10.3866
▁manga	-10.3867
▁daily	-10.3867
▁Live	-10.3868
▁producer	-10.387
ixth	-10.387
▁DJs	-10.387
▁insight	-10.3877
▁initiatives	-10.3879
▁Congol	-10.3881
ide	-10.3888
▁hair	-10.3889
▁Conservative	-10.3889
▁address	-10.3892
▁scholar	-10.39
▁pupils	-10.3906
ch	-10.3907
wan	-10.3907
▁27	-10.3911
▁Tex	-10.3916
▁Buddhists	-10.3918
▁die	-10.3922
▁preferr	-10.3932
skin	-10.3938
▁2014.	-10.394
▁expressed	-10.394
▁Astr	-10.3946
▁increases	-10.3951
▁links	-10.3958
▁(18	-10.3963
▁pr	-10.3967
▁pictures	-10.3968
race	-10.3969
ians	-10.3976
nda	-10.3996
▁wor	-10.4007
▁di	-10.401
▁fund	-10.4015
Christian	-10.4033
ote	-10.4042
j	-10.405
ju	-10.4055
▁independently	-10.4056
▁im	-10.4059
ark	-10.4062
▁1979	-10.4062
▁similarly	-10.4086
ns	-10.4107
atellite	-10.4115
0	-10.4128
▁singer	-10.4129
▁establishment	-10.4134
▁Karachay	-10.4135
▁Balkan	-10.4136
▁variation	-10.4139
▁principle	-10.414
▁bird	-10.4147
▁markets	-10.4153
west	-10.4156
▁interface	-10.4157
▁tool	-10.4167
▁Indi	-10.4167
▁2000.	-10.417
▁magnate	-10.4176
ntil	-10.4183
▁Way	-10.4184
▁mode	-10.42
proved	-10.4205
ick	-10.4213
▁real	-10.4219
place	-10.422
related	-10.4224
▁exercise	-10.4237
▁deliver	-10.4248
▁magneti	-10.425
▁finish	-10.4282
rgei	-10.4293
▁Historical	-10.4297
▁match	-10.4319
▁distort	-10.4319
▁publish	-10.432
▁But	-10.4321
▁Croat	-10.4322
▁situat	-10.4322
emorial	-10.4323
▁story	-10.4324
ricket	-10.4324
北	-10.4324
斗	-10.4324
ω	-10.4324
▁1968	-10.4324
▁Chordiant	-10.4324
▁Google	-10.4324
▁HTML	-10.4324
▁Reagan	-10.4324
▁UNICEF	-10.4324
▁Victoria	-10.4324
▁commute	-10.4324
▁decay	-10.4324
▁furniture	-10.4324
▁gentry	-10.4324
▁syntax	-10.4324
rithm	-10.4324
▁Temple	-10.4324
▁Ś	-10.4324
▁Topshop	-10.4325
▁rainfall	-10.4325
▁Xeer	-10.4325
▁circuit	-10.4325
▁synthetic	-10.4325
▁opposition	-10.4325
▁Kennedy	-10.4325
▁Clarkson	-10.4325
▁platform	-10.4325
▁Ground	-10.4325
▁1907	-10.4325
▁Ruskin	-10.4325
▁Medicine	-10.4325
▁judiciary	-10.4325
▁Hotel	-10.4325
hua	-10.4325
▁Often	-10.4325
▁glass	-10.4325
▁NBC	-10.4326
▁Boat	-10.4326
▁1974	-10.4326
▁Trade	-10.4326
▁Jamestown	-10.4327
nox	-10.4327
▁Gate	-10.4327
▁validation	-10.4327
▁boss	-10.4327
▁dissolved	-10.4328
▁Scott	-10.4328
▁Caesar	-10.4328
▁reliable	-10.4328
▁Ferry	-10.433
▁functionality	-10.4331
▁ring	-10.4333
▁frequency	-10.4335
▁50	-10.4336
▁excluded	-10.4336
▁Race	-10.4336
▁bear	-10.4336
▁1943	-10.4337
▁injured	-10.4338
▁installed	-10.4338
▁vocal	-10.4338
translated	-10.434
▁transitional	-10.4342
▁memory	-10.4343
▁Through	-10.4343
▁Chapel	-10.4348
▁Super	-10.4348
▁Action	-10.4352
▁HP	-10.4352
▁Members	-10.4354
▁restored	-10.4355
▁Mark	-10.4355
▁venue	-10.4357
▁scale	-10.4358
▁AIDS	-10.436
▁discovered	-10.4362
▁Rights	-10.4362
▁acoustic	-10.4367
clarifi	-10.4371
▁perception	-10.4378
▁tru	-10.4388
▁simple	-10.4388
▁identified	-10.4392
▁fast	-10.4401
▁fibres	-10.4403
▁jus	-10.4403
dependence	-10.4407
▁consumed	-10.4411
▁Inc	-10.4419
▁Nik	-10.4424
▁See	-10.4441
▁jobs	-10.445
▁eat	-10.4451
▁presented	-10.4459
▁statements	-10.4462
▁closely	-10.4462
▁Har	-10.4474
▁Bey	-10.4489
▁Sch	-10.4501
▁bears	-10.4515
▁j	-10.4529
▁ˈ	-10.453
▁Bus	-10.4531
▁Star	-10.4541
elecommunication	-10.4546
▁1934	-10.4553
▁Gar	-10.4561
▁cold	-10.4576
onym	-10.4584
▁ve	-10.4606
▁Me	-10.4606
▁truths	-10.461
▁faith	-10.4621
ll	-10.4622
▁civilian	-10.4625
▁ferr	-10.4626
▁combination	-10.4629
▁scheme	-10.4631
▁zone	-10.4633
▁Science	-10.4636
▁interpretation	-10.4637
▁cave	-10.4637
▁distances	-10.4638
▁method	-10.4638
▁piece	-10.4638
▁career	-10.464
▁figure	-10.4642
▁partner	-10.4656
▁trait	-10.4657
▁says	-10.466
▁magazines	-10.4676
▁disasters	-10.4676
▁instances	-10.4676
7.3	-10.4682
▁heads	-10.4686
▁exists	-10.4691
▁Barr	-10.4702
▁partial	-10.4712
▁generate	-10.4713
▁sp	-10.4716
▁Pri	-10.4725
▁rul	-10.4731
▁cons	-10.4735
length	-10.4741
corruption	-10.4741
yuan	-10.4742
▁pair	-10.4743
▁construct	-10.4743
▁Maur	-10.4744
▁convert	-10.4745
▁dry	-10.4752
▁conquer	-10.4759
11	-10.4762
bury	-10.477
bert	-10.478
▁poet	-10.4793
▁Bulgaria	-10.4807
▁classic	-10.4809
▁Croatia	-10.4809
▁Johann	-10.4817
▁demonstrat	-10.4819
▁eukaryot	-10.4819
▁Angel	-10.482
▁Euro	-10.4822
ecutive	-10.4823
hedral	-10.4824
▁confession	-10.4824
▁1954	-10.4824
▁1955	-10.4824
▁Apollo	-10.4824
▁Chechen	-10.4824
▁Czech	-10.4824
▁HHC	-10.4824
▁Hebrew	-10.4824
▁History	-10.4824
▁Newcastle	-10.4824
▁Space	-10.4824
▁advertising	-10.4824
▁conclude	-10.4824
▁harmony	-10.4824
▁nirvana	-10.4824
▁packaging	-10.4824
▁recognise	-10.4824
▁sunrise	-10.4824
▁valley	-10.4824
▁Majuro	-10.4824
▁Annwn	-10.4825
▁labour	-10.4825
▁succeed	-10.4825
▁hidden	-10.4825
▁Dubai	-10.4825
▁preamble	-10.4825
▁Index	-10.4825
▁Twitter	-10.4825
▁Grey	-10.4825
▁Technical	-10.4825
▁Harper	-10.4825
▁30,000	-10.4825
▁garment	-10.4825
▁email	-10.4826
▁residential	-10.4826
▁sought	-10.4827
▁TZ	-10.4827
▁1945	-10.4827
▁heart	-10.4828
▁Show	-10.4828
▁discussion	-10.4829
▁boundaries	-10.4829
▁coat	-10.483
▁Justin	-10.4831
lectromechanical	-10.4832
▁Gold	-10.4833
▁sc	-10.4834
▁Anthony	-10.4835
▁subscriber	-10.4835
-3	-10.4835
▁Dharma	-10.4836
▁heresy	-10.4836
▁ultimately	-10.4837
▁Howard	-10.4839
▁newspapers	-10.484
▁Ministers	-10.484
▁proton	-10.4841
▁apparent	-10.4842
▁paint	-10.4844
▁Commander	-10.4845
▁withdrew	-10.4848
▁nationality	-10.485
married	-10.4852
▁revenues	-10.4859
▁calm	-10.4862
dualist	-10.4868
▁attest	-10.4869
▁want	-10.4872
▁purchased	-10.4874
▁resign	-10.4877
nel	-10.4878
▁net	-10.4878
▁archived	-10.4884
▁scriptures	-10.4884
▁29	-10.4887
▁predators	-10.4888
▁streaming	-10.4892
▁surnames	-10.4898
▁relate	-10.4899
▁clothing	-10.49
▁magn	-10.4901
▁2005.	-10.4902
▁Africans	-10.4902
▁collective	-10.4905
▁descendants	-10.4907
▁concepts	-10.4908
▁Boys	-10.4917
▁Cali	-10.4921
▁Serbia	-10.4925
▁Bu	-10.493
2.1	-10.4931
▁panels	-10.4937
▁districts	-10.4937
▁Fer	-10.494
▁Leon	-10.4943
▁handle	-10.4947
▁items	-10.4956
ita	-10.4962
▁sav	-10.4962
station	-10.4968
▁Can	-10.4969
▁legislat	-10.4971
▁clubs	-10.4976
▁encoders	-10.4977
▁suit	-10.4979
▁terminate	-10.4981
ayback	-10.4987
▁oppos	-10.4989
tical	-10.4992
▁2011.	-10.4993
▁unity	-10.5001
kar	-10.5004
▁hop	-10.501
▁partners	-10.5015
R	-10.5016
▁photo	-10.502
▁Ru	-10.5034
▁papers	-10.5038
▁drugs	-10.5055
▁Li	-10.5076
chor	-10.5081
▁Ste	-10.5081
▁positions	-10.5094
▁periodical	-10.5097
tile	-10.5097
▁exports	-10.5105
▁clean	-10.5122
die	-10.5125
▁publishe	-10.5133
▁rooms	-10.5135
ative	-10.5145
▁bishop	-10.5151
worth	-10.5155
▁supplement	-10.5157
▁materialist	-10.5159
▁destination	-10.5159
▁neighborhood	-10.5162
▁window	-10.5162
▁39	-10.5162
▁audition	-10.5162
▁resident	-10.5165
▁root	-10.5166
▁manufacturer	-10.5171
▁Muslim	-10.5174
▁SSRs	-10.5175
▁impress	-10.5183
▁comic	-10.5188
▁arts	-10.519
hill	-10.5192
▁compose	-10.5192
▁promot	-10.5204
▁Though	-10.521
frame	-10.5228
▁consum	-10.5236
z	-10.5246
▁am	-10.5247
▁adults	-10.5253
later	-10.5256
ig	-10.5261
▁mus	-10.5263
borough	-10.5266
consist	-10.5267
▁rec	-10.5268
L	-10.5269
▁pronoun	-10.5272
▁cloth	-10.5274
log	-10.5276
ove	-10.5277
▁letters	-10.5286
page	-10.5289
Thi	-10.5291
▁prefer	-10.5296
ome	-10.5302
▁Ford	-10.5302
tock	-10.5304
▁nickname	-10.5305
disciplin	-10.5317
▁permanent	-10.5318
▁Jos	-10.5321
stone	-10.5328
▁(16	-10.533
▁results	-10.5334
▁Historic	-10.5338
▁Romania	-10.5339
▁millenni	-10.5343
itude	-10.5348
ightfold	-10.5348
▁accompany	-10.5351
▁Authority	-10.5351
▁Brandenburg	-10.5351
▁Chicago	-10.5351
▁Elizabeth	-10.5351
▁Khrushchev	-10.5351
▁Laemmle	-10.5351
▁Originally	-10.5351
▁SMPTE	-10.5351
▁Windows	-10.5351
▁capabilities	-10.5351
▁controversy	-10.5351
▁elaborate	-10.5351
▁firmness	-10.5351
▁prosody	-10.5351
▁subsidiary	-10.5351
lossom	-10.5351
▁1956	-10.5351
▁Netbula	-10.5351
▁Register	-10.5351
▁discontinued	-10.5351
satisfactoriness	-10.5351
▁depth	-10.5351
haps	-10.5351
▁buried	-10.5351
▁1,700	-10.5351
ring	-10.5351
▁Peter	-10.5351
▁Abraham	-10.5351
▁colloquial	-10.5351
▁1927	-10.5351
▁1988	-10.5352
▁provincial	-10.5352
▁salt	-10.5352
▁cub	-10.5352
▁demographic	-10.5352
▁Palace	-10.5352
▁editorial	-10.5352
▁1952	-10.5352
▁1959	-10.5352
▁softwood	-10.5352
▁copper	-10.5352
mote	-10.5352
▁elevation	-10.5352
▁declaration	-10.5353
▁snow	-10.5353
que	-10.5353
▁laid	-10.5353
▁Syria	-10.5353
▁purport	-10.5353
▁1929	-10.5354
▁spend	-10.5354
▁progressive	-10.5354
ishan	-10.5354
▁allophones	-10.5355
▁1937	-10.5355
▁interconnect	-10.5356
▁Hicks	-10.5357
▁lot	-10.5357
▁timber	-10.5358
▁actions	-10.5358
frey	-10.536
▁enforced	-10.5361
▁renew	-10.5363
▁agent	-10.5364
▁indirectly	-10.5364
▁behalf	-10.5364
use	-10.5364
▁1931	-10.5365
▁busi	-10.5367
▁sight	-10.5367
▁draft	-10.5367
▁cellulose	-10.5372
▁Expedition	-10.5372
▁Nick	-10.5372
▁1%	-10.5373
▁planning	-10.5375
▁Jin	-10.5375
▁accusation	-10.5376
▁customs	-10.5377
▁discipline	-10.5377
▁Walter	-10.5382
▁25%	-10.5385
▁update	-10.5392
▁entry	-10.5394
▁Cup	-10.5395
▁grown	-10.5399
ordinat	-10.5402
▁Gi	-10.5404
▁boys	-10.5407
▁continuous	-10.5408
▁gay	-10.5416
▁compositions	-10.5419
▁affricates	-10.5428
▁contributions	-10.5429
▁Ha	-10.5432
obile	-10.5433
▁settings	-10.5438
45	-10.5439
arious	-10.5448
▁measured	-10.5453
▁68	-10.5459
▁households	-10.5459
▁arrests	-10.546
ya	-10.5469
▁vehicles	-10.548
etra	-10.5484
▁styles	-10.5486
etic	-10.5486
▁wires	-10.5501
▁translations	-10.5501
ves	-10.5501
▁192	-10.5503
▁flights	-10.5511
▁composit	-10.5516
▁Grac	-10.5519
▁priests	-10.5521
▁quit	-10.5524
▁constitute	-10.5526
▁Muslims	-10.5542
▁manufacturers	-10.5544
▁tit	-10.5547
▁concern	-10.5549
▁bo	-10.555
▁(13	-10.5558
rising	-10.5577
anya	-10.558
▁parents	-10.5595
fi	-10.5597
▁count	-10.5604
▁Russians	-10.5607
▁sta	-10.5627
▁Institutes	-10.5641
▁1918	-10.5642
▁seats	-10.5646
▁integrat	-10.5648
io	-10.5689
ley	-10.5693
▁Chan	-10.5706
▁surface	-10.5714
work	-10.5714
▁write	-10.5715
▁repair	-10.5715
▁Sutra	-10.5717
▁slave	-10.5721
▁obligation	-10.5722
▁introduc	-10.5734
▁sense	-10.5735
▁tag	-10.5736
bility	-10.5738
▁denomination	-10.5738
▁defin	-10.5755
probabl	-10.5784
▁400	-10.5789
▁controls	-10.579
▁9,	-10.579
▁resc	-10.579
▁sale	-10.5792
▁6.1	-10.5799
▁stor	-10.5801
▁Economi	-10.5803
▁hill	-10.5809
▁genetics	-10.5809
47	-10.5819
free	-10.5821
1080	-10.5822
selling	-10.5823
In	-10.5829
▁centres	-10.5835
Russian	-10.5835
repe	-10.5837
▁fish	-10.5841
▁tax	-10.5847
▁Former	-10.587
▁remove	-10.5872
▁ambi	-10.5878
zu	-10.5887
▁Sh	-10.5899
▁Chris	-10.59
▁withdraw	-10.5904
▁architectura	-10.5904
roject	-10.5904
▁Opera	-10.5905
▁Any	-10.5905
ruise	-10.5906
▁1899	-10.5906
▁576	-10.5906
▁Daughtry	-10.5906
▁DeWyze	-10.5906
▁Djibouti	-10.5906
▁Ethernet	-10.5906
▁Florida	-10.5906
▁Gorbachev	-10.5906
▁Heritage	-10.5906
▁Hungarian	-10.5906
▁Irene	-10.5906
▁Kobylańska	-10.5906
▁Kwajalein	-10.5906
▁McPhee	-10.5906
▁Mozart	-10.5906
▁Multi	-10.5906
▁Salazar	-10.5906
▁Stirling	-10.5906
▁Studios	-10.5906
▁Territory	-10.5906
▁Yellow	-10.5906
▁casualties	-10.5906
▁creole	-10.5906
▁headquartered	-10.5906
▁inhabitants	-10.5906
▁minimal	-10.5906
▁phenotype	-10.5906
▁phonemic	-10.5906
▁recipient	-10.5906
▁sequencing	-10.5906
▁thereafter	-10.5906
▁1839	-10.5906
▁fiscal	-10.5906
▁incidence	-10.5906
▁prohibit	-10.5906
▁sanction	-10.5906
▁shooting	-10.5906
▁vegeta	-10.5906
▁Training	-10.5906
▁Gallery	-10.5906
▁Meyer	-10.5906
▁Observatory	-10.5906
κτ	-10.5906
▁Satur	-10.5907
▁yield	-10.5907
▁Travel	-10.5907
▁conference	-10.5907
▁Jiangxi	-10.5907
▁labor	-10.5907
▁pesticides	-10.5907
▁submit	-10.5907
▁burial	-10.5907
▁Finland	-10.5907
▁registration	-10.5907
zzo	-10.5907
▁Atoll	-10.5907
▁Jenni	-10.5907
ār	-10.5907
▁chance	-10.5907
▁capability	-10.5908
▁roof	-10.5908
▁Hockey	-10.5908
▁Lake	-10.5908
▁1700	-10.5909
▁1860	-10.591
▁orientation	-10.591
▁justice	-10.591
▁Seville	-10.5911
▁approval	-10.5911
▁execution	-10.5911
▁presum	-10.5911
▁transportation	-10.5911
▁Date	-10.5912
▁Lutyens	-10.5912
▁Con	-10.5913
▁eaten	-10.5914
▁Ov	-10.5914
▁quote	-10.5914
▁Mut	-10.5914
▁criticism	-10.5914
▁Anton	-10.5915
▁Edmond	-10.5915
▁tea	-10.5917
▁useful	-10.5919
▁Shanghai	-10.5919
▁Green	-10.5919
▁1.1	-10.5919
▁craft	-10.5921
▁Traditionally	-10.5922
imum	-10.5923
▁Line	-10.5923
▁Microsoft	-10.5924
▁musician	-10.593
▁phrase	-10.593
▁expired	-10.5931
▁metres	-10.5933
▁pinyin	-10.5933
▁hereditary	-10.5933
▁CF	-10.5936
▁scenes	-10.5936
Kelly	-10.5939
▁talked	-10.594
▁USA	-10.594
▁CPC	-10.5941
▁fat	-10.5942
▁Kiss	-10.5943
▁glue	-10.5944
ks	-10.5945
▁Assistan	-10.5945
▁fields	-10.5946
▁kites	-10.5946
▁Adol	-10.5948
▁abandoned	-10.5949
▁advocate	-10.5951
volutionary	-10.5952
▁nav	-10.5953
ate	-10.5955
▁definitions	-10.5956
";	-10.5957
▁Az	-10.5957
▁tendenc	-10.5963
▁metaboli	-10.5967
▁selective	-10.5968
▁Bi	-10.5968
▁rarely	-10.597
tant	-10.5972
▁Germanic	-10.5972
utton	-10.5974
▁sponsored	-10.5976
▁define	-10.5983
▁pull	-10.5998
▁diseases	-10.5999
▁figurines	-10.601
▁rounds	-10.601
▁race	-10.6017
78	-10.602
gan	-10.6025
▁forests	-10.603
▁delayed	-10.6045
8,000	-10.6047
▁box	-10.6047
cus	-10.6051
section	-10.6053
ud	-10.6054
▁pols	-10.6059
ma	-10.606
▁separately	-10.6062
▁comes	-10.6082
▁tags	-10.6098
▁tall	-10.6099
ops	-10.6108
▁lights	-10.6114
37	-10.6114
▁my	-10.612
▁Sciences	-10.612
rump	-10.6126
▁calculate	-10.6131
ku	-10.6134
▁happen	-10.6135
ence	-10.6157
ck	-10.6158
ber	-10.6172
rich	-10.6177
ko	-10.618
▁sees	-10.6207
▁Pel	-10.6207
▁museums	-10.6209
ill	-10.6223
dog	-10.6225
▁attack	-10.6228
Staten	-10.6228
▁networks	-10.6238
▁practic	-10.6244
▁1999	-10.6251
arrie	-10.6261
▁hum	-10.6269
"—	-10.6289
▁fricative	-10.6295
▁association	-10.6298
▁peer	-10.63
TV	-10.6303
▁volume	-10.6306
▁priest	-10.6307
▁Paper	-10.6308
▁listener	-10.6308
▁symbol	-10.6312
ga	-10.6323
▁northeast	-10.6327
run	-10.6334
▁Frank	-10.6337
ek	-10.6338
▁hosting	-10.6371
▁55	-10.6378
chub	-10.6384
▁Niko	-10.6394
off	-10.6395
stream	-10.6398
21	-10.64
happ	-10.6402
▁singles	-10.6404
lew	-10.6404
Tibet	-10.6407
▁5-	-10.6408
▁attach	-10.6411
weight	-10.6412
▁dispatch	-10.6414
CD	-10.6414
▁Ab	-10.6415
suffering	-10.6417
02	-10.6419
▁card	-10.642
▁understand	-10.6421
$1.	-10.6422
▁cars	-10.6423
▁keep	-10.6425
ung	-10.6429
▁suspend	-10.6437
▁Ch	-10.6438
▁Ly	-10.6439
▁mile	-10.644
▁Nov	-10.6454
▁artificial	-10.6458
▁believe	-10.646
▁repe	-10.6464
▁bound	-10.6468
ocialist	-10.6469
▁reverse	-10.6469
▁decades	-10.6469
tourism	-10.647
▁astronom	-10.6471
▁blood	-10.6471
▁broke	-10.6478
chrom	-10.6481
ski	-10.6485
▁2002.	-10.6485
▁detect	-10.6487
▁ranks	-10.6487
▁sho	-10.649
▁Jam	-10.649
▁Joseph	-10.6492
eginning	-10.6492
▁Angoulême	-10.6495
▁Architectural	-10.6495
▁Ayittey	-10.6495
▁Complex	-10.6495
▁Conversely	-10.6495
▁Delacroix	-10.6495
▁Dukkha	-10.6495
▁Dunkleman	-10.6495
▁Edinburgh	-10.6495
▁Einstein	-10.6495
▁Ireland	-10.6495
▁Morris	-10.6495
▁Nirvana	-10.6495
▁Olympia	-10.6495
▁SURE	-10.6495
▁Testament	-10.6495
▁bilingual	-10.6495
▁computing	-10.6495
▁constituencies	-10.6495
▁delegate	-10.6495
▁heavens	-10.6495
▁hemisphere	-10.6495
▁libraries	-10.6495
▁medicine	-10.6495
▁prestige	-10.6495
▁rebirth	-10.6495
▁shopping	-10.6495
▁Isidore	-10.6495
▁Slovenia	-10.6495
▁Valley	-10.6495
▁guidelines	-10.6495
▁limestone	-10.6495
▁morphology	-10.6495
▁Hunter	-10.6495
▁Senegal	-10.6495
▁Lossless	-10.6495
▁accessible	-10.6495
▁Wenzhou	-10.6495
▁flood	-10.6495
▁inflection	-10.6495
▁Coca	-10.6495
▁Taizhou	-10.6495
▁flax	-10.6495
▁60,000	-10.6495
▁525	-10.6495
▁Thatcher	-10.6495
▁Ltd	-10.6495
▁Lanka	-10.6495
▁Tower	-10.6495
▁Grammy	-10.6495
▁cater	-10.6495
▁allegations	-10.6495
▁Feel	-10.6495
▁Garvey	-10.6495
▁faculty	-10.6495
▁1975	-10.6495
▁brewery	-10.6495
▁portray	-10.6495
▁Harbor	-10.6495
▁dissolution	-10.6495
▁85%	-10.6495
▁subcontinent	-10.6496
▁immunology	-10.6496
▁Cooperation	-10.6496
▁Astor	-10.6496
▁800	-10.6496
▁pollution	-10.6496
▁Dann	-10.6496
▁Studies	-10.6496
▁nonprofit	-10.6497
▁authorized	-10.6497
▁extract	-10.6497
▁cardio	-10.6497
▁meditat	-10.6497
▁acceptance	-10.6497
▁Fachhochschule	-10.6498
▁downtown	-10.6499
▁everyone	-10.6499
vat	-10.6499
▁Stone	-10.65
▁23,	-10.6501
▁absen	-10.6501
▁apply	-10.6501
▁eukaryotes	-10.6501
▁harvested	-10.6502
▁repri	-10.6502
▁stream	-10.6502
▁Clin	-10.6503
▁kg	-10.6504
▁181	-10.6506
▁Wales	-10.6506
▁disputed	-10.6507
▁Sul	-10.6507
▁sleep	-10.6508
▁approaches	-10.6508
▁Aviation	-10.6508
▁oligarchy	-10.6509
▁mainland	-10.6511
▁quickly	-10.6511
▁denie	-10.6512
script	-10.6513
▁Pakistan	-10.6513
▁considerably	-10.6513
▁Rock	-10.6515
▁Na	-10.6516
▁1946	-10.6519
▁survival	-10.652
▁alternate	-10.6522
▁regulations	-10.6524
onald	-10.6525
▁Bros	-10.6525
▁IHDI	-10.6529
▁tape	-10.6529
▁assigned	-10.6531
▁innovative	-10.6532
▁fix	-10.6533
▁fruits	-10.6535
▁decoders	-10.6536
▁infl	-10.6537
oz	-10.654
vested	-10.6544
▁6.	-10.6544
▁Hungary	-10.6546
▁orient	-10.6551
about	-10.6557
▁4]	-10.6558
▁Electronics	-10.6558
▁lakes	-10.6558
▁mind	-10.656
▁pan	-10.6561
▁155	-10.6561
▁Bor	-10.6564
▁determin	-10.6567
19	-10.6569
▁clusters	-10.657
▁flocks	-10.657
▁attached	-10.6573
00	-10.6574
$11	-10.6584
yu	-10.6586
inal	-10.659
▁miss	-10.6592
dominant	-10.6594
▁yuan	-10.6597
▁valued	-10.6598
▁developers	-10.6602
▁marking	-10.6605
▁issues	-10.6614
▁sh	-10.6614
ology	-10.6615
▁segments	-10.6617
▁$1	-10.6617
nomadic	-10.6624
▁compil	-10.6626
ium	-10.6627
shi	-10.6627
▁CPUs	-10.6628
▁procedures	-10.6629
▁Bas	-10.6638
▁Moors	-10.6638
▁gifts	-10.664
▁fle	-10.6644
▁1833	-10.6669
ush	-10.6671
▁waves	-10.6674
urgeon	-10.6678
ourism	-10.6679
▁AT	-10.6686
▁volumes	-10.6687
▁happens	-10.669
▁auditions	-10.671
▁Germans	-10.6732
▁Balkans	-10.6734
▁reading	-10.675
▁analys	-10.6757
ically	-10.676
ple	-10.6763
▁villages	-10.6769
▁train	-10.6772
▁Avenues	-10.6788
▁extras	-10.6793
▁5,	-10.6796
▁wish	-10.6802
▁Fan	-10.6804
44	-10.6804
▁provisions	-10.6805
group	-10.6845
▁nationally	-10.6848
▁publications	-10.685
".[	-10.685
.9	-10.6873
▁Jing	-10.6876
▁thing	-10.6881
▁Base	-10.6885
fan	-10.6889
eith	-10.6889
▁Bibl	-10.6891
▁featur	-10.6893
▁sens	-10.6903
ite	-10.6906
J	-10.6907
▁preserv	-10.6908
▁Men	-10.6908
▁networking	-10.6909
▁candidate	-10.692
▁conifer	-10.6923
▁bands	-10.6923
▁Philippine	-10.6924
▁doctrine	-10.6928
▁adjective	-10.6931
▁elite	-10.6931
▁club	-10.6932
▁transmitter	-10.6933
▁pet	-10.6937
▁bridge	-10.6938
▁reaction	-10.694
▁encoder	-10.6941
▁Ry	-10.6941
▁flight	-10.6948
▁ideal	-10.6953
neous	-10.6955
▁wave	-10.6969
▁skill	-10.697
▁profit	-10.6975
pproximate	-10.6978
▁Hans	-10.699
usual	-10.6992
▁inns	-10.6996
specific	-10.7001
▁separat	-10.7006
▁teaching	-10.7008
Fi	-10.7019
▁Northeast	-10.7024
ge	-10.7024
].	-10.7024
▁gu	-10.7032
spring	-10.7033
▁prevail	-10.7034
quality	-10.7035
Latin	-10.7036
8	-10.7038
Tibetan	-10.7039
band	-10.7045
che	-10.7054
▁Box	-10.7066
▁Amit	-10.7073
▁owner	-10.7078
▁imp	-10.7082
▁Wolf	-10.7085
granting	-10.7085
▁Mag	-10.7088
▁Planet	-10.709
▁sciences	-10.7093
Ing	-10.71
▁reform	-10.7103
▁Valencia	-10.7103
▁orchestrat	-10.7114
achelor	-10.7115
▁Abdul	-10.7116
roadcasting	-10.7117
▁elastic	-10.7117
iocese	-10.7117
ivity	-10.7118
▁Mac	-10.7118
▁Hindu	-10.7118
clusion	-10.7119
Spaniards	-10.712
issimo	-10.712
▁1415	-10.712
▁1996	-10.712
▁COMPASS	-10.712
▁Franklin	-10.712
▁Glasgow	-10.712
▁Greenwich	-10.712
▁Hamwic	-10.712
▁IMF	-10.712
▁Judaism	-10.712
▁Pugin	-10.712
▁Smooth	-10.712
▁Squadron	-10.712
▁Vienna	-10.712
▁Volvo	-10.712
▁accuracy	-10.712
▁chimney	-10.712
▁clause	-10.712
▁commerce	-10.712
▁corporation	-10.712
▁fundamental	-10.712
▁garrison	-10.712
▁irregular	-10.712
▁literacy	-10.712
▁nitrogen	-10.712
▁petroleum	-10.712
▁practitioner	-10.712
▁voicing	-10.712
▁École	-10.712
▁Angola	-10.712
▁Fleming	-10.712
▁conceal	-10.712
▁terminology	-10.712
▁Chopiniana	-10.712
▁complain	-10.712
▁fragments	-10.712
▁plot	-10.712
▁relics	-10.712
▁Napster	-10.712
▁raids	-10.712
▁split	-10.712
▁Electric	-10.712
▁outlet	-10.712
▁Istanbul	-10.712
▁monitor	-10.712
▁alumni	-10.712
▁categories	-10.712
▁enrolled	-10.712
▁laboratory	-10.712
▁Rangers	-10.712
▁entitl	-10.712
dorf	-10.712
▁slang	-10.712
▁Malakar	-10.712
▁circular	-10.712
▁theoretical	-10.712
▁Garden	-10.712
▁90,000	-10.712
▁Heartwood	-10.712
▁Terminal	-10.712
▁Carter	-10.712
▁Vega	-10.712
▁Program	-10.712
▁Martin	-10.712
▁Veneti	-10.712
▁phenomenon	-10.712
▁meat	-10.712
▁statue	-10.712
▁steam	-10.712
▁palace	-10.712
▁mentor	-10.712
▁copy	-10.7121
lini	-10.7121
▁preaspirated	-10.7121
▁precursor	-10.7121
▁Bank	-10.7121
▁criticis	-10.7121
▁95%	-10.7121
▁criteria	-10.7121
▁Wright	-10.7121
▁Andrew	-10.7121
▁4,000	-10.7121
▁slot	-10.7121
▁disagreement	-10.7122
"/"	-10.7122
▁Scientology	-10.7122
▁1837	-10.7122
▁Cross	-10.7122
▁sufficient	-10.7123
▁tissue	-10.7123
▁manner	-10.7123
▁observatory	-10.7123
▁formalized	-10.7124
▁Catholicism	-10.7125
▁customary	-10.7125
▁Isle	-10.7126
▁vertebrates	-10.7127
▁rang	-10.7128
core	-10.7128
▁resemble	-10.713
▁Plum	-10.713
▁Nurs	-10.713
▁tro	-10.713
▁Berlin	-10.7131
ification	-10.7131
▁instability	-10.7131
▁dish	-10.7132
▁reservation	-10.7133
▁Vinaya	-10.7134
▁alliance	-10.7135
▁concerto	-10.7137
▁Die	-10.7138
▁improvements	-10.7138
▁barriers	-10.7139
▁FOIA	-10.7139
▁1821	-10.7141
▁exceed	-10.7142
▁softening	-10.7143
▁weigh	-10.7143
▁centralized	-10.7144
▁Zen	-10.7144
▁Richard	-10.7145
▁chapel	-10.7145
▁universal	-10.7145
▁drama	-10.7145
▁Mediterranean	-10.7145
▁Mw	-10.715
▁advertisements	-10.7151
▁finance	-10.7151
▁halls	-10.7151
▁Olympics	-10.7154
▁Alon	-10.7157
▁beans	-10.7158
▁compare	-10.7161
▁standardized	-10.7161
▁ancestry	-10.7162
▁Krist	-10.7162
▁affairs	-10.7163
▁Slovenes	-10.7163
▁Level	-10.7163
▁qu	-10.7167
▁Eon	-10.7175
▁Croatian	-10.7179
ize	-10.7182
nine	-10.7185
▁townships	-10.7188
▁twinn	-10.7188
ā	-10.7194
▁powered	-10.7194
▁nominat	-10.7199
▁affin	-10.7208
▁aba	-10.7213
▁cleaning	-10.7217
▁78	-10.7217
▁reproducti	-10.7221
▁speed	-10.7229
▁distributed	-10.7232
▁constitutional	-10.7241
▁el	-10.7246
▁staged	-10.7248
▁insects	-10.725
5.4%	-10.7256
▁care	-10.7257
fer	-10.7258
▁del	-10.726
▁scientists	-10.7262
ís	-10.7271
▁Midwest	-10.7276
der	-10.7276
▁protested	-10.7277
▁movies	-10.7289
▁Duk	-10.7298
mā	-10.7303
▁engineered	-10.7306
▁adjectives	-10.7312
▁entered	-10.7315
▁symbols	-10.7325
▁listeners	-10.7325
▁fully	-10.7332
▁counts	-10.7337
▁windows	-10.735
▁historically	-10.735
▁Nor	-10.7356
▁handles	-10.7362
▁stat	-10.7365
llen	-10.7369
▁funds	-10.7378
arry	-10.738
▁Mala	-10.7385
▁choices	-10.7388
tta	-10.7391
les	-10.7397
▁rankings	-10.7401
hold	-10.7401
▁Rosa	-10.7406
▁Catholics	-10.7414
▁rhythmic	-10.7417
son	-10.7422
▁ale	-10.7426
3,000	-10.7432
▁behaviors	-10.7438
▁atoll	-10.7443
200	-10.7443
▁engineers	-10.7445
▁serializ	-10.7446
ongwriter	-10.7448
hu	-10.7448
▁roads	-10.7451
▁Sultana	-10.7451
▁Fr	-10.7456
▁print	-10.746
dated	-10.7462
▁pulps	-10.7492
iffe	-10.7497
▁conflicts	-10.7502
▁ignor	-10.7511
á	-10.7537
▁derivation	-10.754
▁et	-10.754
▁8.	-10.7563
▁ink	-10.7573
Bit	-10.7574
IO	-10.7577
▁daughter	-10.7577
tention	-10.7578
.5	-10.7581
ph	-10.7583
▁Board	-10.7583
▁Confession	-10.759
▁task	-10.7593
▁guitar	-10.7595
▁internal	-10.7597
▁drought	-10.7597
▁donor	-10.7598
▁vessel	-10.76
▁tribe	-10.7601
▁wire	-10.7602
ai	-10.7608
▁Tri	-10.7612
sim	-10.7617
▁tower	-10.7618
10,000	-10.764
▁domain	-10.7649
▁statement	-10.7652
▁me	-10.7661
▁fit	-10.7663
war	-10.7665
(	-10.7666
▁Moto	-10.7679
rival	-10.7681
▁diploma	-10.7684
82	-10.7694
$5	-10.7695
▁teach	-10.7698
Home	-10.77
Beautiful	-10.7701
Pacific	-10.7702
hydrogen	-10.7703
peer	-10.7703
flow	-10.7704
▁examin	-10.7704
▁Director	-10.7714
atic	-10.772
▁vis	-10.772
▁super	-10.7722
▁fun	-10.7733
▁rad	-10.7741
mid	-10.7754
▁showing	-10.7758
▁FD	-10.7759
om	-10.776
▁1971.	-10.7763
▁(6	-10.7768
▁Albania	-10.7769
▁Marshalls	-10.777
▁buy	-10.7771
astle	-10.7773
▁engine	-10.7776
▁hire	-10.7777
▁nic	-10.7779
funct	-10.7781
esolution	-10.7781
▁originate	-10.7781
oulevard	-10.7782
evel	-10.7782
▁autonom	-10.7784
NY	-10.7784
▁vow	-10.7785
ccupy	-10.7786
▁Port	-10.7786
ü	-10.7786
:28:01	-10.7786
Herzegovina	-10.7786
saṃsāra	-10.7786
ṃsā	-10.7786
▁1524	-10.7786
▁Aeneid	-10.7786
▁Baroque	-10.7786
▁Bowery	-10.7786
▁Commerce	-10.7786
▁Gregor	-10.7786
▁Jacob	-10.7786
▁Lopez	-10.7786
▁Montenegro	-10.7786
▁Nasrani	-10.7786
▁PepsiCo	-10.7786
▁Pictures	-10.7786
▁Procopius	-10.7786
▁Publishing	-10.7786
▁Quito	-10.7786
▁Slocum	-10.7786
▁Yangtze	-10.7786
▁bullying	-10.7786
▁cholera	-10.7786
▁coffee	-10.7786
▁delusion	-10.7786
▁epicenter	-10.7786
▁funicular	-10.7786
▁prestigious	-10.7786
▁psychoacoustic	-10.7786
▁severe	-10.7786
▁simultaneously	-10.7786
▁supremacy	-10.7786
▁symbiotic	-10.7786
▁ventilation	-10.7786
hawk	-10.7786
▁bundle	-10.7786
▁calendar	-10.7786
▁earmarked	-10.7786
▁murmur	-10.7786
▁(27	-10.7786
▁Tartu	-10.7786
▁colonization	-10.7786
▁entities	-10.7786
▁lifespan	-10.7786
▁negative	-10.7786
▁optim	-10.7786
▁trails	-10.7786
▁Hamburg	-10.7786
▁shipping	-10.7786
▁Yueju	-10.7786
▁abuse	-10.7786
▁discourage	-10.7786
▁overthrow	-10.7786
▁Philip	-10.7786
▁alarm	-10.7787
▁revival	-10.7787
▁charit	-10.7787
▁Basque	-10.7787
▁octa	-10.7787
▁Programme	-10.7787
▁UNESCO	-10.7787
▁Bull	-10.7787
▁Sheik	-10.7787
▁sugar	-10.7787
▁superior	-10.7787
▁Marathon	-10.7787
▁notebook	-10.7787
▁Moravia	-10.7787
▁speculation	-10.7787
▁Road	-10.7787
▁Provi	-10.7787
▁Crescent	-10.7787
▁1857	-10.7787
▁Justice	-10.7788
▁inequality	-10.7788
lɪ	-10.7788
▁puppies	-10.7788
▁1870	-10.7788
▁Taj	-10.7789
▁cricket	-10.7789
▁recovered	-10.7789
tech	-10.7789
▁endurance	-10.7789
▁deput	-10.7789
▁1932	-10.7789
▁Touch	-10.779
▁Legendary	-10.779
▁Young	-10.779
▁Belarusian	-10.779
▁1947	-10.779
ro	-10.779
▁2,500	-10.7791
▁steppe	-10.7792
▁Foot	-10.7792
▁emission	-10.7793
▁Student	-10.7793
▁promotion	-10.7793
isk	-10.7793
▁Jon	-10.7793
▁statistics	-10.7794
▁Beat	-10.7794
▁adoption	-10.7794
▁lb	-10.7795
▁latewood	-10.7795
▁papermaking	-10.7795
▁1642	-10.7795
terti	-10.7795
▁systematic	-10.7796
▁Mongolian	-10.7798
▁achievement	-10.7798
vous	-10.7798
▁organic	-10.7798
▁11,	-10.7798
▁Factory	-10.7799
▁confine	-10.7799
▁democracy	-10.7802
iesz	-10.7804
bhed	-10.7806
▁Augustus	-10.7806
▁Phillips	-10.7806
iceroy	-10.7809
▁broader	-10.7809
▁lamp	-10.7812
▁heritage	-10.7813
▁Epi	-10.7813
izable	-10.7814
▁promise	-10.7817
▁director	-10.7818
▁EJ	-10.7819
▁fidelity	-10.7819
▁arguments	-10.7819
▁attributes	-10.782
▁crosse	-10.7821
▁trafficking	-10.7823
▁sex	-10.7826
▁dominated	-10.7827
▁auth	-10.7832
▁revealed	-10.7832
▁Lan	-10.7833
▁wings	-10.7833
▁1982	-10.7833
▁Jose	-10.7834
▁identify	-10.7837
▁63	-10.7837
▁58	-10.7838
lbert	-10.7842
entic	-10.7842
▁Ni	-10.7843
Sc	-10.7851
▁Holy	-10.7853
hirt	-10.7854
▁lose	-10.7856
▁/ˈ	-10.7857
▁possessions	-10.7859
▁nuts	-10.7861
▁Dal	-10.7862
▁emerged	-10.7862
▁interrupted	-10.7865
▁regulated	-10.7867
▁Driver	-10.7868
inz	-10.787
▁5%	-10.7871
▁founder	-10.7876
▁compris	-10.7878
▁celebrated	-10.7879
▁peering	-10.788
▁forag	-10.7905
top	-10.7906
▁amendments	-10.7912
max	-10.7913
30	-10.7921
▁hip	-10.7924
2).	-10.7933
MD	-10.7934
▁Zu	-10.7935
back	-10.7938
▁cherr	-10.794
▁fo	-10.7942
▁disrupted	-10.7952
▁steps	-10.7953
▁switch	-10.7965
placed	-10.7967
▁rulers	-10.7971
anuel	-10.7974
▁terminat	-10.7978
▁elites	-10.7993
▁touch	-10.7994
▁trains	-10.7996
nic	-10.7997
rctic	-10.7998
3.	-10.7999
▁Lou	-10.7999
arities	-10.8003
look	-10.8007
▁Books	-10.8007
66	-10.8009
▁$45	-10.8013
▁leaders	-10.8019
▁photos	-10.8037
▁conducted	-10.804
▁Class	-10.804
gh	-10.8052
▁trac	-10.8055
▁tools	-10.806
▁participat	-10.8061
ter	-10.8093
hew	-10.8098
▁Theological	-10.8101
ainland	-10.8102
med	-10.8104
▁reserve	-10.8105
▁Sp	-10.8116
inter	-10.8122
▁1820	-10.8124
▁Em	-10.8142
▁Sultan	-10.8144
ale	-10.8145
▁acr	-10.8159
▁Industri	-10.8161
morph	-10.8174
▁Foo	-10.8184
▁explains	-10.8185
eit	-10.8186
book	-10.8197
▁audiences	-10.821
▁drink	-10.821
▁calculat	-10.8213
5%	-10.8219
ously	-10.8221
▁Bissau	-10.8223
▁brew	-10.8223
▁Tan	-10.823
ened	-10.823
▁son	-10.8233
▁HM	-10.8254
▁geographic	-10.826
▁Ty	-10.8264
▁oppose	-10.8267
▁(2,2	-10.827
40	-10.8272
sche	-10.8274
ip	-10.8281
style	-10.8286
▁database	-10.8291
▁archive	-10.8294
icides	-10.8295
▁protocol	-10.8301
▁constellation	-10.8305
▁tournament	-10.831
▁observation	-10.831
▁movie	-10.8312
▁70	-10.8313
▁job	-10.8313
▁picture	-10.8314
▁environments	-10.8314
Jive	-10.8324
special	-10.8333
▁ruler	-10.834
nrad	-10.8341
▁passenger	-10.8342
▁splic	-10.8344
▁Republican	-10.8344
▁Ce	-10.8351
▁male	-10.8352
mark	-10.8354
▁2003.	-10.8356
ka	-10.836
more	-10.8362
▁Part	-10.8362
▁item	-10.8363
ans	-10.8371
▁News	-10.838
▁minute	-10.8383
▁mov	-10.8393
metre	-10.8399
Russia	-10.8401
music	-10.8409
orial	-10.8412
▁transmit	-10.8414
building	-10.8415
PV	-10.8416
classified	-10.8416
Life	-10.8417
help	-10.8417
Tito	-10.8417
Catalan	-10.8417
noble	-10.8417
where	-10.8418
AP	-10.8419
term	-10.842
▁duration	-10.8432
ade	-10.8434
graphic	-10.8441
▁Loca	-10.8441
mail	-10.8442
▁descend	-10.8447
No	-10.8461
▁schooling	-10.8469
▁n	-10.847
▁originat	-10.8476
▁correct	-10.8477
▁stem	-10.8484
▁ocean	-10.8495
scribed	-10.8496
imilarly	-10.8497
▁Mongol	-10.8498
▁circ	-10.8498
▁assess	-10.8499
egendary	-10.8499
▁0.2	-10.8499
▁Intel	-10.85
▁judicia	-10.85
ła	-10.85
ě	-10.85
▁absorb	-10.8501
▁obscur	-10.8501
▁(06:28:01	-10.8501
▁Alguerese	-10.8501
▁Almaty	-10.8501
▁Depot	-10.8501
▁Franz	-10.8501
▁Katrina	-10.8501
▁LGB	-10.8501
▁Liberal	-10.8501
▁NASA	-10.8501
▁PAIGC	-10.8501
▁Period	-10.8501
▁Portugal	-10.8501
▁Psychiatri	-10.8501
▁Shenzhen	-10.8501
▁Skyfall	-10.8501
▁Stravinsky	-10.8501
▁Stuyvesant	-10.8501
▁Verrazzano	-10.8501
▁accidents	-10.8501
▁anāgāmis	-10.8501
▁arūpajhānas	-10.8501
▁debate	-10.8501
▁destruction	-10.8501
▁embedded	-10.8501
▁embezzlement	-10.8501
▁endosymbiont	-10.8501
▁eunuch	-10.8501
▁expectancy	-10.8501
▁iPhone	-10.8501
▁marathon	-10.8501
▁mazurkas	-10.8501
▁narrative	-10.8501
▁peninsula	-10.8501
▁populous	-10.8501
▁waders	-10.8501
▁woodwind	-10.8501
▁Liangzhu	-10.8501
▁Migrati	-10.8501
▁Noriega	-10.8501
▁companions	-10.8501
▁Adult	-10.8501
▁Championship	-10.8501
▁Cheshire	-10.8501
▁Lenape	-10.8501
▁disqualified	-10.8501
▁felt	-10.8501
′′	-10.8501
▁Psych	-10.8501
▁extractives	-10.8501
▁Finnish	-10.8501
▁Briars	-10.8501
▁overcome	-10.8501
▁Daily	-10.8501
▁epistemology	-10.8501
▁rural	-10.8501
▁Giovan	-10.8501
▁Connick	-10.8501
▁Cruises	-10.8501
▁refuge	-10.8501
▁donations	-10.8501
▁inquir	-10.8501
▁Dictionary	-10.8501
▁Kryst	-10.8501
▁RAF	-10.8501
▁Half	-10.8501
▁retro	-10.8501
▁facing	-10.8501
▁Diana	-10.8501
▁explicit	-10.8501
▁urg	-10.8501
▁haplo	-10.8501
▁Mama	-10.8501
▁reside	-10.8501
contingency	-10.8501
▁pioneer	-10.8501
▁surp	-10.8502
▁phase	-10.8502
▁Belgium	-10.8502
▁80%	-10.8502
▁advise	-10.8502
▁Norway	-10.8502
swal	-10.8502
▁egg	-10.8502
▁paintings	-10.8503
▁2,000	-10.8503
▁posture	-10.8503
eenager	-10.8503
▁lists	-10.8503
▁Hz	-10.8503
▁lush	-10.8503
▁Ku	-10.8503
▁tele	-10.8504
▁Nichol	-10.8504
▁deported	-10.8504
▁beaches	-10.8505
▁rocket	-10.8505
▁1822	-10.8505
▁soul	-10.8505
▁nocturnes	-10.8505
▁Workers	-10.8506
▁1811	-10.8506
▁Mean	-10.8506
▁proof	-10.8506
▁Carp	-10.8508
▁Asita	-10.8508
iel	-10.8508
▁spa	-10.8509
evertheless	-10.8509
▁evolutionary	-10.8509
▁perceived	-10.851
▁tell	-10.851
▁symbiosis	-10.8511
▁implie	-10.8513
▁Tuva	-10.8515
▁warmer	-10.8516
▁cessation	-10.8517
▁moth	-10.8517
▁Scout	-10.8518
▁Pine	-10.8518
▁Berners	-10.8522
▁realms	-10.8522
▁soldier	-10.8526
▁improved	-10.8529
▁bloody	-10.8529
▁straight	-10.853
▁phonetic	-10.8531
yboards	-10.8534
▁Phil	-10.8535
▁hearing	-10.8536
▁topics	-10.8536
▁photovoltaics	-10.8536
▁Austrian	-10.8538
áng	-10.8539
▁Danube	-10.8543
▁artificially	-10.8546
▁accompanie	-10.8546
▁antibodies	-10.8547
▁hydrides	-10.8551
liance	-10.8551
▁undergo	-10.8552
▁hard	-10.8553
▁periph	-10.8558
▁imply	-10.8562
▁infrastructure	-10.8573
▁Eye	-10.8574
][	-10.8577
pecifically	-10.8579
▁descended	-10.8579
50	-10.8586
▁Islanders	-10.8592
▁fixtures	-10.8593
▁Dialects	-10.8593
▁3,000	-10.8598
▁attacked	-10.8599
▁ennoblements	-10.8608
▁voter	-10.8608
▁Whit	-10.8609
tana	-10.8609
▁modul	-10.8612
▁Cable	-10.8622
▁Mc	-10.8628
▁tenth	-10.8635
▁empires	-10.8636
groups	-10.8638
▁feeding	-10.8641
ility	-10.8642
lides	-10.8646
opulation	-10.8648
▁altitude	-10.8652
sale	-10.8656
▁preserved	-10.8658
▁merchants	-10.8665
cu	-10.8669
gnate	-10.8673
▁fan	-10.8679
▁ren	-10.8682
oka	-10.8683
ado	-10.8687
amorph	-10.8692
▁notice	-10.8692
▁Commissioner	-10.8702
oe	-10.8709
▁1911.	-10.871
▁pope	-10.8715
▁ideals	-10.872
▁reactions	-10.8723
▁goods	-10.8742
▁Parti	-10.875
▁denominations	-10.8752
▁Sutras	-10.8752
ert	-10.8763
▁Goth	-10.8769
teau	-10.8779
▁CAF	-10.8781
▁interpretations	-10.8781
▁container	-10.8782
▁Karachays	-10.8796
its	-10.8809
ents	-10.8812
▁writers	-10.8826
▁investigat	-10.8839
hour	-10.8841
▁Fu	-10.8843
▁Gam	-10.885
▁impose	-10.8862
lai	-10.8877
ha	-10.8889
▁Far	-10.889
▁studios	-10.8898
raj	-10.89
▁tables	-10.8901
▁fir	-10.8901
▁commemorate	-10.8913
▁rivers	-10.8913
▁Hauptschule	-10.8921
athia	-10.8925
thing	-10.8945
andro	-10.895
stand	-10.8951
▁fer	-10.8962
$2	-10.897
▁Br	-10.8971
▁sa	-10.8972
minated	-10.8973
ame	-10.8978
second	-10.8978
ARC	-10.8983
▁instrumental	-10.8984
phe	-10.8992
▁1905	-10.9007
95	-10.9009
ated	-10.9011
▁qui	-10.9013
▁artistic	-10.9017
ó	-10.9038
▁migrator	-10.9049
bow	-10.9051
▁departments	-10.9061
▁error	-10.9063
▁theater	-10.9073
▁step	-10.9074
▁emerg	-10.9076
ɑ	-10.9076
▁counterpart	-10.9077
▁spirit	-10.9078
corporate	-10.908
▁vehicle	-10.9082
▁employee	-10.9084
▁belief	-10.9086
ong	-10.9086
tang	-10.9088
▁gift	-10.9092
mus	-10.9096
▁penn	-10.9098
bre	-10.9104
▁guide	-10.9105
▁Mu	-10.9105
▁Sol	-10.9106
▁repeat	-10.9107
▁compile	-10.9107
▁bill	-10.9109
▁condition	-10.9111
▁officer	-10.9111
▁credit	-10.9124
ssessment	-10.9124
▁Chang	-10.913
▁nationals	-10.914
hail	-10.915
▁nam	-10.9158
▁com	-10.9176
pop	-10.9177
view	-10.9179
X	-10.918
Brazzaville	-10.918
labial	-10.9182
▁interpret	-10.9182
exclusive	-10.9183
coronation	-10.9186
derived	-10.9186
launched	-10.9186
generation	-10.9186
2008	-10.9187
good	-10.9187
bang	-10.9188
made	-10.919
▁distinguish	-10.9193
ze	-10.9194
▁Ki	-10.9196
▁quarters	-10.9197
either	-10.9198
▁press	-10.9198
largest	-10.9201
▁Hil	-10.9215
viation	-10.9219
28	-10.9223
29	-10.9231
▁stadtholders	-10.9236
▁Hu	-10.9239
▁evolve	-10.9246
▁neighbour	-10.9249
▁gather	-10.925
atory	-10.925
phonic	-10.9251
▁Persia	-10.9254
▁par	-10.9261
BS	-10.9262
▁invit	-10.9265
ging	-10.9266
cientific	-10.9266
▁Tim	-10.9266
▁Equator	-10.927
Asiatic	-10.927
atriots	-10.927
▁Anhui	-10.927
▁Ashtadhyayi	-10.927
▁Cello	-10.927
▁Cerberus	-10.927
▁Colonel	-10.927
▁Computer	-10.927
▁Dynasty	-10.927
▁Eagle	-10.927
▁Enterprises	-10.927
▁Francophonie	-10.927
▁Mesopotamia	-10.927
▁Murdoch	-10.927
▁Nourrit	-10.927
▁Pomors	-10.927
▁SaberCats	-10.927
▁Tadaklan	-10.927
▁Vojvodina	-10.927
▁Vulgar	-10.927
▁Zhengtong	-10.927
▁advantage	-10.927
▁appeasement	-10.927
▁articulation	-10.927
▁artifacts	-10.927
▁bankruptcy	-10.927
▁conversion	-10.927
▁dhyāna	-10.927
▁facilitate	-10.927
▁inaugurated	-10.927
▁karaoke	-10.927
▁kilometers	-10.927
▁modify	-10.927
▁petrochemicals	-10.927
▁proliferation	-10.927
▁remnant	-10.927
▁sequential	-10.927
▁symbiont	-10.927
▁torture	-10.927
▁tribunal	-10.927
▁unexpected	-10.927
▁1916	-10.927
▁Aleksand	-10.927
▁Arizona	-10.927
▁LLC	-10.927
▁commodit	-10.927
▁victor	-10.927
▁Lofting	-10.927
▁Ostia	-10.927
▁Jaluit	-10.927
▁pilot	-10.927
▁Abodes	-10.927
▁affiliation	-10.927
▁brother	-10.927
▁Emirates	-10.927
KMT	-10.927
▁Hampton	-10.927
▁breweries	-10.927
▁strife	-10.927
▁Large	-10.927
▁antigens	-10.927
▁equator	-10.927
▁8.9%	-10.927
▁Cowell	-10.927
▁patronage	-10.927
▁copyright	-10.927
▁signature	-10.927
▁telescope	-10.927
▁1,600	-10.927
▁Lynx	-10.927
▁couplets	-10.927
▁Jax	-10.927
▁Senti	-10.927
▁Borders	-10.927
herent	-10.927
▁Kenya	-10.927
▁Kimat	-10.927
▁neurons	-10.927
▁Mexico	-10.927
▁Sino	-10.927
▁celebrities	-10.927
▁ratification	-10.927
▁chemistry	-10.927
▁cancer	-10.927
▁Koine	-10.927
▁fitness	-10.927
▁Prize	-10.927
▁Pocket	-10.927
▁Brookline	-10.927
▁stick	-10.9271
▁digest	-10.9271
▁dining	-10.9271
▁Astoria	-10.9271
▁bodybuilder	-10.9271
▁Good	-10.9271
▁receptions	-10.9271
▁colonies	-10.9271
▁preference	-10.9271
▁Gabon	-10.9271
▁pounds	-10.9271
▁classification	-10.9271
ssica	-10.9271
▁zoo	-10.9271
▁70%	-10.9271
▁Mercer	-10.9271
▁shell	-10.9271
▁Monica	-10.9272
▁dozen	-10.9272
ideo	-10.9272
nja	-10.9272
▁repression	-10.9272
▁Manhattanville	-10.9272
▁1895	-10.9272
▁Grant	-10.9272
▁Halley	-10.9273
▁Phonology	-10.9273
▁(23	-10.9273
▁worship	-10.9274
skirt	-10.9274
▁UNDP	-10.9274
oxide	-10.9274
▁Burma	-10.9274
▁solo	-10.9274
ehind	-10.9274
▁Catal	-10.9274
▁Native	-10.9274
▁Maryland	-10.9274
:15	-10.9274
▁Hong	-10.9274
▁Dub	-10.9275
▁communicate	-10.9275
▁Northwest	-10.9275
▁1872	-10.9276
▁strategies	-10.9276
▁indeed	-10.9277
mia	-10.9277
▁Rick	-10.9278
▁attachment	-10.9278
▁Saxony	-10.9278
▁1904	-10.9279
▁attendance	-10.9279
Vor	-10.9279
▁[ˈ	-10.9279
▁enlightenment	-10.928
▁canoe	-10.9284
▁reality	-10.9284
▁heard	-10.9285
▁fusion	-10.9288
▁Area	-10.9288
▁Era	-10.929
▁broken	-10.9291
▁Tak	-10.9292
▁investment	-10.9293
▁campuses	-10.9293
▁catalog	-10.9293
▁Yugoslav	-10.9294
▁Jack	-10.9294
▁fear	-10.9296
▁wealthie	-10.9297
▁annexed	-10.9298
▁VII	-10.9301
▁MI	-10.9301
▁1962	-10.9301
▁HIV	-10.9301
▁nominal	-10.9301
▁influ	-10.9302
▁Ar	-10.9304
ima	-10.9305
▁Poly	-10.9305
▁rail	-10.9306
▁brands	-10.9306
▁bathing	-10.9306
▁wheel	-10.9306
▁Flight	-10.9309
laza	-10.9314
▁string	-10.9315
erri	-10.9315
▁mRNA	-10.9316
▁banned	-10.9317
▁ignorance	-10.9317
▁better	-10.9317
▁supporters	-10.9317
▁genres	-10.9318
▁activists	-10.9324
▁bred	-10.9324
▁Ven	-10.9327
▁distribute	-10.9329
▁BDS	-10.9329
▁wind	-10.9339
▁extensively	-10.934
▁1.3	-10.934
▁Arg	-10.934
antan	-10.934
▁warmth	-10.9342
▁worn	-10.9343
▁incident	-10.9348
▁3.1	-10.9348
▁specialist	-10.9352
▁deposits	-10.9355
▁synchron	-10.9364
▁se	-10.9364
ara	-10.9376
▁girls	-10.9386
ira	-10.9387
ronze	-10.9388
▁consume	-10.9388
▁canton	-10.9393
▁Home	-10.94
lts	-10.9401
▁proteins	-10.9403
etnik	-10.941
▁muscles	-10.9417
▁fighting	-10.9428
thletic	-10.943
▁look	-10.943
▁Harr	-10.9436
▁purchases	-10.9436
▁60	-10.9438
▁Pat	-10.9445
▁hardwoods	-10.9448
▁Mountains	-10.9448
▁aiming	-10.9467
▁officers	-10.9469
▁tournaments	-10.9479
bles	-10.948
▁wine	-10.948
▁tracking	-10.9485
▁dual	-10.9489
ned	-10.9493
▁skills	-10.9504
nin	-10.9505
ul	-10.9506
▁reflected	-10.9521
▁plu	-10.9532
▁strategi	-10.9541
can	-10.9543
▁Us	-10.9545
hp	-10.9547
tail	-10.9556
▁neighborhoods	-10.9558
▁Tu	-10.9561
ville	-10.9564
▁ceas	-10.9569
▁Jord	-10.9592
ire	-10.9605
but	-10.9605
▁conceptual	-10.9609
▁Gri	-10.9629
▁politically	-10.9636
ockey	-10.9646
▁denote	-10.9652
▁Raj	-10.9669
▁$7	-10.9678
net	-10.9685
ES	-10.969
▁Systems	-10.9701
▁investigate	-10.9708
▁organisations	-10.9717
▁x	-10.9721
▁referr	-10.9727
bi	-10.9728
▁virtu	-10.9728
▁cas	-10.9733
▁preci	-10.9738
hoir	-10.9746
den	-10.9754
▁10,	-10.9761
▁(193	-10.9761
xt	-10.9765
▁goals	-10.9781
elug	-10.9798
▁Colleges	-10.9809
▁climat	-10.9815
—"	-10.9816
▁trees	-10.9817
ric	-10.9819
Black	-10.9821
▁$4	-10.9826
long	-10.9832
sha	-10.9835
22	-10.9835
▁1983	-10.9839
pendi	-10.9868
quisition	-10.9874
las	-10.9891
▁finals	-10.9893
▁dinner	-10.99
▁chromosome	-10.9903
▁hierarch	-10.9903
86	-10.9906
▁Province	-10.991
▁monument	-10.9911
▁enterprise	-10.9912
▁eye	-10.9913
▁Mountain	-10.9913
▁hardwood	-10.9914
▁merchant	-10.9914
▁scientist	-10.9914
▁procedure	-10.9919
▁panel	-10.9921
ij	-10.9921
gar	-10.9929
▁27,	-10.9936
introduc	-10.9937
▁gang	-10.9938
▁distribut	-10.9944
sional	-10.9944
lus	-10.9945
Z	-10.9949
▁Aragon	-10.9952
▁Direct	-10.9953
▁pur	-10.9963
▁CPU	-10.9971
▁Nub	-10.998
onal	-10.9983
42	-10.9991
ston	-10.9992
77	-11.0003
rant	-11.0003
lack	-11.001
▁Ji	-11.0012
burn	-11.0014
present	-11.0015
predict	-11.0016
execut	-11.0016
minute	-11.0017
orient	-11.0017
speed	-11.0018
Israel	-11.0018
inspir	-11.0018
previously	-11.0019
Valencian	-11.002
Eastern	-11.002
return	-11.002
Canadian	-11.002
four	-11.0023
word	-11.0024
founder	-11.0024
Secretary	-11.0026
▁destroy	-11.0026
▁los	-11.0027
omestic	-11.0037
▁peas	-11.0039
▁provider	-11.0047
kins	-11.0054
▁aired	-11.0064
▁conserve	-11.0065
▁Archiv	-11.0066
▁characterize	-11.007
usually	-11.007
▁standardize	-11.0073
▁possibl	-11.0074
▁Stern	-11.0074
▁psycholog	-11.008
▁Maha	-11.0082
bu	-11.0085
ED	-11.0086
wards	-11.0087
▁tempora	-11.009
▁adapt	-11.009
▁preparat	-11.0093
ultan	-11.0093
▁communi	-11.0094
▁Or	-11.0094
▁regulate	-11.0095
▁diff	-11.0095
▁hung	-11.0096
▁Stud	-11.0096
▁nocturn	-11.0097
refecture	-11.0098
simila	-11.0099
ermanent	-11.0099
▁Wake	-11.01
eclaration	-11.01
▁overshoot	-11.01
rrors	-11.0101
▁Support	-11.0101
▁Conservat	-11.0101
-2015	-11.0101
▁Organiz	-11.0101
▁egalitarian	-11.0102
ddhā	-11.0102
aculty	-11.0103
▁Brook	-11.0103
▁Clark	-11.0103
▁Jeff	-11.0103
κ	-11.0103
Nazarene	-11.0103
#	-11.0103
▁caution	-11.0103
Neill	-11.0103
deoxyribo	-11.0103
ochemical	-11.0103
rūpyadhātu	-11.0103
sedentary	-11.0103
suburbicarian	-11.0103
▁18,498	-11.0103
▁1984	-11.0103
▁374,176	-11.0103
▁68,636	-11.0103
▁69,180	-11.0103
▁ASSR	-11.0103
▁AVL	-11.0103
▁Absecon	-11.0103
▁Admiral	-11.0103
▁Aristotle	-11.0103
▁BMW	-11.0103
▁Benedict	-11.0103
▁Berber	-11.0103
▁Bloc	-11.0103
▁Communion	-11.0103
▁Corbusier	-11.0103
▁Cretaceous	-11.0103
▁Cultura	-11.0103
▁Cushitic	-11.0103
▁Effort	-11.0103
▁Exeter	-11.0103
▁Garmr	-11.0103
▁Girls	-11.0103
▁Hemisphere	-11.0103
▁Iowa	-11.0103
▁Irwin	-11.0103
▁Jiankang	-11.0103
▁KJHK	-11.0103
▁Kriol	-11.0103
▁LAME	-11.0103
▁Management	-11.0103
▁Mechanical	-11.0103
▁Nasser	-11.0103
▁Nazarbaev	-11.0103
▁Panama	-11.0103
▁Petroleum	-11.0103
▁Porcelain	-11.0103
▁Protector	-11.0103
▁Punch	-11.0103
▁Recreation	-11.0103
▁Reservations	-11.0103
▁Rutherford	-11.0103
▁Sangha	-11.0103
▁Subdivision	-11.0103
▁Trocadéro	-11.0103
▁Utrecht	-11.0103
▁Watson	-11.0103
▁Weinstein	-11.0103
▁archaism	-11.0103
▁astrologer	-11.0103
▁beaut	-11.0103
▁café	-11.0103
▁circumstances	-11.0103
▁clownfish	-11.0103
▁congestion	-11.0103
▁constituency	-11.0103
▁crucia	-11.0103
▁deacons	-11.0103
▁diaspora	-11.0103
▁epidemic	-11.0103
▁facultative	-11.0103
▁influential	-11.0103
▁intelligible	-11.0103
▁mainstay	-11.0103
▁misconduct	-11.0103
▁narrow	-11.0103
▁natatorium	-11.0103
▁practis	-11.0103
▁promulgat	-11.0103
▁proposal	-11.0103
▁revived	-11.0103
▁significance	-11.0103
▁solidarity	-11.0103
▁suffix	-11.0103
▁transient	-11.0103
▁unemployment	-11.0103
▁unilateral	-11.0103
▁1526	-11.0103
▁1853	-11.0103
▁Ialá	-11.0103
▁coniferyl	-11.0103
▁geography	-11.0103
▁Cathar	-11.0103
▁Nguesso	-11.0103
▁Policy	-11.0103
▁convey	-11.0103
▁incense	-11.0103
▁plywood	-11.0103
icacies	-11.0103
▁Itchen	-11.0103
▁martial	-11.0103
▁revert	-11.0103
▁troupe	-11.0103
▁Worst	-11.0103
▁algae	-11.0103
▁jacks	-11.0103
▁licence	-11.0103
▁Irv	-11.0103
▁Parthian	-11.0103
▁gumbe	-11.0103
▁anthem	-11.0103
▁rosin	-11.0103
▁spacecraft	-11.0103
▁thunder	-11.0103
▁gymnasium	-11.0103
▁manual	-11.0103
▁constraints	-11.0103
▁exempt	-11.0103
▁incur	-11.0103
RMB	-11.0103
▁$8	-11.0103
▁microfilm	-11.0103
▁400,000	-11.0103
▁Hades	-11.0103
▁literal	-11.0103
▁Guang	-11.0103
▁mobility	-11.0103
▁Foster	-11.0103
▁Francis	-11.0103
▁introns	-11.0103
āsa	-11.0104
▁chieftain	-11.0104
▁departure	-11.0104
▁Visit	-11.0104
▁orthodox	-11.0104
▁correspondence	-11.0104
▁discard	-11.0104
▁625	-11.0104
▁Album	-11.0104
▁Fingers	-11.0104
▁variants	-11.0104
▁mauron	-11.0104
▁shipbuilding	-11.0104
▁Nero	-11.0104
▁Brown	-11.0104
▁horse	-11.0104
▁55°	-11.0104
▁Georgics	-11.0104
▁thickness	-11.0104
▁Mindfulness	-11.0104
▁Neolithic	-11.0104
▁Qiang	-11.0104
▁thorough	-11.0104
▁Galile	-11.0104
▁Wesley	-11.0104
▁egalitarianism	-11.0104
▁slavery	-11.0104
▁Mili	-11.0104
▁loose	-11.0105
▁predominant	-11.0105
▁emotional	-11.0105
▁Household	-11.0105
▁praise	-11.0105
▁submission	-11.0105
▁Hou	-11.0105
▁bodybuilding	-11.0105
▁merger	-11.0105
▁40%	-11.0105
▁Franco	-11.0105
▁Township	-11.0105
▁158	-11.0106
▁pitch	-11.0106
iate	-11.0106
▁attendant	-11.0106
▁lightning	-11.0106
▁5.2	-11.0106
vard	-11.0106
▁texture	-11.0106
▁arise	-11.0106
▁wife	-11.0106
▁1066	-11.0107
▁Shuffle	-11.0107
hrist	-11.0107
▁33,000	-11.0107
▁Jai	-11.0107
▁memorial	-11.0107
▁pota	-11.0107
▁Chengdu	-11.0107
persed	-11.0107
▁1500	-11.0107
▁1100	-11.0108
▁1900	-11.0108
▁expectation	-11.0108
▁1600	-11.0108
▁prevalent	-11.0109
▁1830	-11.0109
▁ceded	-11.0109
▁13°	-11.011
▁anaerobic	-11.011
▁Rite	-11.011
▁Meli	-11.0111
▁desire	-11.0112
▁boxes	-11.0112
▁glacier	-11.0114
▁Well	-11.0115
▁investigation	-11.0115
▁Bac	-11.0116
▁beam	-11.0116
▁diet	-11.0117
▁disruption	-11.0117
▁exiled	-11.0118
-20	-11.0119
▁Sami	-11.0119
▁deep	-11.0119
▁withdrawal	-11.012
▁spann	-11.0121
▁Indonesia	-11.0122
▁Gray	-11.0122
▁Par	-11.0123
▁homeless	-11.0123
▁lens	-11.0124
▁fiction	-11.0126
▁psychology	-11.0127
dar	-11.0127
▁pursue	-11.0128
▁ratings	-11.0129
▁filing	-11.0129
▁Ev	-11.0131
▁sand	-11.0133
usted	-11.0133
SiO	-11.0134
ively	-11.0134
▁hug	-11.0136
▁(190	-11.0137
▁Met	-11.0138
▁failure	-11.0139
▁Simo	-11.0139
▁statistical	-11.014
▁pursuing	-11.0141
▁easter	-11.0143
▁Roy	-11.0144
▁columns	-11.0148
▁draw	-11.0148
▁climbed	-11.0148
▁Rose	-11.0149
▁climbing	-11.0149
▁organise	-11.0155
▁affiliate	-11.0155
▁row	-11.0158
▁driver	-11.0159
▁CN	-11.0161
▁bells	-11.0162
▁calculations	-11.0162
▁exclusive	-11.0163
▁speaking	-11.0164
▁Wei	-11.0165
hiva	-11.0168
▁120	-11.0173
▁Fl	-11.0175
▁anxiety	-11.0175
▁births	-11.0175
▁lineage	-11.0176
▁penguins	-11.0179
▁carrier	-11.0182
▁upwards	-11.0186
▁ph	-11.0186
ckey	-11.0188
▁Independent	-11.0192
oric	-11.0192
▁sum	-11.0194
▁weddings	-11.0196
▁slates	-11.0198
erdin	-11.0198
▁digits	-11.0199
▁stars	-11.0201
▁Bar	-11.0202
▁resumed	-11.0207
▁trained	-11.0213
▁risen	-11.0214
▁Stop	-11.0216
▁regularly	-11.0222
city	-11.0225
▁mammals	-11.023
▁camps	-11.0231
▁counting	-11.0233
▁drying	-11.0241
art	-11.0242
zi	-11.0243
▁delivered	-11.0245
▁compounds	-11.0247
▁Mauri	-11.0247
responsibilities	-11.0248
termination	-11.0252
acker	-11.0254
▁finished	-11.0255
ō	-11.0258
▁$2	-11.0263
▁pyramids	-11.0264
yāna	-11.0273
▁strands	-11.0281
rzy	-11.0294
▁globally	-11.0294
▁enterprises	-11.0298
sel	-11.0303
▁introduce	-11.0304
sat	-11.0304
ida	-11.0305
▁trace	-11.0306
▁Edw	-11.032
ordin	-11.032
▁1836.	-11.0327
▁crowned	-11.0329
▁minutes	-11.0332
▁observations	-11.0332
▁photograph	-11.0335
fence	-11.0341
▁144	-11.0344
food	-11.0345
pper	-11.0346
olton	-11.0354
▁Carl	-11.0355
▁sustain	-11.0356
sted	-11.0362
▁Ga	-11.0365
▁1983.	-11.0374
discover	-11.0376
▁structured	-11.0376
▁attacks	-11.0385
▁Pol	-11.0387
×	-11.0393
▁videos	-11.0394
▁hills	-11.04
ST	-11.0401
ug	-11.0414
▁ruled	-11.042
▁Vat	-11.0425
▁elde	-11.0437
▁careers	-11.0438
▁cy	-11.0442
mous	-11.0447
▁rely	-11.0453
tes	-11.0465
liver	-11.0473
utility	-11.0476
▁30%	-11.048
dical	-11.0481
▁admit	-11.0482
ell	-11.0485
▁leaves	-11.0487
▁gest	-11.0487
▁doing	-11.0498
▁Ko	-11.0498
mo	-11.0504
▁glo	-11.0508
▁persons	-11.0509
▁formulate	-11.0517
isms	-11.0517
▁messages	-11.0522
▁ta	-11.0535
▁criticize	-11.0539
▁Win	-11.0544
▁28	-11.0547
▁Cardinals	-11.0557
▁coloring	-11.056
▁concerts	-11.0575
▁reserv	-11.0576
▁canons	-11.0581
▁executives	-11.0592
inson	-11.0595
▁Wa	-11.0601
▁cash	-11.0606
▁Nan	-11.0606
▁Ver	-11.061
▁Mutual	-11.0614
▁champion	-11.0619
▁utilit	-11.0619
▁sl	-11.0635
mu	-11.064
▁Oliv	-11.0642
▁woody	-11.0646
▁FA	-11.0653
▁discuss	-11.0653
ked	-11.0655
▁cease	-11.0667
put	-11.0673
▁driv	-11.0677
▁undermine	-11.0684
▁Hom	-11.0684
▁stee	-11.0694
▁Warsa	-11.0698
▁Col	-11.0701
ulk	-11.0712
varies	-11.0715
▁Main	-11.0716
▁legislati	-11.0716
tus	-11.0719
water	-11.0719
▁capab	-11.0721
▁sponsor	-11.0738
.2	-11.0738
▁1989.	-11.074
va	-11.0742
▁arrest	-11.0747
illa	-11.0749
▁1911	-11.0755
port	-11.0768
▁forest	-11.0776
▁crowd	-11.0778
▁arahant	-11.0792
duced	-11.0794
wise	-11.0801
▁resum	-11.0801
▁6,	-11.0803
▁tun	-11.0803
▁Protestants	-11.0805
rpe	-11.0808
▁purchase	-11.0809
▁objective	-11.081
▁Parks	-11.081
egal	-11.081
▁chair	-11.0815
▁Ken	-11.0815
▁Presbyterian	-11.0817
▁strand	-11.0822
▁segment	-11.0824
▁dungeon	-11.0825
▁privilege	-11.0827
▁household	-11.0828
▁characteristic	-11.0828
▁civilization	-11.0829
▁insect	-11.0831
▁moo	-11.0839
terior	-11.0841
▁publisher	-11.0841
▁formations	-11.0841
▁tropic	-11.085
▁shelter	-11.0858
▁logic	-11.0858
▁localiz	-11.0859
▁composer	-11.0862
▁Tria	-11.0868
ura	-11.0868
ery	-11.0875
wi	-11.0889
▁institutional	-11.0893
▁broadcaster	-11.0897
Seto	-11.0899
ought	-11.0901
▁cool	-11.0915
field	-11.0918
rais	-11.0922
▁Bron	-11.0922
now	-11.0923
domain	-11.0926
perception	-11.0927
cellular	-11.0928
Lithuania	-11.0928
Bowl	-11.0928
Near	-11.0928
demand	-11.0928
Lee	-11.0929
Spanish	-11.0929
while	-11.0929
South	-11.0929
Four	-11.0929
Italian	-11.093
290	-11.0931
▁reign	-11.0931
▁bomb	-11.0932
aware	-11.0934
▁enjoy	-11.0935
mile	-11.0944
1970	-11.0944
▁committe	-11.0951
among	-11.0959
bar	-11.0961
ney	-11.0961
▁stores	-11.0962
drew	-11.0968
alleged	-11.097
▁philosoph	-11.0974
▁improve	-11.0976
▁specifie	-11.0977
▁184	-11.098
▁perfect	-11.0984
▁associate	-11.0985
▁symphon	-11.0988
hea	-11.0992
007	-11.0993
ssembly	-11.0994
▁Berli	-11.0996
▁realis	-11.0998
ça	-11.1005
bullent	-11.1007
publi	-11.1007
mperor	-11.1007
peech	-11.1009
▁opportunit	-11.1009
▁civi	-11.1009
▁Alban	-11.101
Arabs	-11.1012
▁defend	-11.1012
▁Kazakh	-11.1012
hmet	-11.1012
▁Brasília	-11.1012
▁Davis	-11.1012
▁Gesellschaft	-11.1012
▁Lincoln	-11.1012
▁Malenkov	-11.1012
▁Manufactur	-11.1012
▁Mihailović	-11.1012
▁uncertain	-11.1012
$143,000	-11.1012
▁1425	-11.1012
▁1496	-11.1012
▁1951	-11.1012
▁ARB	-11.1012
▁Alicante	-11.1012
▁Alphabet	-11.1012
▁Bargate	-11.1012
▁Bartolome	-11.1012
▁Beyontourage	-11.1012
▁Bowersox	-11.1012
▁Brezhnev	-11.1012
▁Cameroon	-11.1012
▁Carolina	-11.1012
▁Chronicle	-11.1012
▁Commissars	-11.1012
▁Concentration	-11.1012
▁Culture	-11.1012
▁Franchomme	-11.1012
▁Gakkai	-11.1012
▁Geilenkirchen	-11.1012
▁Gestirne	-11.1012
▁Giraud	-11.1012
▁Glazunov	-11.1012
▁Hanwang	-11.1012
▁Hengdian	-11.1012
▁Illinois	-11.1012
▁Jewel	-11.1012
▁KANU	-11.1012
▁Kerala	-11.1012
▁Osotimehin	-11.1012
▁Phagmodrupa	-11.1012
▁Pleasantville	-11.1012
▁Scrope	-11.1012
▁Soyuz	-11.1012
▁Suddhodana	-11.1012
▁Sylphides	-11.1012
▁Taongi	-11.1012
▁Technologies	-11.1012
▁Uighur	-11.1012
▁Usually	-11.1012
▁Uyghurs	-11.1012
▁Vehicle	-11.1012
▁Viardot	-11.1012
▁Vorbis	-11.1012
▁Winnipeg	-11.1012
▁abstract	-11.1012
▁bribery	-11.1012
▁commentator	-11.1012
▁contradict	-11.1012
▁doctrinal	-11.1012
▁dunlin	-11.1012
▁efficiency	-11.1012
▁identical	-11.1012
▁pleasure	-11.1012
▁prayers	-11.1012
▁prokaryot	-11.1012
▁proparoxytone	-11.1012
▁rupture	-11.1012
▁triomphale	-11.1012
▁unrecognized	-11.1012
▁vaulted	-11.1012
▁vinaya	-11.1012
▁Alghero	-11.1012
▁Breton	-11.1012
▁Castelló	-11.1012
▁Flemish	-11.1012
▁Fokine	-11.1012
▁Michel	-11.1012
▁Tarragona	-11.1012
▁cranes	-11.1012
▁marble	-11.1012
▁mechanics	-11.1012
▁syllable	-11.1012
chatzi	-11.1012
▁1891	-11.1012
▁Magnates	-11.1012
▁Samsung	-11.1012
▁Vol	-11.1012
▁patrioti	-11.1012
▁bureau	-11.1012
▁cultivati	-11.1012
▁minimiz	-11.1012
▁Hardwood	-11.1012
▁Helheim	-11.1012
▁38%	-11.1012
▁minimum	-11.1012
▁infringement	-11.1012
Mudug	-11.1012
▁Peak	-11.1012
▁Valais	-11.1012
▁globe	-11.1012
▁faithfulness	-11.1012
▁Shadows	-11.1012
▁Scotia	-11.1012
▁0.5	-11.1012
hru	-11.1012
▁preseason	-11.1013
▁dictatorship	-11.1013
▁undertaking	-11.1013
▁paid	-11.1013
▁censorship	-11.1013
▁87%	-11.1013
▁Moham	-11.1013
▁divergence	-11.1013
▁Huang	-11.1013
▁Normandy	-11.1013
▁occupation	-11.1013
zhou	-11.1013
7–5	-11.1013
▁Storage	-11.1013
▁edict	-11.1013
▁exact	-11.1013
▁1887	-11.1013
▁Mendel	-11.1013
▁lo	-11.1013
▁nationwide	-11.1013
▁47%	-11.1013
▁sponsorship	-11.1013
▁1973	-11.1013
▁Verde	-11.1013
▁Lewis	-11.1013
▁Tidal	-11.1013
CSP	-11.1013
▁midnight	-11.1013
9.8	-11.1013
▁Icelandic	-11.1013
▁Mahā	-11.1013
▁obvious	-11.1013
▁Statistic	-11.1013
▁Brick	-11.1013
▁sentiment	-11.1013
▁cooperation	-11.1014
▁NSA	-11.1014
▁polonaise	-11.1014
▁remaster	-11.1014
tuff	-11.1014
▁illustrat	-11.1014
▁Tamar	-11.1014
▁Jinhua	-11.1014
▁Hinduism	-11.1014
▁1535	-11.1014
▁battery	-11.1014
▁557	-11.1014
▁Hoover	-11.1014
▁1358	-11.1014
▁Field	-11.1014
▁2.8%	-11.1014
▁42%	-11.1014
▁1581	-11.1015
▁Zone	-11.1015
▁distant	-11.1015
gnet	-11.1015
▁65%	-11.1015
▁69	-11.1016
▁Regina	-11.1016
▁coordinat	-11.1016
▁cancelled	-11.1016
▁charities	-11.1016
eisure	-11.1016
▁discrimination	-11.1016
▁gam	-11.1017
▁3.3%	-11.1017
▁Designers	-11.1017
▁2050	-11.1017
▁icon	-11.1017
▁Select	-11.1018
▁1876	-11.1018
tz	-11.1018
▁13,000	-11.1018
▁desk	-11.1018
▁11°	-11.1018
▁stock	-11.1018
Forcefield	-11.1019
vigor	-11.1019
▁employment	-11.1019
▁Marg	-11.1019
▁nationalities	-11.102
strian	-11.102
eograph	-11.1021
▁Sardinian	-11.1021
▁119	-11.1021
▁spill	-11.1021
▁strategy	-11.1021
▁dishes	-11.1022
▁detonat	-11.1022
▁diocese	-11.1023
▁supplie	-11.1023
▁Ike	-11.1023
▁uprising	-11.1024
▁morphophonology	-11.1024
▁confirmed	-11.1024
▁Nine	-11.1025
▁hardware	-11.1025
aret	-11.1025
▁Walt	-11.1026
penetra	-11.1026
▁oligarch	-11.1026
▁Oman	-11.1027
dies	-11.1028
songwriters	-11.1028
▁recommendation	-11.1028
▁domestically	-11.1029
oxing	-11.103
▁(79.	-11.103
inhua	-11.1031
ābh	-11.1031
▁Bang	-11.1031
▁Tai	-11.1031
▁Rad	-11.1032
▁Tampa	-11.1033
▁phone	-11.1033
▁shrine	-11.1033
▁Corne	-11.1035
cription	-11.1035
▁Newark	-11.1037
▁Toon	-11.1039
▁pm	-11.1039
▁softer	-11.1039
▁1,300	-11.1042
▁Now	-11.1042
▁TEs	-11.1042
▁delight	-11.1042
▁poly	-11.1044
▁Did	-11.1045
▁prepared	-11.1045
▁sophisticated	-11.1046
▁disc	-11.1047
▁editor	-11.1049
▁eleven	-11.1052
▁reeds	-11.1053
▁rice	-11.1054
▁alleg	-11.1055
▁courtes	-11.1056
▁worker	-11.1056
▁Natural	-11.1056
▁Thorn	-11.1057
▁shot	-11.1061
▁Wind	-11.1062
▁refined	-11.1062
egistration	-11.1062
▁info	-11.1063
▁Chin	-11.1065
▁Romanian	-11.1066
▁Zag	-11.1066
fledg	-11.1067
▁load	-11.1067
cute	-11.1068
▁Pro	-11.1071
▁Les	-11.1071
many	-11.1073
rsal	-11.1073
▁59	-11.1076
▁metrics	-11.1077
▁permanently	-11.1078
▁Geograph	-11.108
▁Caen	-11.108
ildlife	-11.108
▁Loc	-11.1083
▁Powell	-11.1083
▁continent	-11.1092
▁Dra	-11.1093
▁reigning	-11.1094
⟩.	-11.1094
▁helicopters	-11.1096
▁neutral	-11.1096
▁execut	-11.1098
▁Lun	-11.1099
▁Pap	-11.1104
▁cord	-11.1109
▁predict	-11.1109
05	-11.1112
▁abroad	-11.1112
▁Avars	-11.1114
▁peppers	-11.1114
▁opinions	-11.1114
▁Micronesians	-11.1114
▁friendly	-11.1116
TR	-11.1116
▁drinking	-11.1119
▁$	-11.1124
lying	-11.1126
stripped	-11.1128
sizing	-11.1128
BC	-11.1132
▁limbs	-11.1133
setting	-11.1135
mediated	-11.1138
tigate	-11.1144
ika	-11.1147
▁resolutions	-11.1149
▁Nidānas	-11.1151
restoration	-11.1152
antu	-11.1161
▁complicate	-11.1164
▁councillors	-11.117
,000	-11.1173
unease	-11.1173
EQ	-11.1177
▁Lay	-11.1179
▁Judges	-11.118
rad	-11.1184
▁backgrounds	-11.1189
eared	-11.1193
oh	-11.1196
▁fe	-11.1198
▁tropics	-11.1207
▁shelters	-11.1207
▁youth	-11.1209
▁Name	-11.1217
hair	-11.1219
ican	-11.1221
▁Christ	-11.1222
▁Twel	-11.1227
▁Fred	-11.123
▁conventional	-11.1237
tained	-11.1239
▁Journal	-11.1245
▁spirits	-11.1245
dding	-11.1249
▁Sav	-11.1253
eanut	-11.1255
bn	-11.1256
▁follows	-11.1277
oral	-11.1283
▁guitars	-11.1283
wake	-11.1295
▁Transf	-11.1296
▁profits	-11.1302
▁transmitters	-11.1304
▁closed	-11.1305
▁isolat	-11.1308
▁Romans	-11.1319
tar	-11.1319
▁peers	-11.1324
▁mutualist	-11.1335
▁destinations	-11.1359
yck	-11.136
tain	-11.1367
▁bene	-11.1372
▁WH	-11.1376
▁Fol	-11.1376
▁mo	-11.1376
▁Zh	-11.1384
▁En	-11.14
▁plurals	-11.1416
▁Adams	-11.1416
yet	-11.1421
nut	-11.1425
ur	-11.1437
▁coerc	-11.1448
▁Opu	-11.1451
2.7	-11.1467
▁1918.	-11.1471
.7	-11.1474
ath	-11.1494
ypically	-11.1501
▁courts	-11.1506
uns	-11.1508
▁2008.	-11.1513
▁impos	-11.1523
▁occasions	-11.1535
lands	-11.154
▁(14	-11.1544
▁Kath	-11.1572
di	-11.1573
cy	-11.1586
▁prefix	-11.1586
min	-11.159
gen	-11.16
▁Pli	-11.1601
▁Write	-11.1603
▁spaces	-11.1609
marks	-11.1614
▁2005-	-11.1615
▁accessed	-11.1641
▁seaf	-11.1643
aden	-11.1655
▁regulat	-11.1656
▁accessing	-11.1658
▁164	-11.1658
anti	-11.1658
▁Mat	-11.1659
▁combin	-11.1661
▁gre	-11.1667
▁ascent	-11.1677
▁organs	-11.168
18	-11.1681
2'	-11.1683
ighting	-11.1686
tating	-11.1686
aries	-11.1687
▁kinds	-11.1692
dication	-11.1705
▁boards	-11.1707
optic	-11.1724
▁electron	-11.1728
uring	-11.1733
▁1910	-11.1744
▁1836	-11.1748
▁locally	-11.1756
ourney	-11.1756
wing	-11.1758
śa	-11.1768
▁Im	-11.1774
tu	-11.1778
elimina	-11.179
▁ec	-11.1794
▁red	-11.1798
▁apart	-11.1802
▁anemone	-11.1803
▁Cur	-11.1803
▁Use	-11.1805
▁professor	-11.1807
▁adaptation	-11.1807
▁towns	-11.1808
▁cor	-11.1809
▁constituent	-11.1809
▁0.00	-11.1814
▁altitud	-11.1814
▁airfield	-11.1815
▁domesticat	-11.1818
▁instruction	-11.1818
cope	-11.1819
▁background	-11.1821
▁pyramid	-11.1821
▁muscle	-11.1822
▁empire	-11.1822
▁amendment	-11.1823
Champion	-11.1823
▁discover	-11.1823
▁figurine	-11.1824
▁technologie	-11.1827
▁migrant	-11.1827
▁tourist	-11.183
▁Pre	-11.1836
found	-11.1838
dustry	-11.184
ngle	-11.1843
▁settlements	-11.1846
pped	-11.1846
▁round	-11.1848
▁heretic	-11.1851
ld	-11.1853
▁Hai	-11.1859
▁Nano	-11.1859
▁Trans	-11.1879
mitas	-11.1885
digenous	-11.1889
▁Pas	-11.189
▁Boy	-11.1896
▁Compar	-11.19
vas	-11.1908
ready	-11.191
▁optic	-11.1912
ppon	-11.1912
electric	-11.1916
▁equ	-11.1917
bardo	-11.1917
wide	-11.1921
laced	-11.1921
waist	-11.1922
Vision	-11.1923
continent	-11.1923
adequate	-11.1924
τ	-11.1924
night	-11.1925
/ˈ	-11.1925
synchron	-11.1925
anxiety	-11.1925
youth	-11.1925
engineered	-11.1926
Hungary	-11.1926
Sanskrit	-11.1928
Conservative	-11.1928
Constitution	-11.1928
charge	-11.1929
sound	-11.1929
October	-11.1929
development	-11.1929
Guinea	-11.1929
coat	-11.1929
National	-11.193
written	-11.193
forward	-11.193
mainly	-11.193
perform	-11.193
2,300	-11.1931
sometime	-11.1931
▁interrupt	-11.1934
▁Engineer	-11.1934
grain	-11.1934
▁abandon	-11.1935
Op	-11.1935
through	-11.1937
nounce	-11.1939
▁radi	-11.194
Other	-11.1941
▁charg	-11.1945
▁liberal	-11.1945
▁prop	-11.1946
Germany	-11.1947
km	-11.1949
▁woods	-11.1949
os	-11.1953
▁Emi	-11.1957
▁Ben	-11.1958
reach	-11.1966
▁think	-11.1975
▁prepare	-11.1976
three	-11.198
▁51	-11.198
▁propa	-11.1981
▁inventor	-11.1988
▁frequenc	-11.1989
▁restore	-11.1989
refore	-11.199
como	-11.1991
▁Blu	-11.1993
85	-11.1993
▁suburb	-11.1995
▁shall	-11.1996
▁know	-11.1998
mony	-11.1999
anie	-11.1999
1.9	-11.1999
▁Crow	-11.2001
▁invest	-11.2001
ichuan	-11.2001
▁profess	-11.2001
▁depict	-11.2002
▁proto	-11.2002
ompact	-11.2004
omprehensive	-11.2005
▁arrange	-11.2006
▁prevalen	-11.2006
was	-11.2006
▁actress	-11.2006
▁alumin	-11.2006
▁references	-11.2007
upplement	-11.2008
▁juri	-11.2009
▁Cab	-11.2009
adian	-11.2009
octrine	-11.2009
▁Classic	-11.2009
▁depart	-11.2009
ieutenant	-11.201
limate	-11.201
onstruction	-11.201
▁pupp	-11.201
▁Belgi	-11.2011
▁safe	-11.2011
▁Techni	-11.2011
▁widow	-11.2012
eighborhood	-11.2012
▁immigra	-11.2012
ticipat	-11.2012
▁bodhi	-11.2012
▁Orchestra	-11.2012
▁hydroelectric	-11.2012
Personnel	-11.2012
chaff	-11.2012
ktri	-11.2012
obacteria	-11.2012
ratītyasamutpāda	-11.2012
segmental	-11.2012
æ	-11.2012
ɡɪ	-11.2012
▁69,197	-11.2012
▁ASPEC	-11.2012
▁Advance	-11.2012
▁Beethoven	-11.2012
▁Bhreagh	-11.2012
▁Blood	-11.2012
▁Bonaparte	-11.2012
▁CAMRA	-11.2012
▁Catalunya	-11.2012
▁Columbu	-11.2012
▁Cremona	-11.2012
▁Dauphine	-11.2012
▁DesRoches	-11.2012
▁Divine	-11.2012
▁Eastleigh	-11.2012
▁Estrella	-11.2012
▁Franja	-11.2012
▁Ganondorf	-11.2012
▁Geometric	-11.2012
▁Imperial	-11.2012
▁Kinnear	-11.2012
▁Kosovo	-11.2012
▁Majesty	-11.2012
▁Matterhorn	-11.2012
▁Mogadishu	-11.2012
▁Montesquieu	-11.2012
▁Myohoji	-11.2012
▁Orefice	-11.2012
▁Pagoda	-11.2012
▁Pinkerton	-11.2012
▁Polytechnique	-11.2012
▁Prosseda	-11.2012
▁PubCo	-11.2012
▁Punjabi	-11.2012
▁Sciarra	-11.2012
▁Titograd	-11.2012
▁Whishaw	-11.2012
▁Xinjiang	-11.2012
▁Zhuji	-11.2012
▁aboli	-11.2012
▁absolute	-11.2012
▁appellat	-11.2012
▁canadiennes	-11.2012
▁chamber	-11.2012
▁concrete	-11.2012
▁derogatory	-11.2012
▁disappeared	-11.2012
▁dynasty	-11.2012
▁flavor	-11.2012
▁fluctuation	-11.2012
▁frankincense	-11.2012
▁geometry	-11.2012
▁godwits	-11.2012
▁grandchildren	-11.2012
▁harmonies	-11.2012
▁innovator	-11.2012
▁loanwords	-11.2012
▁melody	-11.2012
▁millimetres	-11.2012
▁paradox	-11.2012
▁possibility	-11.2012
▁powder	-11.2012
▁premises	-11.2012
▁retinue	-11.2012
▁semantics	-11.2012
▁subgenre	-11.2012
▁ternary	-11.2012
▁tobacco	-11.2012
▁venustas	-11.2012
▁wolves	-11.2012
▁1353	-11.2012
▁Aiken	-11.2012
▁Resource	-11.2012
▁manipulat	-11.2012
▁mobiliz	-11.2012
▁shaft	-11.2012
andicrafts	-11.2012
▁Encompass	-11.2012
▁Heaven	-11.2012
▁Siege	-11.2012
▁Spices	-11.2012
▁Article	-11.2012
▁Return	-11.2012
▁smoke	-11.2012
▁Antae	-11.2012
▁Immunolog	-11.2012
▁(25	-11.2012
▁Fiennes	-11.2012
▁Week	-11.2012
▁(24	-11.2012
▁dendr	-11.2012
▁tenants	-11.2012
▁Contrasts	-11.2012
▁relativity	-11.2012
▁PhD	-11.2012
▁Luciano	-11.2012
▁Dickens	-11.2012
▁phosphate	-11.2012
▁Productions	-11.2012
▁Torrio	-11.2012
▁nowadays	-11.2012
▁singular	-11.2012
▁cardamom	-11.2012
▁Milan	-11.2012
▁Alfred	-11.2012
▁Malaysia	-11.2012
▁innovation	-11.2012
état	-11.2012
īla	-11.2012
▁basin	-11.2012
▁Yemen	-11.2012
▁monopol	-11.2012
▁Redbridge	-11.2012
▁Webcomics	-11.2012
▁Xiao	-11.2012
▁compulsory	-11.2012
▁oste	-11.2013
▁meals	-11.2013
▁disorder	-11.2013
▁2012-13	-11.2013
▁faint	-11.2013
▁Friday	-11.2013
▁Holland	-11.2013
▁geologist	-11.2013
▁journalism	-11.2013
▁chlorine	-11.2013
▁enact	-11.2013
▁loyalty	-11.2013
▁Majorcan	-11.2013
▁Channel	-11.2013
▁Czechoslovakia	-11.2013
▁(1954	-11.2013
▁enforcing	-11.2013
▁Catalogue	-11.2013
▁payments	-11.2013
▁Harris	-11.2013
▁noise	-11.2013
▁awaken	-11.2013
▁Mantar	-11.2013
▁height	-11.2013
▁(2010)	-11.2013
helm	-11.2013
▁707	-11.2013
▁Leonard	-11.2013
▁Aare	-11.2013
▁fell	-11.2013
xxxx	-11.2013
▁Unter	-11.2013
▁cues	-11.2013
umā	-11.2013
▁Hopper	-11.2013
▁1536	-11.2013
▁Gothia	-11.2013
vinsky	-11.2013
▁demoted	-11.2013
EE	-11.2013
kætəl	-11.2014
▁citizenship	-11.2014
▁browsing	-11.2014
▁meantone	-11.2014
▁mesh	-11.2014
▁familiaris	-11.2014
▁taste	-11.2014
▁kingdom	-11.2014
▁Tanner	-11.2014
▁stripper	-11.2014
omie	-11.2014
▁monophonic	-11.2014
▁vocalization	-11.2014
▁botan	-11.2014
▁Jets	-11.2014
▁unrest	-11.2014
▁VHF	-11.2014
spices	-11.2014
▁epic	-11.2015
ologist	-11.2015
rini	-11.2015
▁Punt	-11.2015
▁180	-11.2015
▁supersede	-11.2015
▁1849	-11.2015
▁Heart	-11.2015
▁Hung	-11.2015
▁Carey	-11.2015
▁Unicom	-11.2015
▁opportunities	-11.2015
▁Yama	-11.2015
sette	-11.2015
▁Oceania	-11.2015
▁900	-11.2016
▁creation	-11.2016
▁26%	-11.2016
▁unlock	-11.2016
▁tennis	-11.2016
▁tre	-11.2016
▁1935	-11.2016
ixture	-11.2016
▁Morocco	-11.2016
corn	-11.2017
▁FCC	-11.2017
▁1446	-11.2017
mbling	-11.2017
▁Kong	-11.2017
▁1919	-11.2017
▁suppleti	-11.2017
▁28,000	-11.2017
▁melodies	-11.2017
hesi	-11.2018
ongregation	-11.2018
▁occupy	-11.2018
▁Instead	-11.2018
AA	-11.2018
▁longitude	-11.2018
▁Interest	-11.2018
▁vesti	-11.2019
▁1792	-11.2019
▁secretary	-11.2019
▁14%	-11.2019
▁Peach	-11.2019
.1%)	-11.202
▁face	-11.2021
▁attributed	-11.2022
▁aceit	-11.2022
▁Schmid	-11.2022
mones	-11.2022
fb	-11.2022
▁quantity	-11.2023
▁taxes	-11.2023
▁20%	-11.2023
▁Kra	-11.2023
▁longevity	-11.2024
▁trial	-11.2024
–90	-11.2024
▁gap	-11.2024
zan	-11.2025
▁preparation	-11.2025
ilev	-11.2025
▁scan	-11.2025
pipe	-11.2025
▁latitude	-11.2026
▁matches	-11.2026
▁unknown	-11.2027
▁(2.5%)	-11.2027
udu	-11.2027
izer	-11.2027
▁sul	-11.2027
▁differentiat	-11.2027
▁Colve	-11.2027
▁$250,000.	-11.2028
▁145	-11.2029
▁Pit	-11.203
▁liberat	-11.203
▁layout	-11.2031
ilk	-11.2031
▁announce	-11.2031
▁testi	-11.2031
▁zen	-11.2031
▁Kur	-11.2032
▁mp	-11.2032
▁Mahan	-11.2032
▁applie	-11.2034
▁Strategy	-11.2034
▁Cri	-11.2034
nje	-11.2035
▁Pie	-11.2035
▁Elliott	-11.2036
▁Hindi	-11.2036
▁flags	-11.2036
▁fur	-11.2036
osar	-11.2038
▁Gia	-11.2039
▁62	-11.2039
uci	-11.2042
▁Dia	-11.2042
▁1873	-11.2043
▁verse	-11.2043
▁sculptures	-11.2043
▁favorites	-11.2044
▁mistake	-11.2045
▁metonym	-11.2045
▁Collins	-11.2045
▁brow	-11.2045
▁mount	-11.2045
▁loud	-11.205
▁countershading	-11.2051
▁Lle	-11.2052
erba	-11.2053
▁faction	-11.2054
▁oak	-11.2055
▁hir	-11.2057
▁sailing	-11.2057
▁Hel	-11.2058
▁Pr	-11.2058
▁align	-11.2059
shan	-11.2059
2%	-11.2059
▁Cop	-11.206
▁Creed	-11.206
▁Zer	-11.2061
▁counter	-11.2061
▁Bug	-11.2061
▁considerabl	-11.2062
▁TU	-11.2064
71	-11.2065
▁threatened	-11.2068
▁accredited	-11.2068
dka	-11.2069
▁"(	-11.2069
▁piotrkowski	-11.2069
urance	-11.207
▁Bein	-11.2072
▁internally	-11.2074
▁(40%	-11.2077
▁(1934)	-11.2077
▁fi	-11.2082
evangelical	-11.2083
San	-11.2084
▁Station	-11.2084
▁orchestrations	-11.2085
▁travellers	-11.2085
▁Cola	-11.2086
edited	-11.2087
▁Poles	-11.209
▁fault	-11.2091
▁defects	-11.2092
-18	-11.2092
bal	-11.2092
▁possess	-11.2095
5.1	-11.2096
▁Historically	-11.2097
▁τ	-11.2101
▁losses	-11.2102
▁32	-11.2102
▁bombing	-11.2103
quiet	-11.2104
▁solutions	-11.2105
▁alpin	-11.2106
▁resume	-11.211
▁Wom	-11.2111
lph	-11.2115
ray	-11.2115
ndice	-11.2116
▁tuned	-11.2118
▁pers	-11.2121
▁resolve	-11.2121
▁experts	-11.2125
▁nightclubs	-11.2126
▁earnings	-11.2126
stian	-11.2126
▁labial	-11.2129
ATV	-11.2134
▁touched	-11.2135
nimation	-11.2137
gg	-11.214
ad	-11.2143
▁parameters	-11.2146
▁roman	-11.2148
▁imper	-11.2149
▁consistent	-11.2155
Coloureds	-11.2159
▁servers	-11.216
▁acknowledg	-11.2163
▁Fift	-11.2164
▁downloads	-11.2167
▁subschools	-11.2167
▁det	-11.2168
hapter	-11.2169
▁converted	-11.2177
▁Shaiv	-11.2185
Solent	-11.2185
▁Faith	-11.2187
extinction	-11.2187
▁ringing	-11.2188
▁dimensions	-11.2188
▁negotiations	-11.2188
ered	-11.2189
▁aware	-11.2191
▁Serg	-11.2193
▁Warn	-11.2195
▁resid	-11.2201
ramework	-11.2209
yr	-11.2216
worthy	-11.2219
▁Stevens	-11.222
1.2	-11.2227
▁wards	-11.223
▁employer	-11.223
▁AP	-11.2232
..."	-11.2238
▁monuments	-11.225
▁eyes	-11.2251
aya	-11.2252
star	-11.2254
▁deva	-11.2254
ver	-11.2255
▁counterparts	-11.2271
▁£6.	-11.2272
▁Pars	-11.2277
splicing	-11.2282
▁intention	-11.2292
▁door	-11.2294
▁plain	-11.2302
▁Directors	-11.231
▁moto	-11.2311
▁Bass	-11.2311
▁donors	-11.2314
▁durations	-11.2315
pus	-11.2319
reco	-11.2321
▁44,	-11.2325
▁pets	-11.2336
then	-11.2336
▁toll	-11.2344
▁electrical	-11.2348
▁Papers	-11.2358
dustrial	-11.2362
6).	-11.2366
▁1905.	-11.2374
iscount	-11.2377
▁beach	-11.2377
▁repairs	-11.2379
ś	-11.2383
▁disqu	-11.2385
▁blocked	-11.239
▁supplements	-11.2398
▁allot	-11.2401
SRC	-11.2402
ather	-11.2421
▁demo	-11.2427
▁rings	-11.243
▁(6)	-11.2435
scope	-11.2438
nish	-11.2439
live	-11.2441
▁mort	-11.2447
rap	-11.2466
imi	-11.2477
▁1999.	-11.2492
if	-11.2494
▁Ali	-11.2499
▁lift	-11.2501
▁Elect	-11.2508
sa	-11.2515
▁Ham	-11.2515
▁Su	-11.2515
▁receiver	-11.2531
active	-11.2531
▁tenu	-11.2542
ID	-11.2542
ocation	-11.2548
bia	-11.2554
▁Bur	-11.2559
xi	-11.2565
▁offerings	-11.2572
lementary	-11.2572
driven	-11.2575
▁Friends	-11.2586
nt	-11.2595
▁1940	-11.2608
▁Donn	-11.2617
8.5	-11.2627
▁Pe	-11.2633
▁admi	-11.2633
states	-11.2641
-19	-11.2643
▁professionals	-11.2648
black	-11.2655
▁dictate	-11.2668
purpose	-11.2677
▁30-	-11.2679
▁ped	-11.2685
dy	-11.2689
▁republican	-11.269
▁(12	-11.2691
▁constructions	-11.2696
▁temperatures	-11.2699
▁100,000	-11.2718
▁expos	-11.2719
1).	-11.2729
oop	-11.273
od	-11.2735
▁Sr	-11.2741
be	-11.2754
▁va	-11.2761
▁Goe	-11.2761
▁demands	-11.2765
▁Gr	-11.2766
lled	-11.277
rous	-11.2774
▁influences	-11.2777
▁cit	-11.2779
▁tone	-11.2782
▁Mal	-11.2789
])	-11.2794
▁(1978)	-11.2798
▁designing	-11.2802
person	-11.281
▁constitut	-11.2817
▁electronics	-11.2829
rid	-11.2842
oid	-11.2845
▁(198	-11.2852
magnate	-11.2853
▁1972	-11.2855
▁physic	-11.2858
▁genealog	-11.2861
▁theology	-11.2862
▁exceptional	-11.2872
▁Railway	-11.2879
▁Las	-11.2879
▁housed	-11.288
▁Song	-11.288
▁Mak	-11.2887
▁Auto	-11.2914
▁Protocol	-11.2914
▁7.	-11.2916
▁describ	-11.2917
▁deriv	-11.2923
▁sur	-11.2924
▁routine	-11.2924
asy	-11.2927
46	-11.2928
▁compar	-11.293
▁dimension	-11.2931
▁councillor	-11.2932
▁ob	-11.2932
▁subgroup	-11.2933
▁disease	-11.2935
▁negotiation	-11.2935
▁Shan	-11.2936
▁fibre	-11.2936
▁descendant	-11.2936
▁exhibition	-11.2937
▁refu	-11.2943
▁guild	-11.2943
▁Mob	-11.2945
▁homeland	-11.2946
▁compound	-11.2949
▁Jer	-11.2951
▁Moor	-11.2952
una	-11.2956
▁symbolic	-11.2958
▁designer	-11.2964
rano	-11.2972
ccasionally	-11.2975
▁Mo	-11.2982
125	-11.2988
▁Def	-11.2999
▁developer	-11.3005
▁solv	-11.3006
▁archiv	-11.3007
Lucky	-11.3011
OAS	-11.3011
Cave	-11.3011
half	-11.3011
▁witness	-11.3012
bon	-11.3013
numbered	-11.3015
▁announc	-11.3015
arth	-11.3019
car	-11.302
dried	-11.3023
58	-11.3027
Formation	-11.3028
Acad	-11.3028
verb	-11.3029
visible	-11.3031
▁Emperors	-11.3031
impress	-11.3032
profit	-11.3033
shore	-11.3034
covered	-11.3035
info	-11.3036
neutral	-11.3036
fault	-11.3036
Powell	-11.3036
identify	-11.3037
imaging	-11.3037
AIDS	-11.3038
BDS	-11.3038
ɔ	-11.3039
Star	-11.3039
object	-11.3039
white	-11.3039
sheet	-11.3039
title	-11.3039
multi	-11.3039
cultural	-11.3039
Northwestern	-11.3039
Northern	-11.304
700	-11.304
associated	-11.304
szlachta	-11.304
Central	-11.304
people	-11.304
Western	-11.304
▁valid	-11.304
Idol	-11.304
highest	-11.3041
operated	-11.3043
political	-11.3043
hosted	-11.3045
▁Gal	-11.3045
▁reveal	-11.3045
▁restrict	-11.3046
scann	-11.3053
▁setting	-11.3053
▁confer	-11.3053
ranking	-11.3055
month	-11.3061
play	-11.3064
▁degrade	-11.3065
͡	-11.3075
tter	-11.3077
▁ca	-11.3077
nning	-11.3078
06	-11.308
▁tap	-11.3082
anne	-11.3082
erial	-11.3082
her	-11.3086
120	-11.3087
▁tabl	-11.3087
▁suspen	-11.3087
$1	-11.3088
▁declare	-11.3089
▁inclin	-11.3092
▁scen	-11.3094
▁effig	-11.3098
inence	-11.3098
onia	-11.3098
▁bind	-11.3099
▁Strateg	-11.31
nav	-11.31
▁Anthon	-11.31
▁Librar	-11.3101
▁Andorra	-11.3104
▁Macedonia	-11.3105
▁Armenia	-11.3108
▁Mongolia	-11.3108
ounds	-11.3113
74	-11.3115
pent	-11.3117
▁melodi	-11.3117
▁territori	-11.3118
▁discriminat	-11.3119
▁Vancou	-11.3119
housands	-11.3119
▁duplicat	-11.3119
▁namely	-11.3119
▁custo	-11.312
elief	-11.312
ɪ	-11.312
▁Legend	-11.3121
810	-11.3121
rivilege	-11.3121
onomical	-11.3122
▁chemicals	-11.3122
erformance	-11.3122
velle	-11.3122
isaster	-11.3122
▁Josh	-11.3123
rthodox	-11.3123
▁Anatol	-11.3123
▁Servi	-11.3123
ço	-11.3123
▁Pharao	-11.3123
▁false	-11.3123
▁terabytes	-11.3123
$61.	-11.3123
1,093	-11.3123
Korsakov	-11.3123
neurotransmitter	-11.3123
thousanders	-11.3123
▁Antiques	-11.3123
▁Authorities	-11.3123
▁Birkin	-11.3123
▁Boundaries	-11.3123
▁Caribbean	-11.3123
▁Cartooning	-11.3123
▁Chelsea	-11.3123
▁Cornwall	-11.3123
▁Cossacks	-11.3123
▁Courtenay	-11.3123
▁Cromwell	-11.3123
▁Cyprus	-11.3123
▁Cārvāka	-11.3123
▁DVD	-11.3123
▁Danjaq	-11.3123
▁Darnell	-11.3123
▁Daurentius	-11.3123
▁DeGeneres	-11.3123
▁Depression	-11.3123
▁Dixon	-11.3123
▁Ecuador	-11.3123
▁Eventually	-11.3123
▁Exercise	-11.3123
▁Famine	-11.3123
▁Fantasy	-11.3123
▁Features	-11.3123
▁Gemini	-11.3123
▁Gibraltar	-11.3123
▁Gulf	-11.3123
▁Gyaltsen	-11.3123
▁Hawthorn	-11.3123
▁Hernandez	-11.3123
▁Hobbes	-11.3123
▁Mafia	-11.3123
▁Moneypenny	-11.3123
▁Muscat	-11.3123
▁Naraka	-11.3123
▁Ohio	-11.3123
▁Rajpath	-11.3123
▁Rattlers	-11.3123
▁Realschule	-11.3123
▁Rondanini	-11.3123
▁Selassie	-11.3123
▁Simmons	-11.3123
▁Solomon	-11.3123
▁Stickball	-11.3123
▁Tarsā	-11.3123
▁Tavern	-11.3123
▁Vajrayana	-11.3123
▁Vazquez	-11.3123
▁Wikipedia	-11.3123
▁Woolf	-11.3123
▁Youlou	-11.3123
▁accomplish	-11.3123
▁accumulat	-11.3123
▁activewear	-11.3123
▁adja	-11.3123
▁alumnus	-11.3123
▁appreciate	-11.3123
▁beehive	-11.3123
▁caricature	-11.3123
▁clientele	-11.3123
▁coincide	-11.3123
▁colleagues	-11.3123
▁conglomerate	-11.3123
▁cucumbers	-11.3123
▁dominance	-11.3123
▁economist	-11.3123
▁engraving	-11.3123
▁flexible	-11.3123
▁hiking	-11.3123
▁hydroxide	-11.3123
▁implications	-11.3123
▁laboratories	-11.3123
▁lecture	-11.3123
▁monasteries	-11.3123
▁morpheme	-11.3123
▁nondelegation	-11.3123
▁orchestral	-11.3123
▁perspective	-11.3123
▁petitions	-11.3123
▁pistachio	-11.3123
▁proximity	-11.3123
▁removing	-11.3123
▁reputation	-11.3123
▁ringleader	-11.3123
▁slovo	-11.3123
▁swamps	-11.3123
▁swimming	-11.3123
▁thirty	-11.3123
▁triangular	-11.3123
▁tribute	-11.3123
▁yellow	-11.3123
▁Bryant	-11.3123
▁Dvo	-11.3123
▁Feuerbach	-11.3123
▁arbiters	-11.3123
▁easier	-11.3123
▁interference	-11.3123
▁mineral	-11.3123
▁nutrients	-11.3123
▁package	-11.3123
▁persecut	-11.3123
▁specimens	-11.3123
▁Children	-11.3123
▁Christoph	-11.3123
▁Giants	-11.3123
▁Ruthenia	-11.3123
▁anthropologist	-11.3123
▁cemeter	-11.3123
▁depriv	-11.3123
▁Software	-11.3123
40,000,000	-11.3123
Awakening	-11.3123
lesias	-11.3123
▁Murray	-11.3123
▁Natali	-11.3123
▁Quiz	-11.3123
▁Wilmsen	-11.3123
▁Female	-11.3123
▁surpass	-11.3123
▁Dante	-11.3123
▁chestnut	-11.3123
▁Jordanes	-11.3123
▁Technicolor	-11.3123
▁adverse	-11.3123
▁cleric	-11.3123
▁walnut	-11.3123
▁circulation	-11.3123
▁Studdard	-11.3123
▁Cantonese	-11.3123
conn	-11.3123
▁prosecutors	-11.3124
orillas	-11.3124
▁Inequality	-11.3124
▁Wombles	-11.3124
▁entity	-11.3124
▁tentacles	-11.3124
▁Locke	-11.3124
▁outcome	-11.3124
▁completion	-11.3124
▁Juno	-11.3124
▁Khalifah	-11.3124
▁Slovakia	-11.3124
▁Gokey	-11.3124
▁golf	-11.3124
▁commitment	-11.3124
▁2,700	-11.3124
▁atheist	-11.3124
▁£4.	-11.3124
▁transposons	-11.3124
▁wild	-11.3124
▁1790	-11.3124
▁horror	-11.3124
▁clue	-11.3124
▁2017	-11.3124
▁Kidok	-11.3124
symmetr	-11.3124
tlef	-11.3124
▁ornament	-11.3124
itaire	-11.3124
▁Philby	-11.3124
▁1939	-11.3124
▁parade	-11.3124
▁hub	-11.3124
▁imprisonment	-11.3124
▁Paleolithic	-11.3124
▁Constant	-11.3124
▁Foley	-11.3124
▁Sigman	-11.3124
▁Smithson	-11.3124
▁altar	-11.3124
▁injuries	-11.3124
▁pact	-11.3124
▁mature	-11.3124
▁farmers	-11.3125
▁sunset	-11.3125
▁tearing	-11.3125
▁scavengers	-11.3125
▁familiar	-11.3125
▁entrepreneur	-11.3125
▁Foxley	-11.3125
▁Scythia	-11.3125
violent	-11.3125
▁enrich	-11.3125
▁offspring	-11.3126
▁compatible	-11.3126
▁viruses	-11.3126
▁Atticus	-11.3126
▁Buck	-11.3126
▁1674	-11.3126
▁Desai	-11.3126
▁Disc	-11.3126
▁overworld	-11.3126
▁woodcut	-11.3126
▁75%	-11.3127
▁1985	-11.3127
▁outlaw	-11.3127
ata	-11.3127
▁Copper	-11.3127
▁Berger	-11.3127
▁d͡t	-11.3127
▁1850	-11.3127
▁lawyer	-11.3127
▁parlo	-11.3127
maine	-11.3128
▁meditative	-11.3128
bau	-11.3128
▁silicon	-11.3128
.:20	-11.3128
▁1847	-11.3129
▁1842	-11.3129
▁Protestantism	-11.3129
▁liberation	-11.3129
calm	-11.313
▁fig	-11.313
▁roadway	-11.313
▁subver	-11.313
▁Fish	-11.313
literate	-11.313
▁fair	-11.313
▁installation	-11.313
▁Bha	-11.313
▁1673	-11.3131
maz	-11.3131
▁pict	-11.3132
▁somebody	-11.3132
▁16%	-11.3132
▁Gracin	-11.3132
▁Jean	-11.3133
▁175	-11.3133
▁specialty	-11.3134
▁sq	-11.3134
▁Reformation	-11.3134
▁Rem	-11.3134
▁Gesamtschulen	-11.3134
▁instrumentation	-11.3134
▁Mong	-11.3134
blica	-11.3135
▁depiction	-11.3135
▁adapter	-11.3135
▁acceptable	-11.3135
▁Oliva	-11.3135
▁Just	-11.3136
CV	-11.3136
▁ingredients	-11.3136
▁snapshots	-11.3136
▁invitations	-11.3137
▁attainment	-11.3138
▁Dick	-11.3138
▁Insight	-11.3138
▁Attic	-11.3139
▁shops	-11.3139
▁contractors	-11.3139
▁Bab	-11.314
▁stabiliz	-11.3141
Moors	-11.3142
▁Andorran	-11.3142
▁vert	-11.3143
▁Fly	-11.3144
▁Romantic	-11.3145
▁obligate	-11.3145
▁nationalism	-11.3145
▁amplifie	-11.3148
▁upgraded	-11.3149
▁intelligibility	-11.315
▁voluntar	-11.315
aptop	-11.3151
▁fanc	-11.3152
▁grass	-11.3152
▁Shore	-11.3153
tine	-11.3153
▁didn	-11.3154
▁bud	-11.3154
808	-11.3154
ions	-11.3156
▁Nile	-11.3156
▁Magist	-11.3157
▁educat	-11.3159
▁ADSL	-11.316
▁echo	-11.316
▁philosophers	-11.3161
▁Wings	-11.3162
▁differentiate	-11.3166
▁Set	-11.3167
imism	-11.3167
▁guiding	-11.3167
leb	-11.317
▁translate	-11.317
▁Aspiration	-11.317
▁NYPD	-11.317
hery	-11.3172
▁Plant	-11.3172
▁transmitt	-11.3173
posthum	-11.3176
▁bond	-11.3178
▁Word	-11.3178
▁Enlightenment	-11.3181
▁Nint	-11.3182
▁Toward	-11.3185
▁1991.	-11.3185
▁20,000	-11.3186
▁mourning	-11.3186
geria	-11.3189
▁mm	-11.3192
alls	-11.3192
▁leaked	-11.3194
620	-11.3196
▁confusing	-11.3196
▁fame	-11.3196
▁highway	-11.3197
rep	-11.3198
ringers	-11.3198
▁AF	-11.3198
▁Sara	-11.3199
▁warning	-11.32
▁weapons	-11.3204
▁apost	-11.3205
ooms	-11.3206
▁Lion	-11.3206
that	-11.3207
▁Para	-11.3208
dia	-11.3209
▁Parkway	-11.3212
▁treasure	-11.3212
▁imaging	-11.3212
▁tense	-11.3214
.6	-11.3216
sion	-11.3222
▁2,300	-11.3223
ennis	-11.3223
▁Labs	-11.3223
▁adequate	-11.3223
▁Eve	-11.3224
▁financially	-11.3224
cz	-11.3226
▁Mon	-11.3228
▁Valenciana	-11.323
▁traders	-11.3232
▁successors	-11.3232
nne	-11.3241
rah	-11.3245
racks	-11.3246
OR	-11.3246
▁unifi	-11.3247
gyu	-11.3251
▁roll	-11.3254
ooking	-11.3256
▁scann	-11.3258
▁attitudes	-11.3265
herb	-11.3273
▁politicians	-11.3274
▁puzzles	-11.3274
▁Log	-11.3274
▁Awards	-11.3276
▁checks	-11.328
Don	-11.3284
▁followers	-11.3285
▁conferr	-11.3289
▁1000	-11.3291
70	-11.3296
▁ports	-11.3296
▁Hand	-11.3297
▁1901.	-11.3301
birds	-11.3305
▁Nanos	-11.3309
▁coating	-11.3312
▁bilater	-11.3314
satisf	-11.3316
▁intri	-11.3318
▁Rod	-11.3319
aring	-11.332
▁subgroups	-11.3323
behaved	-11.3327
6%	-11.3328
▁Generalit	-11.3329
wift	-11.3342
▁instructions	-11.3344
▁award	-11.3346
▁identifie	-11.3348
▁bid	-11.335
▁credits	-11.3355
▁exchanged	-11.336
▁doors	-11.3361
nzh	-11.3363
▁equally	-11.3365
rkh	-11.3372
▁ac	-11.3373
▁emergenc	-11.3386
▁spe	-11.3387
▁Provinces	-11.3391
▁22.	-11.3398
▁1972.	-11.3399
▁combine	-11.3399
▁Iber	-11.3413
sɑ	-11.3415
▁scal	-11.3418
▁guides	-11.3418
▁providers	-11.3427
▁bru	-11.343
6)	-11.3432
286	-11.3434
rting	-11.3439
▁tee	-11.3447
position	-11.346
▁rack	-11.3463
▁Medic	-11.3473
anda	-11.3476
▁doctrines	-11.3486
▁shap	-11.3513
▁presenting	-11.3524
okes	-11.3531
▁surfaces	-11.3534
sman	-11.3538
▁outlin	-11.3541
▁(110	-11.3557
ral	-11.3557
ssa	-11.3565
▁faste	-11.3567
du	-11.3572
printing	-11.3572
▁sizes	-11.3574
esen	-11.3574
▁zones	-11.3582
▁schemes	-11.3582
▁negotiat	-11.3586
▁warn	-11.36
aine	-11.3602
eddling	-11.3605
▁plac	-11.3606
▁Nex	-11.3641
▁yard	-11.3645
▁fare	-11.3651
▁unif	-11.3651
▁bodhisattvas	-11.3654
3,28	-11.3663
▁exc	-11.3665
amon	-11.3674
ern	-11.3677
▁chains	-11.3678
▁190	-11.3692
iddle	-11.3692
creasingly	-11.3719
tra	-11.3723
.8%	-11.3725
▁chil	-11.3741
atti	-11.3752
▁clo	-11.3755
ceived	-11.3758
▁denot	-11.3802
▁voices	-11.3803
sley	-11.3806
ments	-11.3808
tified	-11.3809
king	-11.3816
▁jun	-11.3819
3.5	-11.3824
▁Mari	-11.3825
▁rag	-11.3825
▁flu	-11.3831
gage	-11.3835
▁rhythm	-11.3836
▁Fi	-11.3853
▁ti	-11.3858
eo	-11.386
▁1965.	-11.387
$	-11.3891
logist	-11.3909
▁tri	-11.3916
▁generations	-11.3924
gene	-11.3926
▁trip	-11.3969
▁sail	-11.3977
ych	-11.3982
▁matters	-11.3998
▁refus	-11.4007
▁2003)	-11.4008
istically	-11.4013
▁erro	-11.4015
▁directions	-11.4025
–16	-11.4025
jo	-11.403
eight	-11.4033
▁Whites	-11.4037
enor	-11.4048
mor	-11.4048
len	-11.4052
hen	-11.4057
01	-11.4063
▁$3.	-11.4065
▁Py	-11.4066
í	-11.4068
▁(19	-11.4087
▁Loi	-11.4098
▁ch	-11.4106
▁swee	-11.4108
unt	-11.4111
dynacj	-11.4117
▁Jen	-11.4127
Mr	-11.4128
flat	-11.4134
vis	-11.4142
▁Sak	-11.4144
▁measur	-11.415
raction	-11.4151
broad	-11.4151
itting	-11.4157
▁Rup	-11.4162
▁Upanishad	-11.4164
▁Element	-11.4165
omic	-11.4166
rang	-11.4169
all	-11.4172
▁Guard	-11.4173
▁famine	-11.4174
▁Prospect	-11.4174
▁Sustainab	-11.4176
▁landmark	-11.4177
▁mechanism	-11.4178
▁franchise	-11.4178
Nou	-11.4179
racial	-11.418
▁camp	-11.418
▁subschool	-11.4182
▁download	-11.4182
▁Nidāna	-11.4183
▁ennoblement	-11.4184
▁mammal	-11.4184
▁affricate	-11.4185
▁surname	-11.4186
▁precept	-11.4188
▁historian	-11.4189
▁compact	-11.4194
▁wall	-11.4196
vi	-11.4202
verage	-11.4203
59	-11.4203
▁monk	-11.4219
▁contribution	-11.4223
▁Will	-11.4227
rypt	-11.4227
▁sample	-11.4228
omantic	-11.4229
vailable	-11.4233
▁resolv	-11.4237
lternative	-11.4241
▁designation	-11.4245
everend	-11.4249
practice	-11.4251
▁Forest	-11.4258
▁purchas	-11.4259
▁girl	-11.4259
▁republics	-11.4261
▁releas	-11.4261
▁climates	-11.4264
German	-11.4266
▁Atten	-11.4268
meter	-11.4272
▁kings	-11.4274
▁commentar	-11.4276
▁diverg	-11.4276
▁treasur	-11.4277
junction	-11.4281
builder	-11.4282
right	-11.4283
gu	-11.4284
Judges	-11.4286
CPU	-11.4287
▁suppress	-11.4287
Level	-11.4288
1997	-11.4289
together	-11.4289
bank	-11.4289
adjust	-11.4289
modern	-11.4289
▁walk	-11.4289
finalists	-11.4289
Slavs	-11.4289
living	-11.429
Year	-11.429
language	-11.429
who	-11.429
often	-11.4291
pelle	-11.4292
▁adopt	-11.4292
when	-11.4292
public	-11.4293
around	-11.4293
sports	-11.4294
▁recon	-11.4294
affiliat	-11.4294
gathering	-11.4295
▁leak	-11.4295
One	-11.4296
All	-11.4296
▁talk	-11.4297
collective	-11.4297
polit	-11.4299
delayed	-11.43
▁wet	-11.4302
ition	-11.4302
▁populariz	-11.4306
amps	-11.4307
hard	-11.4308
no	-11.4308
tem	-11.4308
She	-11.431
▁earn	-11.4316
43,	-11.4318
▁confus	-11.4321
▁polic	-11.4321
▁relatives	-11.4323
Unite	-11.4326
It	-11.4326
▁sections	-11.4328
mon	-11.433
aprico	-11.4332
▁ru	-11.4334
constitut	-11.4335
efinition	-11.4336
▁fa	-11.4338
▁Traditional	-11.4338
▁landscape	-11.4339
City	-11.4339
▁specialize	-11.4343
Can	-11.4345
▁250	-11.4349
▁philolog	-11.4349
endo	-11.4354
▁collaborat	-11.4358
eria	-11.4359
65)	-11.436
▁Kha	-11.4361
ologic	-11.4362
▁Steve	-11.4362
▁emiss	-11.4365
▁bright	-11.4367
▁Control	-11.4367
▁cab	-11.4368
allow	-11.4368
▁bann	-11.4369
matize	-11.4369
erritories	-11.4369
▁Floren	-11.4371
olonaise	-11.4371
heav	-11.4371
ossibl	-11.4371
▁turb	-11.4372
egislati	-11.4372
56.4	-11.4372
900)	-11.4372
▁contempora	-11.4373
aplo	-11.4373
▁Czechoslovak	-11.4373
nches	-11.4373
adows	-11.4373
▁(1917–19	-11.4373
▁fellow	-11.4373
▁40.8088	-11.4373
73.9540	-11.4373
Brabant	-11.4373
EFA	-11.4373
HVAC	-11.4373
ISDN	-11.4373
Vlaanderen	-11.4373
enstein	-11.4373
erospace	-11.4373
interoperability	-11.4373
lmec	-11.4373
–2013	-11.4373
▁1961	-11.4373
▁568,903	-11.4373
▁Activities	-11.4373
▁Administrator	-11.4373
▁Archuleta	-11.4373
▁Believin	-11.4373
▁Byelaws	-11.4373
▁Contestant	-11.4373
▁DeGarmo	-11.4373
▁DioGuardi	-11.4373
▁Doolittle	-11.4373
▁Dravidian	-11.4373
▁Epona	-11.4373
▁Eurasia	-11.4373
▁Fawakherji	-11.4373
▁Fuzimiao	-11.4373
▁Glacier	-11.4373
▁Gyatso	-11.4373
▁Habsburg	-11.4373
▁Kaplan	-11.4373
▁Kuruma	-11.4373
▁Lloyd	-11.4373
▁Maltese	-11.4373
▁Marzili	-11.4373
▁Mauretania	-11.4373
▁Myspace	-11.4373
▁Nauru	-11.4373
▁Pontiff	-11.4373
▁Quebec	-11.4373
▁Regatta	-11.4373
▁Respons	-11.4373
▁SPECTRE	-11.4373
▁Spectrum	-11.4373
▁Spori	-11.4373
▁Succession	-11.4373
▁Swabian	-11.4373
▁Toscano	-11.4373
▁Universität	-11.4373
▁Vidyaranya	-11.4373
▁Wikiproject	-11.4373
▁Wireless	-11.4373
▁Wozniak	-11.4373
▁XLVIII	-11.4373
▁administrator	-11.4373
▁ambassadors	-11.4373
▁assassination	-11.4373
▁automobile	-11.4373
▁bundling	-11.4373
▁conjugation	-11.4373
▁conquest	-11.4373
▁equilibrium	-11.4373
▁impossible	-11.4373
▁inorganic	-11.4373
▁lenited	-11.4373
▁macawis	-11.4373
▁medicinal	-11.4373
▁neutering	-11.4373
▁nihilo	-11.4373
▁omnipresent	-11.4373
▁oppress	-11.4373
▁overstepping	-11.4373
▁paperfoam	-11.4373
▁participant	-11.4373
▁philanthropi	-11.4373
▁pregnan	-11.4373
▁relocate	-11.4373
▁snacks	-11.4373
▁submarine	-11.4373
▁telethon	-11.4373
▁treason	-11.4373
03–04	-11.4373
▁1525	-11.4373
▁Bartholomew	-11.4373
▁Peabody	-11.4373
▁Trajan	-11.4373
▁abilities	-11.4373
▁chocolat	-11.4373
▁diverted	-11.4373
▁illegitimate	-11.4373
▁margin	-11.4373
▁photosynthesis	-11.4373
Mandarin	-11.4373
▁Guarini	-11.4373
▁sanitation	-11.4373
compress	-11.4373
ntourage	-11.4373
rizon	-11.4373
▁Literature	-11.4373
▁Madeleine	-11.4373
▁Plot	-11.4373
▁warrants	-11.4373
▁Aeolic	-11.4373
▁manifest	-11.4373
▁Heresy	-11.4373
▁Lynche	-11.4373
▁floor	-11.4373
▁ghost	-11.4373
▁Technikons	-11.4373
▁DSL	-11.4373
▁Thunder	-11.4373
voy	-11.4373
▁Qiantang	-11.4373
▁Voice	-11.4373
▁(15,	-11.4373
▁compass	-11.4373
▁Debat	-11.4373
▁Stanley	-11.4373
▁cabinet	-11.4373
▁gallium	-11.4373
▁idio	-11.4373
▁halal	-11.4374
▁Godiva	-11.4374
▁Butera	-11.4374
▁Entr	-11.4374
▁Rarity	-11.4374
▁Vaud	-11.4374
▁tongue	-11.4374
▁Proud	-11.4374
▁Subsequent	-11.4374
▁Bolama	-11.4374
▁Kurz	-11.4374
▁Lucia	-11.4374
▁scrapped	-11.4374
▁Relay	-11.4374
nicom	-11.4374
▁knighthood	-11.4374
▁artisan	-11.4374
▁Alpes	-11.4374
▁Taiwan	-11.4374
▁rites	-11.4374
▁opposite	-11.4374
▁tradesmen	-11.4374
▁bribes	-11.4374
▁educators	-11.4374
▁Full	-11.4374
▁widowhood	-11.4374
HF	-11.4374
▁embroi	-11.4374
▁vol	-11.4374
▁Planning	-11.4374
ćw	-11.4374
▁strict	-11.4374
▁Anatolia	-11.4374
▁hyperte	-11.4374
▁webcomics	-11.4374
ristan	-11.4374
uja	-11.4374
▁Materialism	-11.4374
▁Goals	-11.4374
▁fused	-11.4374
▁intonation	-11.4374
▁Boeing	-11.4374
▁theorists	-11.4374
▁spark	-11.4374
dhan	-11.4374
▁creedal	-11.4374
▁void	-11.4375
▁villa	-11.4375
▁Cedar	-11.4375
▁Destiny	-11.4375
▁Tyne	-11.4375
▁glands	-11.4375
–1912	-11.4375
▁demoli	-11.4375
▁disparag	-11.4375
▁alloy	-11.4375
▁1664	-11.4375
▁danger	-11.4375
▁2.4	-11.4375
▁Thailand	-11.4375
–195	-11.4375
▁10.2%	-11.4375
▁glaciation	-11.4375
▁fungi	-11.4375
armament	-11.4375
▁Death	-11.4375
▁2011-12	-11.4375
▁1.3%	-11.4375
▁180,000	-11.4375
▁effectiveness	-11.4376
▁biology	-11.4376
▁Journalism	-11.4376
▁lieutenant	-11.4376
attery	-11.4376
▁1957	-11.4376
▁remit	-11.4376
▁circumnavigat	-11.4376
▁allophonic	-11.4376
02–1	-11.4376
avian	-11.4377
velt	-11.4377
zek	-11.4377
▁32%	-11.4378
▁NBS	-11.4378
▁marshes	-11.4378
▁wrist	-11.4378
▁Confederation	-11.4378
▁controversies	-11.4378
▁545	-11.4378
▁Max	-11.4378
▁alb	-11.4379
▁columnist	-11.4379
mouth	-11.4379
▁veto	-11.4379
berg	-11.4379
▁alert	-11.4379
▁1245	-11.438
▁Worldwide	-11.438
▁hook	-11.438
▁stories	-11.438
▁stimulate	-11.438
▁Hence	-11.438
▁actresses	-11.4381
▁Praj	-11.4381
▁pun	-11.4381
▁stance	-11.4381
▁Bert	-11.4382
0-50	-11.4382
▁Tam	-11.4382
▁ethical	-11.4382
▁textu	-11.4382
jian	-11.4382
▁Bauer	-11.4382
▁Kul	-11.4382
▁coinage	-11.4383
▁Rob	-11.4383
▁Pati	-11.4384
rink	-11.4384
▁Moon	-11.4384
▁mph	-11.4385
▁Dartmo	-11.4385
▁inheritance	-11.4385
▁flyway	-11.4385
5–	-11.4385
▁560	-11.4386
Band	-11.4386
▁spontaneously	-11.4386
▁dollars	-11.4387
▁54	-11.4387
▁camera	-11.4387
▁IR	-11.4387
▁blow	-11.4387
▁perfection	-11.4387
▁Doric	-11.4388
▁membership	-11.4388
▁distortion	-11.4388
▁AAC	-11.4388
▁corr	-11.4388
unar	-11.439
verseas	-11.439
▁oxidized	-11.439
CO	-11.439
▁146	-11.439
▁quick	-11.4391
▁buses	-11.4392
▁proponent	-11.4393
▁Rather	-11.4394
▁1715).	-11.4394
af	-11.4395
▁Read	-11.4395
etary	-11.4395
iful	-11.4396
▁Ross	-11.4396
▁Pale	-11.4396
▁revolutions	-11.4396
wig	-11.4397
nsic	-11.4397
omin	-11.4397
▁contrastive	-11.4399
▁socialist	-11.4399
▁nu	-11.44
▁Hf	-11.4402
ozen	-11.4402
ZrO	-11.4402
▁Senate	-11.4402
▁firmware	-11.4403
▁freshwater	-11.4403
▁Poe	-11.4403
▁VISP	-11.4404
▁skiing	-11.4404
▁documentation	-11.4405
▁clay	-11.4405
▁Chal	-11.4405
▁Om	-11.4406
▁Thai	-11.4406
▁cup	-11.4406
▁cm	-11.4407
orona	-11.4409
▁handic	-11.441
eridge	-11.441
▁yachting	-11.4412
set	-11.4413
▁Officer	-11.4415
▁molecules	-11.4415
▁patois	-11.4415
▁SDTV	-11.4415
▁poles	-11.4416
▁burn	-11.4418
axi	-11.4418
▁RA	-11.442
▁accusative	-11.4422
▁anything	-11.4422
▁recorders	-11.4423
▁opu	-11.4424
▁Nap	-11.4425
▁Anne	-11.4426
▁Boulogne	-11.4427
▁Orient	-11.4427
1.6%	-11.4427
▁pores	-11.4428
▁Forum	-11.4429
▁"...	-11.443
thirds	-11.4431
CS	-11.4431
▁Cal	-11.4431
/30	-11.4435
▁12.	-11.4436
RMI	-11.4437
▁Theatre	-11.444
▁pellets	-11.444
▁Wolfe	-11.4441
▁Situ	-11.4444
assic	-11.4444
▁Liberat	-11.4444
▁connot	-11.4444
▁44	-11.4446
▁eighth	-11.4448
nders	-11.445
▁Chocolate	-11.4451
visions	-11.4452
tis	-11.4452
propri	-11.4453
wil	-11.4458
▁precedent	-11.4458
▁sch	-11.4466
▁pulses	-11.4466
ən	-11.4466
tutes	-11.4467
▁Fall	-11.447
poetry	-11.4471
▁bones	-11.4473
▁citing	-11.4473
▁notability	-11.4476
▁ratifi	-11.4477
away	-11.4483
leman	-11.4483
▁comment	-11.4486
*)	-11.4486
▁appointment	-11.4487
▁Vision	-11.4487
▁farms	-11.4488
rianism	-11.449
ak	-11.4491
yna	-11.4491
▁contraction	-11.4491
▁athletics	-11.4492
▁obstruents	-11.4492
▁Comics	-11.4496
▁considerations	-11.4496
▁referen	-11.4496
▁Bic	-11.4497
▁179	-11.4505
PC	-11.4506
stine	-11.4509
hift	-11.4511
▁contributor	-11.4519
▁gardens	-11.4519
▁ponds	-11.4519
▁measurements	-11.452
nO	-11.4522
▁corn	-11.4524
▁landing	-11.4527
ej	-11.4529
ushing	-11.4532
▁rain	-11.4537
▁Bodhisattvas	-11.454
▁countryside	-11.454
lastic	-11.4541
▁(720	-11.4544
▁tubes	-11.4546
▁lichens	-11.4546
▁explor	-11.4548
▁fr	-11.4549
▁technolog	-11.4549
▁rein	-11.455
ritten	-11.4558
ilton	-11.4561
▁bik	-11.4562
TiO	-11.4562
▁gar	-11.4562
ji	-11.4564
▁properly	-11.4565
racials	-11.4572
▁franchises	-11.4572
undo	-11.4575
aint	-11.4576
sop	-11.4582
▁willing	-11.4585
oids	-11.459
▁10.7	-11.4591
▁dai	-11.4591
▁Wage	-11.4591
▁Isa	-11.4596
5,000	-11.4597
ranni	-11.4605
romise	-11.4621
▁Aragones	-11.4623
▁Jav	-11.4629
je	-11.463
▁Van	-11.4631
▁transported	-11.464
▁supplies	-11.4649
▁Presbyterians	-11.4653
▁sponsors	-11.4655
1982	-11.4656
▁publishers	-11.4661
▁cass	-11.4661
-4	-11.4662
▁composers	-11.4669
,222	-11.467
rated	-11.4671
640	-11.4673
penny	-11.4678
▁broadcasters	-11.4682
istic	-11.4684
▁dust	-11.4686
▁optics	-11.4687
6,	-11.4688
ounded	-11.4699
▁wearing	-11.4704
▁2010).	-11.4706
▁pulping	-11.4709
schl	-11.4715
▁rarit	-11.4718
.5%	-11.4721
▁disprove	-11.4723
▁1910.	-11.4726
bot	-11.4727
▁constellations	-11.4734
▁Chat	-11.4735
clave	-11.4735
urisu	-11.474
▁archives	-11.4742
▁offe	-11.4744
dou	-11.4757
▁microbi	-11.476
▁prints	-11.4767
▁acknowledge	-11.477
▁Wic	-11.4803
6,000	-11.4804
▁ash	-11.4808
▁dim	-11.4808
hi	-11.4811
ferred	-11.4814
hop	-11.4819
mmy	-11.482
35	-11.4825
▁builder	-11.4827
▁Philippines	-11.4833
hone	-11.4833
▁releases	-11.4901
▁dictat	-11.4911
▁establishments	-11.4927
dum	-11.4936
ron	-11.4938
overeignty	-11.494
▁ma	-11.4947
oto	-11.4954
▁balloons	-11.4954
220	-11.4959
▁Cli	-11.4965
▁Vic	-11.4972
nance	-11.4978
▁cathedrals	-11.4982
▁boats	-11.4985
body	-11.4987
key	-11.4999
▁Va	-11.5003
▁requests	-11.5003
▁Si	-11.5022
▁legally	-11.5025
▁creates	-11.503
Cap	-11.5035
stic	-11.5038
shed	-11.5044
atre	-11.5047
▁log	-11.5048
lapp	-11.5048
▁compete	-11.5059
▁Arc	-11.507
▁serial	-11.5072
▁liner	-11.5072
elo	-11.508
▁(32	-11.5087
▁Seas	-11.5088
21,	-11.509
amic	-11.5101
▁decisions	-11.5122
400	-11.5126
▁Zuc	-11.514
▁ty	-11.5145
acknowledged	-11.5157
▁pens	-11.5157
▁rational	-11.5168
ittle	-11.5174
shita	-11.5177
▁Sovereign	-11.5182
▁judg	-11.5184
▁exceptions	-11.5185
CAF	-11.5185
gloss	-11.5199
folded	-11.5205
▁lun	-11.5221
fected	-11.5222
100	-11.5224
▁geologic	-11.5226
▁rid	-11.5227
▁strips	-11.5228
▁sheets	-11.5236
▁po	-11.5245
hand	-11.5247
cut	-11.527
▁Cre	-11.5285
▁readi	-11.5286
▁tens	-11.5288
adorned	-11.5309
57	-11.5312
▁polytechnics	-11.5313
spel	-11.5316
34	-11.5321
▁Ax	-11.5325
AD	-11.5337
▁Lands	-11.5344
▁Gothland	-11.5352
▁grants	-11.5363
▁Wen	-11.5364
▁Dio	-11.5373
aspirated	-11.5374
▁plains	-11.5394
▁identifi	-11.5395
13	-11.5398
▁Ital	-11.5407
▁viewer	-11.5408
held	-11.5422
▁Harm	-11.5422
▁1953	-11.5423
my	-11.5427
icked	-11.5438
▁handl	-11.5444
▁Ya	-11.5451
nz	-11.5451
erman	-11.5457
▁Hutt	-11.5465
▁Rai	-11.5485
ird	-11.5486
▁outline	-11.5488
▁assistan	-11.5499
▁repl	-11.5501
▁Cool	-11.5504
▁42	-11.5513
fore	-11.5514
qualify	-11.5514
orous	-11.5514
olic	-11.5516
.2%	-11.5521
52	-11.5531
▁Patt	-11.5532
ndo	-11.5536
row	-11.5541
llied	-11.5551
▁extinct	-11.5552
porting	-11.5568
anish	-11.5571
▁expire	-11.5581
▁universe	-11.5582
etter	-11.5587
lates	-11.5589
ties	-11.5591
ini	-11.5592
▁tavern	-11.5593
▁LED	-11.5596
▁lease	-11.5599
▁closure	-11.5599
▁greenhouse	-11.5601
▁operon	-11.5602
▁Sala	-11.5606
▁edge	-11.5607
▁lichen	-11.5607
▁tube	-11.5607
0–19	-11.5607
▁puzzle	-11.5608
▁politician	-11.5608
▁parameter	-11.5609
▁limb	-11.561
▁Dialect	-11.5612
▁fixture	-11.5613
▁cluster	-11.5613
▁Amb	-11.5614
▁flock	-11.5614
▁pupil	-11.5616
pu	-11.5616
▁ALU	-11.5617
▁check	-11.5617
▁predator	-11.562
▁customer	-11.562
gher	-11.5623
.9%)	-11.5624
▁Lang	-11.5625
arl	-11.5625
▁unequ	-11.563
▁requirement	-11.5633
FC	-11.5637
▁labels	-11.5642
▁attraction	-11.5642
▁climb	-11.5642
▁rep	-11.5651
▁knight	-11.5655
▁canine	-11.5657
▁div	-11.5658
coustic	-11.5674
▁Mau	-11.5693
▁declin	-11.5694
Mart	-11.5697
roll	-11.5699
Korea	-11.5701
combat	-11.5702
America	-11.5702
▁vulnerab	-11.5703
lz	-11.5703
pert	-11.5704
lead	-11.5705
General	-11.5705
ambi	-11.5706
screen	-11.5709
LE	-11.5711
load	-11.5713
Mau	-11.5713
Chocolate	-11.5713
precedent	-11.5713
girl	-11.5714
operation	-11.5715
ignorance	-11.5715
Cola	-11.5715
Croatian	-11.5716
mRNA	-11.5716
IHDI	-11.5716
▁filter	-11.5716
▁deci	-11.5716
identified	-11.5717
efficient	-11.5717
istant	-11.5717
dukkha	-11.5717
Spectre	-11.5718
chief	-11.5718
civil	-11.5718
budget	-11.5718
technical	-11.5718
Dutch	-11.5718
President	-11.5718
remain	-11.5718
university	-11.5719
Chinese	-11.5719
architecture	-11.5719
worn	-11.5719
CPC	-11.572
alpin	-11.572
▁server	-11.572
market	-11.572
▁assault	-11.572
▁mourn	-11.572
-6	-11.5721
central	-11.5722
▁accredit	-11.5723
sharing	-11.5723
how	-11.5724
essential	-11.5725
item	-11.5727
▁20-	-11.5728
cool	-11.573
available	-11.573
sex	-11.5732
▁holder	-11.5733
personal	-11.5734
▁traffick	-11.5739
,800	-11.5742
Al	-11.5742
wn	-11.5743
▁isp	-11.5749
ov	-11.5754
▁vicer	-11.5758
ä	-11.5759
▁invalid	-11.5765
five	-11.5766
xperimental	-11.5766
▁Colleg	-11.5766
▁exclude	-11.5767
▁eliminate	-11.5767
sister	-11.5768
▁organize	-11.5769
▁plat	-11.5769
▁Senat	-11.577
▁ultimate	-11.5773
▁scr	-11.5776
Financ	-11.5778
▁identit	-11.5779
electro	-11.5779
▁indirect	-11.5781
▁Factor	-11.5781
▁shut	-11.5782
▁qualit	-11.5783
▁servic	-11.5792
lett	-11.5793
▁Explor	-11.5794
▁Belarus	-11.5794
▁habit	-11.5795
▁assume	-11.5796
▁threaten	-11.5796
▁lu	-11.5797
▁peace	-11.5797
▁drop	-11.5798
owntown	-11.5799
▁relevan	-11.5799
ifferent	-11.5799
▁compatib	-11.5799
▁approx	-11.58
arbor	-11.58
rovincial	-11.58
hallenge	-11.58
16)	-11.58
▁Federati	-11.58
illenni	-11.58
imagin	-11.58
▁Off	-11.5801
roblem	-11.5801
▁chlor	-11.5801
▁loyal	-11.5801
naissance	-11.5801
onata	-11.5802
′	-11.5802
scepti	-11.5802
▁autobiography	-11.5802
Azam	-11.5802
CANSOFCOM	-11.5802
GSDP	-11.5802
NHPRC	-11.5802
Packard	-11.5802
abbreviation	-11.5802
commodification	-11.5802
génos	-11.5802
itarian	-11.5802
lstein	-11.5802
narcokleptocracy	-11.5802
omorphism	-11.5802
ophysics	-11.5802
sociolinguistics	-11.5802
▁1,021	-11.5802
▁1572	-11.5802
▁Abjuration	-11.5802
▁Belfast	-11.5802
▁Bertelsmann	-11.5802
▁Blofeld	-11.5802
▁Borgata	-11.5802
▁Bosaso	-11.5802
▁CRDA	-11.5802
▁CableCARD	-11.5802
▁Catelaner	-11.5802
▁Catellain	-11.5802
▁Century	-11.5802
▁Chanakyapuri	-11.5802
▁Chinook	-11.5802
▁Conkling	-11.5802
▁Conquest	-11.5802
▁Current	-11.5802
▁Dandumont	-11.5802
▁Devils	-11.5802
▁FLAC	-11.5802
▁Fyodorov	-11.5802
▁Gaalkacyo	-11.5802
▁Galkayo	-11.5802
▁Grenzstein	-11.5802
▁Guildhall	-11.5802
▁Harbour	-11.5802
▁Headquarters	-11.5802
▁Hussain	-11.5802
▁Jaipur	-11.5802
▁Kediye	-11.5802
▁Lafayette	-11.5802
▁Laidlines	-11.5802
▁Matunović	-11.5802
▁Methodism	-11.5802
▁NGO	-11.5802
▁PLAAF	-11.5802
▁Partnership	-11.5802
▁Prussia	-11.5802
▁Pyrenees	-11.5802
▁QAM	-11.5802
▁Reuters	-11.5802
▁Romanesque	-11.5802
▁Russell	-11.5802
▁Safari	-11.5802
▁Sloper	-11.5802
▁Spahr	-11.5802
▁Stalybridge	-11.5802
▁Theravadin	-11.5802
▁Triomphe	-11.5802
▁Vlachs	-11.5802
▁Waitangi	-11.5802
▁Wikimedia	-11.5802
▁Winchester	-11.5802
▁Wizard	-11.5802
▁Xylophaga	-11.5802
▁Yeezus	-11.5802
▁altarpiece	-11.5802
▁antiquity	-11.5802
▁appliances	-11.5802
▁asceticism	-11.5802
▁borrow	-11.5802
▁calabash	-11.5802
▁cancellation	-11.5802
▁congress	-11.5802
▁conservation	-11.5802
▁contender	-11.5802
▁dessinées	-11.5802
▁dhyana	-11.5802
▁dismissed	-11.5802
▁diálektos	-11.5802
▁ectosymbiont	-11.5802
▁genotype	-11.5802
▁hemicellulose	-11.5802
▁horticulture	-11.5802
▁incontinence	-11.5802
▁insulin	-11.5802
▁koofiyad	-11.5802
▁liturgical	-11.5802
▁lodging	-11.5802
▁novum	-11.5802
▁politicized	-11.5802
▁receptor	-11.5802
▁recreational	-11.5802
▁resurgence	-11.5802
▁rudiment	-11.5802
▁samādhi	-11.5802
▁slahta	-11.5802
▁slaughter	-11.5802
▁stagnation	-11.5802
▁stolen	-11.5802
▁surgery	-11.5802
▁trichomoniasis	-11.5802
▁umbrella	-11.5802
▁verdict	-11.5802
▁volunteer	-11.5802
▁1656	-11.5802
▁Daysimeter	-11.5802
▁Floor	-11.5802
▁Hainan	-11.5802
▁Korshel	-11.5802
▁Partisans	-11.5802
▁Pharmacy	-11.5802
▁Phonetic	-11.5802
▁Pitchfork	-11.5802
▁crisis	-11.5802
▁cyclic	-11.5802
▁determinatives	-11.5802
▁sphere	-11.5802
▁taalo	-11.5802
▁timestamps	-11.5802
Gain	-11.5802
legitim	-11.5802
▁73°57′	-11.5802
▁Bordeaux	-11.5802
▁Chelomey	-11.5802
▁Cixi	-11.5802
▁Dodds	-11.5802
▁Focus	-11.5802
▁McCl	-11.5802
▁Miami	-11.5802
▁Summer	-11.5802
▁franc	-11.5802
▁sacrific	-11.5802
▁subunits	-11.5802
▁Moines	-11.5802
▁bariis	-11.5802
▁melon	-11.5802
▁Invasion	-11.5802
▁embryo	-11.5802
▁menace	-11.5802
▁twins	-11.5802
▁wiec	-11.5802
ūtra	-11.5802
▁Bishop	-11.5802
▁Murcia	-11.5802
▁Prague	-11.5802
▁scandal	-11.5802
Qatar	-11.5802
▁Ionic	-11.5802
▁opulence	-11.5802
▁Kunqu	-11.5802
▁Macau	-11.5802
▁Malaria	-11.5802
▁metabolism	-11.5802
▁Newspaper	-11.5802
▁pati	-11.5802
▁utiliz	-11.5802
▁Booster	-11.5802
▁magnify	-11.5802
▁plateau	-11.5802
▁session	-11.5802
▁blur	-11.5802
▁grape	-11.5802
▁megacity	-11.5802
▁Short	-11.5802
▁circulated	-11.5802
▁Terrace	-11.5802
▁Cathedral	-11.5802
▁Koell	-11.5802
▁keyboard	-11.5802
riarch	-11.5802
▁operators	-11.5802
▁coronal	-11.5802
▁Cotler	-11.5802
▁peacekeeping	-11.5802
▁Galicia	-11.5802
▁Lantz	-11.5802
▁axon	-11.5802
▁transistors	-11.5802
▁Bennett	-11.5802
▁cancel	-11.5802
itzer	-11.5802
▁Scion	-11.5802
▁Patimokkha	-11.5802
Tungi	-11.5802
▁silver	-11.5802
▁unicameral	-11.5802
▁+290	-11.5802
▁Mathi	-11.5802
▁lawsuit	-11.5802
▁Cabinet	-11.5802
▁lords	-11.5802
▁Firebirds	-11.5802
▁Richardson	-11.5802
▁particle	-11.5803
▁Malta	-11.5803
▁prescriptions	-11.5803
▁safehouse	-11.5803
▁airlifting	-11.5803
▁coolant	-11.5803
▁Brunel	-11.5803
▁Origina	-11.5803
▁Doug	-11.5803
▁Team	-11.5803
▁Zeeland	-11.5803
▁40°4	-11.5803
▁Tainter	-11.5803
▁sodium	-11.5803
elegu	-11.5803
▁bloc	-11.5803
▁cache	-11.5803
▁buddhism	-11.5803
▁metro	-11.5803
▁vocation	-11.5803
▁mutiny	-11.5803
▁quest	-11.5803
▁35.6	-11.5803
▁ceremonies	-11.5803
▁venerat	-11.5803
▁refinement	-11.5803
2000	-11.5804
JH	-11.5804
▁clich	-11.5804
▁manuscript	-11.5804
iglio	-11.5804
▁cooperative	-11.5804
▁marine	-11.5804
▁agglutinative	-11.5804
ectiv	-11.5804
▁Swed	-11.5804
▁Whitehead	-11.5804
blaze	-11.5804
▁exploitation	-11.5804
▁pliable	-11.5804
Cub	-11.5804
▁metaph	-11.5804
▁cardinalate	-11.5804
LP	-11.5804
▁Finest	-11.5804
▁unfavorable	-11.5804
FE	-11.5804
▁jet	-11.5804
▁transpos	-11.5804
▁Bau	-11.5805
▁boom	-11.5805
▁signatory	-11.5805
▁moist	-11.5805
▁Endowment	-11.5805
▁Watchman	-11.5805
▁Ark	-11.5805
▁analyzer	-11.5805
▁minorities	-11.5805
▁Coren	-11.5806
▁Pier	-11.5806
▁salar	-11.5806
▁cooking	-11.5806
tlan	-11.5806
▁thick	-11.5806
▁1550	-11.5806
VO	-11.5806
IOC	-11.5806
▁discoveries	-11.5806
▁35,000	-11.5806
cotti	-11.5807
▁marry	-11.5807
▁Mahal	-11.5807
hamb	-11.5808
▁abundant	-11.5808
▁Austro	-11.5808
▁Zuse	-11.5808
▁Roll	-11.5808
hala	-11.5808
hero	-11.5808
▁Coun	-11.5808
▁partition	-11.5808
▁confusion	-11.5809
▁So	-11.5809
▁gateway	-11.5809
orell	-11.5809
▁Elder	-11.5809
lingua	-11.5809
▁scarce	-11.581
Celtic	-11.581
▁grand	-11.581
▁resin	-11.581
▁Amis	-11.581
▁Mesa	-11.581
ijin	-11.581
▁Nothing	-11.5811
▁Ustream	-11.5811
▁Prefecture	-11.5811
▁wartime	-11.5812
▁sailor	-11.5813
▁similarities	-11.5813
▁wildlife	-11.5813
▁12.2	-11.5813
▁Pul	-11.5813
▁waterfront	-11.5814
▁Heard	-11.5814
▁Gab	-11.5814
▁Lux	-11.5814
kwo	-11.5814
▁300	-11.5814
21)	-11.5814
▁airline	-11.5815
▁happy	-11.5815
▁injury	-11.5815
▁poorest	-11.5815
IC	-11.5816
cot	-11.5817
▁1903	-11.5817
–1	-11.5818
▁Nort	-11.5818
▁rally	-11.5818
▁notori	-11.5819
▁squadrons	-11.5819
▁opponents	-11.5819
▁folder	-11.5819
raja	-11.582
▁Mercy	-11.5821
▁overheating	-11.5821
▁HT	-11.5822
▁Bir	-11.5822
vital	-11.5823
▁genit	-11.5823
▁50,000	-11.5824
▁disable	-11.5824
▁Bake	-11.5825
ogy	-11.5826
▁Jia	-11.5827
.:1	-11.5827
▁Livoniae	-11.583
enome	-11.583
▁Ke	-11.5831
▁slow	-11.5832
▁allowance	-11.5832
▁partitive	-11.5832
fus	-11.5833
▁Essen	-11.5833
▁Beac	-11.5834
▁dwelling	-11.5834
onophonic	-11.5835
▁Boo	-11.5837
vacu	-11.5837
although	-11.5837
osion	-11.5839
▁ambient	-11.584
▁Bodhisattva	-11.5841
▁symphony	-11.5841
lend	-11.5842
▁VI	-11.5842
▁Conn	-11.5843
▁Doc	-11.5844
▁Kun	-11.5846
ub	-11.5846
▁ban	-11.5847
▁invertebrates	-11.5849
▁landscaped	-11.5849
▁correction	-11.5852
itch	-11.5854
▁topical	-11.5856
▁53.	-11.5857
▁ensur	-11.5857
▁buyer	-11.5857
introduced	-11.5858
anum	-11.586
oso	-11.5861
SCA	-11.5862
▁astronomy	-11.5864
▁grou	-11.5864
▁Reserve	-11.5865
▁96.1	-11.5865
▁13.	-11.5866
▁GSA	-11.5867
▁1659	-11.5867
▁Ng	-11.5867
ealth	-11.5868
flamma	-11.5869
▁lite	-11.587
adiy	-11.587
▁consolidated	-11.5871
osaic	-11.5871
▁detective	-11.5873
▁Hem	-11.5873
▁OE	-11.5873
▁Professions	-11.5874
erson	-11.5875
▁$6.	-11.5875
▁ju	-11.5876
▁watermelons	-11.5879
▁synapses	-11.5879
▁scraps	-11.588
ncy	-11.588
mes	-11.5882
▁(/ˈ	-11.5883
▁summ	-11.5884
▁urina	-11.5886
79)	-11.5887
▁thin	-11.5887
▁reformer	-11.5889
pears	-11.5889
▁Nich	-11.589
tract	-11.589
attered	-11.5891
cil	-11.5891
▁soup	-11.5891
▁Islamist	-11.5892
▁broaden	-11.5892
Lok	-11.5893
▁Ado	-11.5898
▁Sure	-11.5902
▁electora	-11.5902
▁intr	-11.5908
▁journals	-11.591
▁Marianas	-11.5911
Saxons	-11.5911
▁grows	-11.5914
Mer	-11.5918
10	-11.5921
▁degrad	-11.5922
▁shore	-11.5923
▁dominat	-11.5924
▁ki	-11.5925
mbard	-11.5927
cia	-11.5927
▁token	-11.5929
fulness	-11.5929
▁Monte	-11.5929
▁sides	-11.5933
▁monarchy	-11.5935
▁categorize	-11.5939
▁patrols	-11.5941
▁Glass	-11.5942
▁Yorkers	-11.5942
elations	-11.5942
▁crim	-11.5946
ho	-11.5946
▁Run	-11.5952
▁Latino	-11.5952
lama	-11.5959
KK	-11.5961
▁1990.	-11.5963
▁programmed	-11.5963
acre	-11.5964
▁reversed	-11.5966
▁nin	-11.597
▁Gil	-11.5974
▁Av	-11.5976
▁Brazzaville	-11.5977
yone	-11.5983
▁usual	-11.5984
▁committee	-11.599
lock	-11.5993
ttest	-11.5993
historiographers	-11.5997
OS	-11.5999
sur	-11.6003
▁edges	-11.6003
▁reconstruct	-11.6003
▁attractions	-11.6004
declassification	-11.6006
▁expires	-11.6006
▁symboliz	-11.6006
▁str	-11.6008
▁tune	-11.6012
▁headland	-11.6012
nary	-11.6014
We	-11.6016
▁reso	-11.6034
▁mechanisms	-11.6034
▁Remonstrant	-11.6035
▁designations	-11.6041
My	-11.6041
▁Lin	-11.6043
lie	-11.6048
ulu	-11.6062
▁relie	-11.6065
▁Bored	-11.6065
▁Mode	-11.6067
demar	-11.6068
5)	-11.6068
ule	-11.607
▁abut	-11.6071
▁chron	-11.6073
▁numbering	-11.6076
eckle	-11.6076
jing	-11.6078
▁exercis	-11.6082
ht	-11.6083
▁Establish	-11.6084
Fly	-11.6086
601	-11.609
▁terminated	-11.6093
▁contents	-11.6097
▁Popula	-11.6104
azi	-11.6107
save	-11.6108
▁expens	-11.6113
weet	-11.6114
▁(44	-11.6117
▁ready	-11.612
sters	-11.612
akya	-11.6122
▁decod	-11.6138
▁pit	-11.6141
bell	-11.6146
▁trades	-11.6154
▁violate	-11.6164
▁colors	-11.6168
▁Need	-11.6169
▁ge	-11.6171
▁Dry	-11.6172
CL	-11.618
ymore	-11.6182
icente	-11.6182
▁reporter	-11.6193
▁Male	-11.6198
ington	-11.6203
▁Franki	-11.6205
istening	-11.6207
ave	-11.6214
2.2	-11.6214
▁Gile	-11.6218
tide	-11.6224
▁Sina	-11.6224
▁Es	-11.6228
errone	-11.6233
▁avoided	-11.6256
–11	-11.6272
80	-11.6273
erc	-11.6275
▁sick	-11.6279
▁conifers	-11.6287
▁154	-11.629
7).	-11.629
▁Blacks	-11.6296
▁onto	-11.6296
rade	-11.6297
rium	-11.63
▁sil	-11.6315
▁associations	-11.6319
▁adorn	-11.6321
▁cards	-11.6321
liable	-11.6336
▁Sem	-11.634
rot	-11.6345
ef	-11.6347
▁rebu	-11.6348
modernism	-11.635
▁Creati	-11.6352
iance	-11.6356
times	-11.6359
AC	-11.6377
rno	-11.6383
qu	-11.6384
genesis	-11.6394
lay	-11.6399
▁Ars	-11.6401
▁analyse	-11.6403
▁caves	-11.6416
▁combinations	-11.6417
▁plann	-11.6423
itek	-11.6427
ross	-11.6435
▁separated	-11.6438
▁buddha	-11.6441
▁viewing	-11.6441
pick	-11.645
▁interfaces	-11.645
▁singers	-11.645
▁hope	-11.6457
des	-11.6462
▁26,	-11.6465
▁challenge	-11.6467
▁Pass	-11.6504
elicit	-11.6505
onize	-11.6513
▁interact	-11.652
▁commemorat	-11.6525
▁presid	-11.6526
harmed	-11.6539
▁mis	-11.6542
▁theft	-11.6555
alogue	-11.6556
pman	-11.6559
amba	-11.657
cts	-11.659
▁accounting	-11.6591
scents	-11.6602
ertain	-11.6605
ection	-11.6621
nor	-11.6638
▁1934.	-11.6668
▁impressi	-11.6674
uit	-11.6674
ynn	-11.668
▁(2,	-11.668
▁presidents	-11.6683
.0%	-11.6693
▁jellabiya	-11.6699
iz	-11.6706
▁Centers	-11.6707
▁Found	-11.6714
Do	-11.6714
yards	-11.6717
▁impe	-11.6725
āna	-11.6725
▁pea	-11.6729
ripped	-11.6737
uffe	-11.6741
▁establishe	-11.6742
▁Pop	-11.6756
▁CDs	-11.6765
▁struggl	-11.6782
ope	-11.6789
▁rega	-11.6793
▁Tra	-11.6794
▁(100	-11.68
▁Gay	-11.6804
Rud	-11.6813
eville	-11.6816
formation	-11.683
Europeans	-11.683
IE	-11.6837
lining	-11.6847
▁Australians	-11.6851
▁49	-11.6852
kra	-11.6863
they	-11.6863
olls	-11.6867
▁ni	-11.6882
hk	-11.6883
op	-11.6886
scaping	-11.6907
▁71	-11.6921
▁suite	-11.6926
▁reader	-11.6927
▁populat	-11.693
Gill	-11.6931
endra	-11.6934
▁dense	-11.6945
▁registers	-11.6948
ania	-11.6948
▁cables	-11.6949
eh	-11.6949
though	-11.6955
vise	-11.6956
▁sustainab	-11.6959
ava	-11.6972
8,	-11.6976
▁dependenc	-11.698
▁Kum	-11.7004
Estonian	-11.7011
▁oli	-11.7026
illi	-11.7027
▁manage	-11.7035
▁Char	-11.7038
iers	-11.7039
anks	-11.704
▁digit	-11.7041
SA	-11.7045
▁agreements	-11.7053
He	-11.7055
▁Statu	-11.7067
▁suppl	-11.7068
eering	-11.7087
▁nomad	-11.7091
logical	-11.7093
▁don	-11.7099
UI	-11.7101
rove	-11.7108
kpa	-11.7109
▁aus	-11.7117
▁Buc	-11.7121
finite	-11.7122
▁modulati	-11.7124
2007	-11.713
▁hol	-11.7131
▁Nam	-11.7141
CC	-11.7142
▁Dor	-11.7151
mination	-11.7163
boat	-11.7165
African	-11.7176
▁£12	-11.7177
▁uneas	-11.718
ums	-11.7184
rigue	-11.7185
▁bel	-11.7188
rack	-11.7192
)—	-11.7194
▁1901	-11.7208
hronic	-11.7208
▁requir	-11.7219
▁sect	-11.722
▁complement	-11.7222
gi	-11.7223
third	-11.7235
▁expresse	-11.7236
cher	-11.7238
▁affi	-11.724
4,	-11.7246
▁dispute	-11.7247
▁duplication	-11.7259
arine	-11.7264
atche	-11.7265
▁violation	-11.7265
▁Point	-11.7265
▁marina	-11.7265
▁Order	-11.7266
▁animat	-11.7268
east	-11.7268
▁genomic	-11.7269
▁veneer	-11.7269
▁width	-11.7269
▁Caroline	-11.7269
efense	-11.727
ou	-11.727
▁weekend	-11.7271
nated	-11.7272
ighter	-11.7273
▁garden	-11.7274
▁gastropub	-11.7275
▁attitude	-11.7275
▁accuse	-11.7275
▁nightclub	-11.7276
Coloured	-11.7276
▁weekday	-11.7277
▁opinion	-11.7277
▁pepper	-11.7277
ith	-11.7278
▁slate	-11.7278
▁deposit	-11.7278
▁wedding	-11.7279
▁expert	-11.7279
▁Avar	-11.728
▁Electronic	-11.7281
▁Netherland	-11.7282
▁Architect	-11.7283
▁alternation	-11.7286
▁Operation	-11.7288
▁measurement	-11.7288
▁possession	-11.7289
▁allele	-11.7289
1.4	-11.7289
nsion	-11.729
▁Micronesian	-11.7291
▁festival	-11.7292
will	-11.7293
cident	-11.7293
▁township	-11.7294
▁pond	-11.7294
frastructure	-11.7294
Conf	-11.7302
▁Judge	-11.7304
dollar	-11.7305
dden	-11.7306
▁reproduc	-11.7316
▁overtake	-11.7325
▁neighbors	-11.7326
▁advoca	-11.7328
ppointment	-11.7329
RC	-11.7334
nimals	-11.7336
▁episod	-11.7344
general	-11.7347
dered	-11.7349
render	-11.7351
▁pursu	-11.7353
anted	-11.7354
▁lake	-11.7355
▁revers	-11.7357
schlacht	-11.7358
pack	-11.7358
▁disadvantage	-11.7359
nate	-11.7359
MRI	-11.7369
organis	-11.737
scrap	-11.7371
fung	-11.7374
area	-11.7374
ledged	-11.7376
weigh	-11.7376
▁Hi	-11.7376
Liberat	-11.7377
Super	-11.7377
Võro	-11.7378
disadvantage	-11.7378
Ev	-11.7378
$75	-11.7379
omb	-11.738
Enlightenment	-11.738
20,000	-11.7381
▁130	-11.7381
Natural	-11.7381
infection	-11.7382
merged	-11.7382
Phil	-11.7382
fidelity	-11.7383
Isa	-11.7383
terminate	-11.7383
proteins	-11.7383
Box	-11.7383
▁calc	-11.7383
hereditary	-11.7383
pinyin	-11.7383
exposure	-11.7384
Chapel	-11.7384
architect	-11.7384
NATO	-11.7384
Walter	-11.7384
6.8	-11.7384
Madison	-11.7384
degree	-11.7384
folk	-11.7384
carbon	-11.7384
church	-11.7384
plants	-11.7384
roots	-11.7385
giving	-11.7385
hundred	-11.7385
frequent	-11.7385
inches	-11.7385
Universal	-11.7385
incorporated	-11.7385
translation	-11.7385
Suprem	-11.7385
nucle	-11.7385
North	-11.7385
flag	-11.7385
You	-11.7385
Government	-11.7385
Party	-11.7385
People	-11.7385
Sony	-11.7385
study	-11.7385
Run	-11.7385
basic	-11.7385
private	-11.7386
Congo	-11.7387
China	-11.7387
▁bu	-11.7387
wave	-11.7387
150	-11.7388
See	-11.7389
fix	-11.7389
northwest	-11.7389
▁earning	-11.7389
HP	-11.7389
south	-11.739
36)	-11.7391
emed	-11.7391
▁assign	-11.7391
ario	-11.7393
Hil	-11.7394
▁Typical	-11.7394
Swi	-11.7394
▁Award	-11.7394
▁ear	-11.7396
eth	-11.7396
MP	-11.7397
both	-11.7399
order	-11.7399
nature	-11.7399
fully	-11.7399
▁Southeast	-11.7401
▁Words	-11.7403
▁sentence	-11.7403
forcing	-11.7403
ware	-11.7404
Fan	-11.7404
ever	-11.7405
already	-11.7405
War	-11.7406
▁gett	-11.741
their	-11.7411
geo	-11.7411
▁Institut	-11.7412
▁fre	-11.7413
▁vulgar	-11.7417
tiny	-11.7418
▁48	-11.7422
hur	-11.7422
agas	-11.7424
▁176	-11.7426
math	-11.7428
▁Franc	-11.7429
along	-11.7429
urn	-11.743
onesian	-11.743
teen	-11.7431
best	-11.7432
enewal	-11.7432
olithic	-11.7433
▁Kel	-11.7433
▁enforce	-11.7434
▁financ	-11.7436
▁Livonia	-11.7436
▁kil	-11.7436
▁interchangeabl	-11.7436
▁Danub	-11.7437
▁Tru	-11.744
arist	-11.7441
Un	-11.7441
capa	-11.7442
ffs	-11.7442
erto	-11.7445
▁Scou	-11.7445
ails	-11.7445
▁impre	-11.7446
Man	-11.7446
els	-11.7447
Ka	-11.7447
▁municipalit	-11.7448
zer	-11.7449
rov	-11.745
▁Gesamtschule	-11.7452
▁consolidat	-11.7452
▁Sardinia	-11.7452
owe	-11.7453
▁spin	-11.7454
ragon	-11.7454
▁auditor	-11.7454
DMC	-11.7455
pec	-11.7456
▁NC	-11.7456
▁neuro	-11.7457
▁Publi	-11.7457
▁ethic	-11.7457
▁Justi	-11.7457
▁Marx	-11.7458
▁Famil	-11.7458
▁Austr	-11.7459
onservative	-11.7461
▁Võr	-11.7461
▁Morocc	-11.7461
▁aut	-11.7461
▁Wil	-11.7461
azy	-11.7462
▁abundan	-11.7462
▁weak	-11.7462
ttom	-11.7462
elap	-11.7462
▁tomato	-11.7463
▁controversi	-11.7463
▁isotop	-11.7463
bro	-11.7463
▁lunch	-11.7463
ilpa	-11.7463
▁pollut	-11.7463
raduate	-11.7464
▁marsh	-11.7464
reasure	-11.7464
ahia	-11.7464
urface	-11.7465
▁Watchm	-11.7465
afety	-11.7465
ayer	-11.7465
▁impro	-11.7465
▁Laborator	-11.7466
▁antimalaria	-11.7466
enc	-11.7466
mbarkation	-11.7466
ntrepreneur	-11.7466
80,000	-11.7466
▁scaveng	-11.7466
operative	-11.7467
lympic	-11.7467
ograms	-11.7467
ontemporary	-11.7467
anuscript	-11.7467
▁empiric	-11.7467
īdū	-11.7467
caste	-11.7468
ceptual	-11.7468
▁Material	-11.7468
asino	-11.7468
▁Niger	-11.7468
▁Babylonia	-11.7468
▁censor	-11.7468
▁Virgin	-11.7468
▁Catalog	-11.7468
5.4	-11.7468
ioneer	-11.7468
conferenc	-11.7468
iterary	-11.7468
,948	-11.7468
conscio	-11.7469
▁Dhabi	-11.7469
Renaixen	-11.7469
▁Wisconsin	-11.7469
$2,929)	-11.7469
-1991	-11.7469
.0/02:00	-11.7469
1,929	-11.7469
11.1.0/02:00	-11.7469
36.92%	-11.7469
73.965806	-11.7469
Bacchanals	-11.7469
Débat	-11.7469
ISAF	-11.7469
Kreis	-11.7469
Mirage	-11.7469
Murr	-11.7469
Nibb	-11.7469
Palladian	-11.7469
Schlacht	-11.7469
clipping	-11.7469
disturbances	-11.7469
erators	-11.7469
indygenat	-11.7469
magnetoception	-11.7469
nobilitacja	-11.7469
oststructuralism	-11.7469
pitched	-11.7469
rycerz	-11.7469
samgraha	-11.7469
zerwińsk	-11.7469
Élysées	-11.7469
▁$15,402	-11.7469
▁$26,969	-11.7469
▁$31,997	-11.7469
▁(1672–1727)	-11.7469
▁1,515,000	-11.7469
▁1,704,000	-11.7469
▁10217	-11.7469
▁11172-3	-11.7469
▁117,400	-11.7469
▁12–20%	-11.7469
▁13526	-11.7469
▁1435–1449	-11.7469
▁1479–1480	-11.7469
▁1579	-11.7469
▁1661	-11.7469
▁1853–1856	-11.7469
▁1861	-11.7469
▁1865	-11.7469
▁1884	-11.7469
▁1915	-11.7469
▁2,024	-11.7469
▁2,190	-11.7469
▁2009-2011	-11.7469
▁20–24	-11.7469
▁249,998	-11.7469
▁256,930	-11.7469
▁28.7%	-11.7469
▁3,272	-11.7469
▁36,125	-11.7469
▁40.761194	-11.7469
▁41.3%	-11.7469
▁46,226	-11.7469
▁487,000	-11.7469
▁512,682	-11.7469
▁527,000	-11.7469
▁565	-11.7469
▁579,999	-11.7469
▁6,329	-11.7469
▁79.8%	-11.7469
▁89.38%	-11.7469
▁922,000	-11.7469
▁ABET	-11.7469
▁Abhidharma	-11.7469
▁Agincourt	-11.7469
▁Agribusiness	-11.7469
▁Ahmadiyya	-11.7469
▁Alaska	-11.7469
▁Ambassadors	-11.7469
▁Andronovo	-11.7469
▁Appearances	-11.7469
▁Aribau	-11.7469
▁Attachés	-11.7469
▁Bahrain	-11.7469
▁Barnstormers	-11.7469
▁Bateson	-11.7469
▁Belben	-11.7469
▁Berkmann	-11.7469
▁Birmingham	-11.7469
▁Blitz	-11.7469
▁Blodig	-11.7469
▁Bluebird	-11.7469
▁Bolsheviks	-11.7469
▁Bombycilla	-11.7469
▁Branch	-11.7469
▁Brunswick	-11.7469
▁Burgundy	-11.7469
▁CJOC	-11.7469
▁Cadets	-11.7469
▁Carnival	-11.7469
▁Ceefax	-11.7469
▁Chamberlain	-11.7469
▁Chekiang	-11.7469
▁Clerkenwell	-11.7469
▁Comedy	-11.7469
▁Conqueror	-11.7469
▁Creamfields	-11.7469
▁Crioulo	-11.7469
▁Davies	-11.7469
▁Dawson	-11.7469
▁Detroit	-11.7469
▁Dinić	-11.7469
▁Distribution	-11.7469
▁Dracula	-11.7469
▁Dropout	-11.7469
▁Dummer	-11.7469
▁Emosson	-11.7469
▁Enewetak	-11.7469
▁Enforcement	-11.7469
▁Eritrea	-11.7469
▁Ethnologue	-11.7469
▁Etymologies	-11.7469
▁Fantasia	-11.7469
▁Fidèle	-11.7469
▁Flavobacteria	-11.7469
▁Fosse	-11.7469
▁Fourdrinier	-11.7469
▁Grapevine	-11.7469
▁Gribbin	-11.7469
▁Guenther	-11.7469
▁Guimer	-11.7469
▁Hamtun	-11.7469
▁Havre	-11.7469
▁Hawksmoor	-11.7469
▁Humvee	-11.7469
▁Ibiza	-11.7469
▁Iglesias	-11.7469
▁Infirmaries	-11.7469
▁Infirmary	-11.7469
▁Inventory	-11.7469
▁Iraq	-11.7469
▁Islington	-11.7469
▁Jiadong	-11.7469
▁Kansan	-11.7469
▁Kardon	-11.7469
▁Kinshasa	-11.7469
▁Kitten	-11.7469
▁Kruszewski	-11.7469
▁Labrador	-11.7469
▁Larsen	-11.7469
▁Lieberson	-11.7469
▁Liechtenstein	-11.7469
▁Limited	-11.7469
▁Lishui	-11.7469
▁Lissouba	-11.7469
▁Llull	-11.7469
▁Lombardy	-11.7469
▁Länggasse	-11.7469
▁Mackay	-11.7469
▁Madonna	-11.7469
▁Manitoba	-11.7469
▁Mantri	-11.7469
▁Margulis	-11.7469
▁Mathematics	-11.7469
▁McClendon	-11.7469
▁Montulli	-11.7469
▁Moroder	-11.7469
▁Mortensen	-11.7469
▁Mosylon	-11.7469
▁Mussorgsky	-11.7469
▁Nachtmusik	-11.7469
▁Nanotechnology	-11.7469
▁Nazareth	-11.7469
▁Neutering	-11.7469
▁Nydeggbrücke	-11.7469
▁Overture	-11.7469
▁Panasonic	-11.7469
▁Petawawa	-11.7469
▁Podgorica	-11.7469
▁Predators	-11.7469
▁Prefixes	-11.7469
▁Pulcinella	-11.7469
▁Purbeck	-11.7469
▁Qanun	-11.7469
▁QinetiQ	-11.7469
▁Richelieu	-11.7469
▁Salzburg	-11.7469
▁Saussure	-11.7469
▁Selfridge	-11.7469
▁Shastras	-11.7469
▁Shengzhou	-11.7469
▁Shtiebel	-11.7469
▁Shultziner	-11.7469
▁Singapore	-11.7469
▁Spayed	-11.7469
▁Supply	-11.7469
▁Suriname	-11.7469
▁Symbiotic	-11.7469
▁Tallinn	-11.7469
▁Telecom	-11.7469
▁Thornycroft	-11.7469
▁Tournament	-11.7469
▁Trenton	-11.7469
▁Velenje	-11.7469
▁Vidya	-11.7469
▁Vietnam	-11.7469
▁Vivaldi	-11.7469
▁Vizier	-11.7469
▁WWI	-11.7469
▁Wasserman	-11.7469
▁Wight	-11.7469
▁Wotje	-11.7469
▁XHTML	-11.7469
▁XII	-11.7469
▁XVI	-11.7469
▁XXII	-11.7469
▁Xavier	-11.7469
▁Xhosa	-11.7469
▁Zhenjiang	-11.7469
▁Zähringen	-11.7469
▁Zähringer	-11.7469
▁advertiser	-11.7469
▁affixes	-11.7469
▁anecdotes	-11.7469
▁anisotropic	-11.7469
▁avenues	-11.7469
▁basmati	-11.7469
▁biotechnology	-11.7469
▁boardwalk	-11.7469
▁boilerplate	-11.7469
▁cafes	-11.7469
▁ceiling	-11.7469
▁chopsticks	-11.7469
▁clients	-11.7469
▁coffin	-11.7469
▁consciousness	-11.7469
▁convict	-11.7469
▁crashed	-11.7469
▁crore	-11.7469
▁culminat	-11.7469
▁curricula	-11.7469
▁dabqaad	-11.7469
▁depots	-11.7469
▁deteriorating	-11.7469
▁diabetes	-11.7469
▁discrepancies	-11.7469
▁disinterred	-11.7469
▁disperse	-11.7469
▁dynamic	-11.7469
▁emancipat	-11.7469
▁enthusias	-11.7469
▁erectus	-11.7469
▁expatriate	-11.7469
▁expedition	-11.7469
▁explanation	-11.7469
▁fundraiser	-11.7469
▁garxajiyaal	-11.7469
▁gastronomy	-11.7469
▁heterogeneous	-11.7469
▁homicides	-11.7469
▁iTrip	-11.7469
▁iconoclasts	-11.7469
▁imbalances	-11.7469
▁inaccuracy	-11.7469
▁incumbent	-11.7469
▁intensify	-11.7469
▁jewelry	-11.7469
▁kaneh	-11.7469
▁kirishitan	-11.7469
▁lexicon	-11.7469
▁lounges	-11.7469
▁lymphocytes	-11.7469
▁macroeconomic	-11.7469
▁magnesium	-11.7469
▁maroon	-11.7469
▁mathematic	-11.7469
▁microchips	-11.7469
▁minibus	-11.7469
▁morphophonemes	-11.7469
▁murkhaatiyal	-11.7469
▁overhauled	-11.7469
▁overstaffing	-11.7469
▁oxygen	-11.7469
▁paragraph	-11.7469
▁pavilion	-11.7469
▁permission	-11.7469
▁poems	-11.7469
▁possibilities	-11.7469
▁pratyak	-11.7469
▁predecessor	-11.7469
▁protopriest	-11.7469
▁qualifications	-11.7469
▁rawhide	-11.7469
▁removal	-11.7469
▁rockabilly	-11.7469
▁ruszenie	-11.7469
▁salivation	-11.7469
▁sapiens	-11.7469
▁sapwood	-11.7469
▁seismic	-11.7469
▁seizure	-11.7469
▁shamanism	-11.7469
▁sinapyl	-11.7469
▁skepticism	-11.7469
▁specify	-11.7469
▁subtlety	-11.7469
▁supernatural	-11.7469
▁teja	-11.7469
▁terpenes	-11.7469
▁thymine	-11.7469
▁tracheids	-11.7469
▁trunks	-11.7469
▁turpentine	-11.7469
▁universitaire	-11.7469
▁unprepared	-11.7469
▁études	-11.7469
incarnati	-11.7469
lubaan	-11.7469
zoan	-11.7469
▁1854	-11.7469
▁Anglesey	-11.7469
▁Bickle	-11.7469
▁Johannesburg	-11.7469
▁Oriana	-11.7469
▁Quay	-11.7469
▁Sastra	-11.7469
▁aground	-11.7469
▁asylum	-11.7469
▁athlete	-11.7469
▁devolved	-11.7469
▁hypersensitivit	-11.7469
▁motets	-11.7469
▁motivat	-11.7469
▁nodules	-11.7469
▁odayal	-11.7469
▁piracy	-11.7469
▁predominate	-11.7469
▁racism	-11.7469
▁variance	-11.7469
discourse	-11.7469
▁1892	-11.7469
▁25.7%	-11.7469
▁Corella	-11.7469
▁Creole	-11.7469
▁Hardinge	-11.7469
▁Latting	-11.7469
▁Retable	-11.7469
▁Saloon	-11.7469
▁Trieste	-11.7469
▁ballads	-11.7469
▁commence	-11.7469
▁fellowships	-11.7469
▁flora	-11.7469
▁granite	-11.7469
▁kanon	-11.7469
▁manganese	-11.7469
▁mishandl	-11.7469
▁waranle	-11.7469
▁Brahmins	-11.7469
▁breakthroughs	-11.7469
▁debt	-11.7469
articulate	-11.7469
narco	-11.7469
▁Martorell	-11.7469
▁Salina	-11.7469
▁Tasmania	-11.7469
▁Vergiliana	-11.7469
▁devote	-11.7469
▁forgery	-11.7469
▁reprinted	-11.7469
▁shales	-11.7469
▁thrive	-11.7469
▁viroids	-11.7469
▁18.9%	-11.7469
▁Measur	-11.7469
▁audible	-11.7469
▁donax	-11.7469
▁malfunction	-11.7469
lept	-11.7469
ribos	-11.7469
saturate	-11.7469
▁Cosby	-11.7469
▁stews	-11.7469
▁visibility	-11.7469
▁Historia	-11.7469
daguer	-11.7469
▁Christós	-11.7469
▁Concert	-11.7469
▁Fleet	-11.7469
▁POWs	-11.7469
▁Plympton	-11.7469
▁patriotism	-11.7469
▁stint	-11.7469
▁willow	-11.7469
Erbe	-11.7469
oventry	-11.7469
ybrid	-11.7469
▁Afar	-11.7469
▁Suz	-11.7469
▁chivalry	-11.7469
▁recycled	-11.7469
▁Gorals	-11.7469
▁begun	-11.7469
▁ligands	-11.7469
▁microprocessor	-11.7469
▁19.22%	-11.7469
▁acclaim	-11.7469
▁downgrad	-11.7469
▁postgraduate	-11.7469
▁waxwing	-11.7469
67.7%	-11.7469
āpāramitā	-11.7469
▁Winkler	-11.7469
▁Zhoushan	-11.7469
▁storms	-11.7469
▁2023	-11.7469
▁227,000	-11.7469
▁Viking	-11.7469
▁sewer	-11.7469
IPA	-11.7469
▁Foxwoods	-11.7469
▁Rossini	-11.7469
▁Ventura	-11.7469
▁54.8%	-11.7469
▁Yangzhou	-11.7469
halva	-11.7469
▁Melilla	-11.7469
▁sarong	-11.7469
▁Linguist	-11.7469
▁Bouche	-11.7469
▁1.8	-11.7469
▁300,000	-11.7469
▁Patron	-11.7469
sourc	-11.7469
ɛɡ	-11.7469
▁53.5%	-11.7469
▁Janners	-11.7469
▁1,570	-11.7469
▁Fujian	-11.7469
▁Saare	-11.7469
▁44,000	-11.7469
ratya	-11.7469
▁obsolete	-11.7469
▁GameStop	-11.7469
▁Feather	-11.7469
▁Plym	-11.7469
▁geology	-11.7469
▁Changzhou	-11.7469
▁codons	-11.7469
▁noncontiguous	-11.7469
▁Product	-11.7469
▁518,000	-11.7469
▁subdialects	-11.7469
▁Johannsen	-11.7469
▁diplomacy	-11.7469
▁(3.4%	-11.7469
▁Diner	-11.7469
abha	-11.7469
▁Eisner	-11.7469
▁Softwood	-11.7469
▁libert	-11.7469
▁millet	-11.7469
▁Metge	-11.7469
▁revolv	-11.7469
▁enclosure	-11.7469
▁fez	-11.7469
▁Lyric	-11.7469
▁codification	-11.7469
▁monocot	-11.7469
▁newborns	-11.7469
▁Obama	-11.7469
▁impermanent	-11.7469
▁Montana	-11.7469
▁courtesans	-11.7469
▁427	-11.7469
▁Sikh	-11.7469
▁summari	-11.7469
▁Pāli	-11.7469
▁alternance	-11.7469
84.0%	-11.7469
▁Virginia	-11.7469
▁stamps	-11.7469
▁Academi	-11.7469
▁technologists	-11.7469
▁Blade	-11.7469
▁misleading	-11.7469
harl	-11.7469
▁cheaper	-11.7469
▁1,125	-11.7469
▁Francisco	-11.7469
AVC	-11.7469
▁methodology	-11.7469
▁Storm	-11.7469
▁Eyre	-11.747
▁Guardia	-11.747
▁Brother	-11.747
▁Cookworthy	-11.747
▁procurement	-11.747
bała	-11.747
▁hypothet	-11.747
▁dawn	-11.747
▁93.2	-11.747
▁Lime	-11.747
▁empiricism	-11.747
▁catechism	-11.747
▁loci	-11.747
▁sunken	-11.747
▁1455	-11.747
foil	-11.747
▁brick	-11.747
▁Oller	-11.747
▁sensitivity	-11.747
▁cinemas	-11.747
▁monism	-11.747
▁44%	-11.747
▁prize	-11.747
JTFN	-11.747
▁Havell	-11.747
–1949)	-11.747
▁fresh	-11.747
▁geese	-11.747
▁throne	-11.747
▁urination	-11.747
▁9050	-11.747
▁23.6%	-11.747
▁57%	-11.747
▁956.4	-11.747
▁preposition	-11.747
amom	-11.747
ltimately	-11.747
▁unmarked	-11.747
ypho	-11.747
▁Specification	-11.747
▁Gu	-11.747
▁crossword	-11.747
minent	-11.747
▁Jak	-11.747
▁enclos	-11.747
▁Bernina	-11.747
▁forestry	-11.747
▁dancing	-11.747
▁exhibitors	-11.747
▁Mulally	-11.7471
▁150,000	-11.7471
▁225,000	-11.7471
▁carvings	-11.7471
▁92%	-11.7471
icket	-11.7471
▁17,800	-11.7471
▁agglutination	-11.7471
▁alpinism	-11.7471
▁19.1%	-11.7471
▁diac	-11.7471
▁1825	-11.7471
▁1.0	-11.7471
▁plantain	-11.7471
▁assum	-11.7471
▁galleries	-11.7471
ICT	-11.7471
▁106,000	-11.7471
▁Highfield	-11.7471
▁admission	-11.7471
▁1925	-11.7471
▁Mouse	-11.7471
▁stiffness	-11.7471
22.3%	-11.7471
▁5:3	-11.7471
▁Deira	-11.7471
▁conclusion	-11.7471
▁Telegraph	-11.7471
▁morality	-11.7471
▁mega	-11.7472
▁1924	-11.7472
▁antimalarial	-11.7472
roscop	-11.7472
shek	-11.7472
▁1652	-11.7472
osta	-11.7472
▁Reco	-11.7472
▁76%	-11.7472
▁1191	-11.7472
▁devalu	-11.7472
▁14.2%	-11.7472
▁tribesmen	-11.7472
▁1480	-11.7472
▁14,222	-11.7472
▁Nazi	-11.7472
▁CNN	-11.7472
▁1786	-11.7472
▁29%	-11.7472
▁Imm	-11.7472
▁13.8%	-11.7472
▁Sunni	-11.7472
▁Homeland	-11.7472
▁waxes	-11.7472
▁announcement	-11.7472
▁Eminence	-11.7472
▁Dieu	-11.7472
▁Congressionally	-11.7473
▁Vergili	-11.7473
▁1658	-11.7473
▁33%	-11.7473
▁Yang	-11.7473
▁1742	-11.7473
▁Hanks	-11.7473
arva	-11.7473
▁512	-11.7473
▁Mellitus	-11.7473
▁interview	-11.7473
▁artwork	-11.7473
▁0.2%	-11.7473
▁26,000	-11.7473
▁821	-11.7473
▁embarkation	-11.7473
▁PRC	-11.7473
▁Saho	-11.7473
▁750	-11.7474
▁FRIBA	-11.7474
▁1578	-11.7474
▁1.8%	-11.7474
kov	-11.7474
▁Connor	-11.7474
▁1745	-11.7474
▁parli	-11.7474
▁Lenin	-11.7474
ellers	-11.7474
▁turban	-11.7474
▁nick	-11.7474
▁Lech	-11.7474
▁16.2	-11.7474
▁655	-11.7475
▁Peta	-11.7475
▁isotopes	-11.7475
▁tomatoes	-11.7475
▁67	-11.7475
▁malt	-11.7475
▁caption	-11.7475
▁Byzantium	-11.7475
▁25,000	-11.7475
▁Vancour	-11.7475
rawi	-11.7475
äh	-11.7475
cumen	-11.7475
duramen	-11.7476
▁1.5	-11.7476
▁1560	-11.7476
▁assert	-11.7476
909	-11.7476
▁Octavian	-11.7476
nobilitas	-11.7476
VC	-11.7476
▁1928	-11.7476
▁accountability	-11.7477
▁chip	-11.7477
OH	-11.7477
ogue	-11.7477
▁rivalled	-11.7477
▁Champ	-11.7477
▁elasticity	-11.7478
▁1644	-11.7478
▁Wolfhound	-11.7478
jurists	-11.7478
▁Waker	-11.7478
▁commensal	-11.7478
▁intervention	-11.7478
▁Play	-11.7478
▁normalization	-11.7478
▁structuralism	-11.7478
▁Sectarian	-11.7479
caster	-11.7479
▁Fair	-11.7479
retrotransposons	-11.7479
ormu	-11.7479
ysis	-11.7479
▁228	-11.7479
▁Batory	-11.748
▁18.5	-11.748
rmati	-11.748
▁141,000	-11.7481
boro	-11.7481
▁oceanic	-11.7481
▁234	-11.7481
▁love	-11.7481
▁Pā	-11.7482
▁uniformity	-11.7482
▁resignation	-11.7482
▁alum	-11.7482
riment	-11.7482
▁Dave	-11.7483
▁Manuel	-11.7483
▁Rail	-11.7483
cate	-11.7483
▁Marl	-11.7483
▁Pash	-11.7483
▁rout	-11.7483
▁Busan	-11.7484
▁factories	-11.7484
▁seeds	-11.7484
▁heaters	-11.7485
▁touches	-11.7485
▁Fisk	-11.7485
▁emitt	-11.7485
3.2	-11.7485
awake	-11.7486
▁Ladin	-11.7486
▁bath	-11.7486
ife	-11.7487
▁Pala	-11.7487
▁scout	-11.7488
atie	-11.7488
tā	-11.7488
▁joves	-11.7488
▁strange	-11.7488
gita	-11.7489
▁utensils	-11.7489
▁1902	-11.7489
▁OK	-11.7489
▁alf	-11.7489
▁gray	-11.749
hyan	-11.749
▁discrete	-11.749
actic	-11.749
palatal	-11.7491
ozo	-11.7491
▁guardian	-11.7491
▁modes	-11.7491
▁stretching	-11.7492
▁IV	-11.7492
▁shutt	-11.7493
▁Lew	-11.7493
▁star	-11.7493
amā	-11.7493
▁sour	-11.7494
▁intensity	-11.7494
▁Bundeshaus	-11.7494
▁124	-11.7494
▁rapping	-11.7494
▁Yue	-11.7495
discipline	-11.7495
▁Alph	-11.7496
sumption	-11.7496
leine	-11.7496
▁wel	-11.7496
▁1637	-11.7496
▁wool	-11.7497
eera	-11.7497
▁finalized	-11.7497
▁Maa	-11.7497
▁decorative	-11.7497
altz	-11.7497
▁salary	-11.7498
into	-11.7498
▁1630	-11.7498
▁Ministr	-11.7499
arta	-11.7499
▁Sade	-11.75
▁Maro	-11.7501
▁interchangeable	-11.7502
▁philology	-11.7502
ereo	-11.7502
▁conical	-11.7503
▁erased	-11.7503
yaal	-11.7505
sch	-11.7505
▁263	-11.7506
▁Codec	-11.7506
▁fatal	-11.7507
–5	-11.7507
▁Kare	-11.7507
▁mandat	-11.7508
▁burner	-11.7508
▁Mel	-11.7508
▁1503	-11.7508
▁1912	-11.7508
▁Rice	-11.7509
11,900	-11.7509
▁mechanis	-11.751
▁blo	-11.751
▁ARPA	-11.751
▁Brasil	-11.7511
▁beverage	-11.7511
▁Mul	-11.7511
▁heredity	-11.7511
ovan	-11.7512
Vogue	-11.7512
▁pian	-11.7514
▁Hat	-11.7514
▁beak	-11.7516
▁darker	-11.7517
tache	-11.7518
gge	-11.7518
▁flag	-11.7519
▁Vie	-11.7519
▁trust	-11.7519
▁Vent	-11.752
geny	-11.752
▁vulgari	-11.752
eleb	-11.7521
anji	-11.7521
nuity	-11.7522
equate	-11.7523
▁19.9%	-11.7523
verge	-11.7524
▁hy	-11.7525
eeping	-11.7525
rone	-11.7525
▁crypt	-11.7528
▁Nigeria	-11.7528
▁gua	-11.7529
▁Palm	-11.753
dai	-11.7531
▁Cond	-11.7531
▁noticeabl	-11.7531
▁589	-11.7532
▁depressed	-11.7536
3.1	-11.7537
ovin	-11.7537
▁Record	-11.7538
▁ousted	-11.7538
ussian	-11.7538
152	-11.7538
t͡s	-11.7538
▁Sterne	-11.7538
2,800	-11.7538
▁Spr	-11.7539
appe	-11.7539
▁Oceana	-11.754
▁integrate	-11.754
▁sel	-11.754
8.4	-11.754
itan	-11.7542
▁Augustan	-11.7542
▁evident	-11.7543
▁dynasties	-11.7543
▁spoon	-11.7544
▁variable	-11.7544
cl	-11.7544
nable	-11.7545
▁retrieved	-11.7545
▁subside	-11.7546
▁Norm	-11.7546
stri	-11.7547
eme	-11.7547
▁Weber	-11.7548
▁Inquisition	-11.7548
▁9%	-11.7548
RS	-11.755
▁dialectus	-11.755
▁1421	-11.7554
scop	-11.7554
▁303	-11.7554
▁onward	-11.7556
-12	-11.7556
▁Hay	-11.7558
▁Thor	-11.7558
▁225	-11.7559
▁Form	-11.756
▁infection	-11.7561
▁conversations	-11.7561
▁planets	-11.7562
align	-11.7562
color	-11.7564
elim	-11.7565
▁153	-11.7566
▁assaulted	-11.7567
▁noon	-11.7567
▁tombs	-11.7567
▁Võro	-11.7568
▁upgrades	-11.7568
▁developmentally	-11.757
▁Mes	-11.757
sthu	-11.757
umin	-11.7571
▁Vice	-11.7572
▁vice	-11.7573
▁inches	-11.7573
▁onset	-11.7578
8.6	-11.7579
rol	-11.7582
▁Pot	-11.7583
▁walking	-11.7584
FDP	-11.7586
▁mills	-11.7588
▁103	-11.759
▁1.6%	-11.7592
ander	-11.7592
ams	-11.7593
▁Formerly	-11.7593
hita	-11.7593
tat	-11.7595
▁modems	-11.7598
▁hectares	-11.7598
▁gase	-11.7599
▁Cha	-11.7601
▁programmers	-11.7601
▁liberalise	-11.7602
▁greed	-11.7604
▁listen	-11.7609
0.91	-11.7609
▁IE	-11.7609
,23	-11.761
▁3.5	-11.7611
▁Newton	-11.7611
lando	-11.7612
▁availab	-11.7612
4-	-11.7612
rawl	-11.7616
▁Esta	-11.7623
▁kir	-11.7624
▁CCT	-11.7626
▁heading	-11.7627
▁kit	-11.7628
▁waist	-11.7628
eta	-11.7629
As	-11.763
▁82	-11.7633
éd	-11.7636
▁adjustments	-11.7636
Crimsons	-11.7637
▁Crusades	-11.7637
▁divin	-11.7637
IXs	-11.7639
▁pe	-11.7639
fth	-11.7641
aching	-11.7644
▁$3	-11.7644
witnesses	-11.7644
grate	-11.7646
gio	-11.765
▁clearly	-11.765
equi	-11.7652
nned	-11.7655
▁pressing	-11.7662
▁economical	-11.7666
arts	-11.7668
▁disadvantages	-11.7672
▁widths	-11.7672
▁weekends	-11.7672
▁Carolines	-11.7672
▁genomics	-11.7672
▁veneers	-11.7672
lh	-11.7675
▁sentences	-11.7678
▁res	-11.7678
mented	-11.768
air	-11.7682
▁Bet	-11.7687
hines	-11.7689
▁shorter	-11.7697
aar	-11.7698
▁PC	-11.7702
▁arth	-11.7703
heim	-11.7703
▁placement	-11.7708
atel	-11.7708
dard	-11.7708
▁operons	-11.7709
▁headings	-11.7712
▁Sum	-11.7712
▁$5	-11.7715
▁Maus	-11.7723
▁specification	-11.7726
▁alive	-11.7726
▁pi	-11.7726
▁analogy	-11.7728
▁Willi	-11.7729
optics	-11.7736
▁chrom	-11.7739
▁mon	-11.7743
alism	-11.7746
▁revis	-11.7746
▁compacts	-11.7747
▁famines	-11.7747
▁Guards	-11.7747
▁Prospects	-11.7747
onse	-11.7747
▁concerning	-11.7749
▁canonical	-11.7749
▁disse	-11.7751
▁landmarks	-11.7751
▁GI	-11.7752
▁beds	-11.776
hav	-11.7776
ologists	-11.7783
▁routines	-11.7784
▁guilds	-11.7784
▁exhibitions	-11.7785
▁Songs	-11.7787
ester	-11.7797
377	-11.7802
inancial	-11.7802
▁beneficiar	-11.7803
dial	-11.7804
▁Mayo	-11.7806
434	-11.7809
▁cartooning	-11.7809
Blacks	-11.781
▁allies	-11.7814
▁suburbs	-11.7815
▁Appe	-11.7819
▁airfields	-11.7822
▁heretics	-11.7822
▁implemented	-11.7827
▁lent	-11.7831
▁Mou	-11.7835
▁analy	-11.784
mont	-11.784
▁Gau	-11.7842
▁Ak	-11.7845
ndition	-11.7855
founded	-11.7855
▁chairs	-11.786
▁inters	-11.7865
▁beers	-11.7872
ken	-11.7885
inker	-11.7894
ei	-11.7895
▁gangs	-11.7898
▁hierarchs	-11.7898
▁chromosomes	-11.7898
3.6	-11.7908
▁eighty	-11.7915
▁2001-	-11.7918
▁rests	-11.7923
ixed	-11.7925
sure	-11.7928
▁Burg	-11.7929
▁theaters	-11.7937
viol	-11.7941
arte	-11.7954
alter	-11.7954
▁antibod	-11.7956
▁1953,	-11.7968
Bain	-11.7968
▁protocols	-11.7975
MA	-11.7984
ets	-11.7988
▁Herb	-11.7994
▁seal	-11.7999
▁40-	-11.8009
▁domains	-11.8013
▁Confessions	-11.8013
▁droughts	-11.8013
▁tasks	-11.8013
uk	-11.8019
▁clima	-11.8019
ety	-11.802
▁grouped	-11.8029
landia	-11.8044
Middl	-11.8044
▁candidates	-11.8052
▁performer	-11.8059
▁Cen	-11.8074
▁targeting	-11.8077
ning	-11.8086
▁fricatives	-11.8091
sium	-11.8094
yar	-11.8117
▁morphophonolog	-11.8123
elfare	-11.8134
▁undermin	-11.8138
▁lacked	-11.8144
▁senses	-11.8147
▁licensee	-11.8155
omal	-11.8157
losses	-11.8161
erries	-11.8161
ether	-11.8162
angi	-11.8177
ries	-11.8184
▁1,4	-11.8193
eland	-11.8202
song	-11.8205
▁Ante	-11.8208
statut	-11.8215
▁Increasing	-11.8215
eys	-11.8227
cleans	-11.8229
opa	-11.8231
sions	-11.8232
12.9%	-11.8239
▁Lis	-11.8246
▁Trav	-11.8248
▁revi	-11.8252
▁hor	-11.8261
,000)	-11.8263
jus	-11.8266
fa	-11.8273
illing	-11.8273
▁interactions	-11.8288
2400	-11.8289
orough	-11.8292
tool	-11.8296
▁lowering	-11.8307
lake	-11.832
aja	-11.8322
▁1940.	-11.8329
stille	-11.834
aux	-11.8346
▁refuse	-11.8352
▁Representati	-11.8359
▁hoc	-11.8368
six	-11.837
og	-11.8385
-194	-11.8386
▁Ash	-11.8399
▁Ade	-11.8405
mens	-11.8418
ulated	-11.8424
▁tin	-11.8426
era	-11.8427
grants	-11.8432
onne	-11.8444
kara	-11.8454
▁diss	-11.8479
▁Lutherans	-11.8488
wage	-11.8493
▁responsibilit	-11.8499
▁hur	-11.8501
▁0.0	-11.8514
▁aborti	-11.8514
▁adhere	-11.8515
tor	-11.852
disco	-11.8528
tions	-11.8536
20	-11.8537
▁inform	-11.8542
▁Secur	-11.8545
▁phenomen	-11.8547
▁paro	-11.855
1978).	-11.8557
▁Ur	-11.8562
▁1979.	-11.8576
arns	-11.8578
Q	-11.8595
ené	-11.8597
thian	-11.8599
ab	-11.86
▁grade	-11.8605
ednes	-11.8611
▁Ram	-11.8614
fare	-11.8626
rinting	-11.8631
▁Fa	-11.8633
▁precis	-11.8645
bh	-11.865
▁Executives	-11.8651
wrap	-11.8651
▁ward	-11.8657
tended	-11.8659
▁(1,6	-11.866
reated	-11.8667
eating	-11.8682
tted	-11.8685
bul	-11.8688
33	-11.8692
▁incorporate	-11.8694
eau	-11.8702
▁exi	-11.8718
umped	-11.8729
▁overtak	-11.8745
▁ride	-11.8751
▁92.	-11.8753
mant	-11.8753
▁hospitals	-11.8774
▁tides	-11.8776
▁boo	-11.8787
lice	-11.8796
▁li	-11.8798
gger	-11.8803
▁bur	-11.8817
iminish	-11.8818
exual	-11.8827
ari	-11.8841
▁bl	-11.8843
▁ease	-11.8843
post	-11.8844
▁wors	-11.8847
▁Gra	-11.8852
▁websites	-11.8858
1833)	-11.8859
aster	-11.8863
▁tran	-11.8872
inded	-11.8873
▁Wars	-11.8879
TM	-11.8895
uel	-11.8905
▁Mum	-11.8916
thank	-11.8916
Intelligence	-11.8918
risu	-11.8932
ieves	-11.8942
▁partnerships	-11.8942
pulsion	-11.8949
▁Ey	-11.8957
▁violat	-11.8963
▁indic	-11.8968
▁ghe	-11.8974
0%	-11.8975
welve	-11.8981
scor	-11.8983
ophyl	-11.8991
exa	-11.8992
facts	-11.8995
foresee	-11.8998
dol	-11.9003
ature	-11.9006
acket	-11.9006
▁List	-11.9007
▁upset	-11.9008
▁united	-11.9008
▁(1978	-11.9012
fum	-11.9021
▁Den	-11.9024
orus	-11.9035
film	-11.9043
▁pl	-11.9045
school	-11.9046
clear	-11.9052
▁filmed	-11.906
eological	-11.906
anking	-11.9066
lder	-11.9067
▁legalize	-11.9068
vice	-11.9069
▁beneficia	-11.9075
▁dispose	-11.9086
14	-11.9088
▁overl	-11.9094
3]	-11.9101
alist	-11.9106
teroid	-11.9109
ominant	-11.9111
ense	-11.9114
atta	-11.9117
.0	-11.9128
$23	-11.9129
aithful	-11.913
reb	-11.9132
phen	-11.9132
itic	-11.9135
we	-11.9135
rate	-11.9136
omai	-11.9139
Remonstrants	-11.9141
▁borane	-11.9144
dialect	-11.9144
.4%	-11.9147
▁36.	-11.9149
rice	-11.9154
em	-11.9154
▁Ou	-11.9159
$6	-11.9172
ppen	-11.9172
▁Eas	-11.9177
6.5	-11.9179
boy	-11.9179
Moor	-11.9187
Arab	-11.9193
▁historiograph	-11.9196
▁Iranians	-11.9197
▁We	-11.9203
mit	-11.9205
fices	-11.9212
defin	-11.9214
life	-11.9216
▁Mid	-11.9219
urt	-11.9219
sti	-11.9224
▁vas	-11.9227
hai	-11.9234
▁gut	-11.9237
▁dens	-11.9248
▁hydrocarbon	-11.925
▁popula	-11.9256
complian	-11.9257
▁Che	-11.9258
▁Regi	-11.9258
mari	-11.9261
writer	-11.9265
▁prerogative	-11.9266
▁Crusade	-11.9269
Crimson	-11.9271
igna	-11.9271
IX	-11.9272
▁patrol	-11.9272
oll	-11.9272
ulation	-11.9273
▁obstruent	-11.9274
AI	-11.9274
▁posses	-11.9276
▁solution	-11.9276
▁helicopter	-11.9277
magnat	-11.9277
▁penguin	-11.9278
itiative	-11.9278
offensive	-11.9281
▁scripture	-11.9281
▁Glas	-11.9282
▁1993.	-11.9283
▁demonstration	-11.9283
▁Michaels	-11.9284
▁Comic	-11.9285
hin	-11.9285
▁adjustment	-11.9287
oil	-11.9287
human	-11.9292
enets	-11.9292
rh	-11.9294
produced	-11.9294
elect	-11.9296
obbi	-11.9297
ruit	-11.9298
▁celebrat	-11.93
▁advanc	-11.9303
Core	-11.9304
print	-11.9305
▁vers	-11.9306
otte	-11.9307
▁Uni	-11.9307
act	-11.9308
▁Ant	-11.9312
early	-11.9316
$24	-11.9318
▁stabili	-11.9319
Pra	-11.9319
▁consideration	-11.932
BR	-11.9322
sorts	-11.9326
ronic	-11.9329
▁upward	-11.9331
0.1	-11.9331
ongo	-11.9333
ntibodies	-11.9333
accompani	-11.9334
ncestry	-11.9334
cane	-11.9335
▁Fin	-11.9336
▁Clo	-11.9337
▁Member	-11.9338
▁trader	-11.9338
▁clari	-11.934
▁generator	-11.9341
▁complicat	-11.9344
esti	-11.9344
inference	-11.9345
lure	-11.9347
nalog	-11.9348
▁piotrkowsk	-11.9349
,[	-11.9351
olf	-11.9351
ina	-11.9353
▁exchang	-11.9353
▁guid	-11.9353
rchaeologi	-11.9356
tuated	-11.9356
Function	-11.9358
LVL	-11.9358
glulam	-11.9358
1714	-11.9358
▁refin	-11.9358
▁alternat	-11.9359
Th	-11.9359
STA	-11.936
▁Sport	-11.9365
mmunodeficiency	-11.9365
9%	-11.9367
▁holi	-11.9369
▁gener	-11.937
ished	-11.937
observ	-11.9371
prim	-11.9371
sine	-11.9373
current	-11.9373
Kashmir	-11.9374
attorneys	-11.9374
▁educate	-11.9374
DST	-11.9374
law	-11.9374
road	-11.9376
prote	-11.9376
spots	-11.9376
Ritter	-11.9376
grandson	-11.9376
murre	-11.9376
49	-11.9377
▁weaken	-11.9377
orship	-11.9377
dynasties	-11.9378
variable	-11.9378
featur	-11.9378
spoon	-11.9378
genous	-11.9379
RIBA	-11.9379
96.1	-11.9379
Reserve	-11.9379
GSA	-11.938
Orient	-11.938
Boulogne	-11.938
member	-11.938
Norm	-11.938
product	-11.938
quick	-11.938
64	-11.938
NYPD	-11.9381
mics	-11.9381
Parkway	-11.9381
shelter	-11.9381
Thorn	-11.9382
oligarch	-11.9382
Caen	-11.9382
▁invent	-11.9382
mosa	-11.9382
heretic	-11.9382
editor	-11.9382
failure	-11.9382
IR	-11.9382
fiction	-11.9382
Lad	-11.9382
HIV	-11.9382
VII	-11.9382
warmth	-11.9382
nominal	-11.9382
wheel	-11.9382
knight	-11.9382
unit	-11.9382
▁successor	-11.9382
Danube	-11.9382
straight	-11.9382
rhythmic	-11.9382
heritage	-11.9383
passenger	-11.9383
interrupted	-11.9383
universal	-11.9383
Richard	-11.9383
chapel	-11.9383
drama	-11.9383
pores	-11.9383
1999	-11.9383
denomination	-11.9383
sponsored	-11.9383
bound	-11.9383
Expedition	-11.9383
cellulose	-11.9383
Mediterranean	-11.9383
memory	-11.9383
plural	-11.9383
Through	-11.9384
comparison	-11.9384
districts	-11.9384
capita	-11.9384
Eight	-11.9384
Polytechnic	-11.9384
understanding	-11.9384
export	-11.9384
alleles	-11.9384
Change	-11.9384
Labour	-11.9384
Grand	-11.9384
mutual	-11.9384
value	-11.9384
missing	-11.9384
EJ	-11.9384
college	-11.9384
manufacture	-11.9384
Operations	-11.9384
Jewish	-11.9384
battle	-11.9384
foot	-11.9384
powered	-11.9384
contact	-11.9384
Time	-11.9384
Italy	-11.9384
lexical	-11.9385
apartheid	-11.9385
Portland	-11.9385
respectively	-11.9385
Occitan	-11.9385
potential	-11.9385
electronic	-11.9385
MPEG	-11.9385
Commonwealth	-11.9385
Classical	-11.9385
Love	-11.9385
fur	-11.9385
judges	-11.9385
broadcast	-11.9385
licens	-11.9385
Chief	-11.9385
Henry	-11.9385
successful	-11.9385
again	-11.9385
exist	-11.9385
▁Profess	-11.9385
storage	-11.9385
God	-11.9385
provinces	-11.9385
Zhejiang	-11.9385
Portuguese	-11.9385
family	-11.9385
particular	-11.9385
police	-11.9385
Council	-11.9385
Boston	-11.9385
Republic	-11.9385
Southampton	-11.9385
northern	-11.9385
medium	-11.9385
Kansas	-11.9385
international	-11.9385
titudes	-11.9386
loo	-11.9386
March	-11.9386
IA	-11.9386
OE	-11.9386
opened	-11.9386
310	-11.9386
ichi	-11.9386
TU	-11.9386
began	-11.9386
trait	-11.9386
Chat	-11.9386
▁gall	-11.9387
▁depress	-11.9387
Roman	-11.9387
Over	-11.9387
names	-11.9387
▁countershad	-11.9387
1977)	-11.9388
described	-11.9388
France	-11.9388
whom	-11.9388
▁edi	-11.9389
USA	-11.9389
stripp	-11.9389
▁sophisticat	-11.939
simpl	-11.939
▁annex	-11.939
PR	-11.9391
stores	-11.9391
between	-11.9392
Tom	-11.9392
established	-11.9392
itself	-11.9392
even	-11.9393
via	-11.9393
secondary	-11.9393
Up	-11.9394
rail	-11.9394
tune	-11.9394
mix	-11.9394
fish	-11.9394
oak	-11.9396
comprehensive	-11.9396
similar	-11.9397
Free	-11.9397
chang	-11.9397
biome	-11.9397
▁intend	-11.9398
▁sync	-11.9398
▁dropp	-11.9398
resolution	-11.9399
tense	-11.9399
▁Colour	-11.94
were	-11.94
function	-11.9402
lug	-11.9403
▁Shao	-11.9404
▁col	-11.9405
electrical	-11.9406
populat	-11.9406
▁pastor	-11.9408
Korean	-11.9409
home	-11.941
▁evangeli	-11.941
distributed	-11.9413
serve	-11.9415
force	-11.9415
onymous	-11.9415
▁dio	-11.9416
online	-11.9416
detective	-11.9417
▁oust	-11.9418
Ro	-11.9419
▁Mini	-11.9419
Gamb	-11.9419
actory	-11.942
63	-11.9421
audio	-11.9422
rong	-11.9423
há	-11.9424
▁cere	-11.9425
mol	-11.9425
diff	-11.9425
,900	-11.9425
▁consol	-11.9426
nju	-11.9427
1,	-11.9427
etective	-11.9428
matt	-11.9429
▁Eth	-11.943
▁Judg	-11.943
▁167	-11.9431
maa	-11.9432
West	-11.9432
▁evolv	-11.9432
▁colleg	-11.9433
experimental	-11.9433
generally	-11.9434
▁parl	-11.9434
LO	-11.9435
▁merge	-11.9435
▁resembl	-11.9437
▁Edmon	-11.9437
▁behavio	-11.9439
▁guil	-11.9439
riff	-11.9439
uffle	-11.9441
realist	-11.9442
▁bridg	-11.9445
Jaz	-11.9445
ophones	-11.9446
▁gra	-11.9446
▁$13	-11.9448
▁longevit	-11.9448
ib	-11.9448
ochro	-11.9448
practiced	-11.9448
7.7	-11.9449
consider	-11.9449
▁soften	-11.9449
▁surve	-11.9451
▁Micronesia	-11.9451
▁Hell	-11.9452
▁Bak	-11.9453
alab	-11.9453
siz	-11.9453
ectarian	-11.9456
gregati	-11.9457
▁curren	-11.9457
▁allophon	-11.9458
1980	-11.9459
▁Standards	-11.9459
dae	-11.9459
▁Rom	-11.946
magna	-11.9461
▁festiv	-11.9461
▁elevat	-11.9462
lag	-11.9462
▁syncreti	-11.9463
NET	-11.9463
▁agglutinati	-11.9463
ellitus	-11.9463
▁repress	-11.9463
▁Vergil	-11.9464
▁gla	-11.9464
▁televis	-11.9464
ransformator	-11.9464
▁emba	-11.9464
uanc	-11.9464
▁lign	-11.9465
gram	-11.9465
▁refine	-11.9465
finiti	-11.9465
▁Cooper	-11.9465
▁canonic	-11.9465
ransitional	-11.9465
maller	-11.9465
▁fulfil	-11.9465
▁modal	-11.9465
illustr	-11.9466
▁mamma	-11.9466
kætə	-11.9466
Fran	-11.9466
issolution	-11.9466
ocratic	-11.9466
▁Caucas	-11.9466
▁schoo	-11.9466
ugby	-11.9466
nemies	-11.9466
▁electricit	-11.9466
timately	-11.9466
xpected	-11.9466
xxx	-11.9467
scape	-11.9467
▁retire	-11.9467
olloquial	-11.9467
ontributions	-11.9467
JTF	-11.9467
clusive	-11.9467
variant	-11.9467
▁arc	-11.9467
▁cul	-11.9467
▁Merce	-11.9467
.65	-11.9467
▁obvi	-11.9468
▁UNESC	-11.9468
arieties	-11.9468
orror	-11.9468
▁chemist	-11.9468
evival	-11.9468
llustrat	-11.9468
▁Slovak	-11.9468
rengraben	-11.9468
ecognition	-11.9468
▁Range	-11.9468
▁Georgia	-11.9468
etaph	-11.9468
igures	-11.9468
ctators	-11.9468
aunch	-11.9468
onsistent	-11.9468
fibr	-11.9468
▁phosph	-11.9468
cogniti	-11.9468
▁Observ	-11.9468
▁epistem	-11.9468
logue	-11.9468
ctric	-11.9468
ələ	-11.9468
▁noctu	-11.9468
alwo	-11.9468
▁Micro	-11.9468
botanicals	-11.9469
ynthesiz	-11.9469
▁Braxton	-11.9469
▁Michelangelo	-11.9469
▁Shogakukan	-11.9469
extinguished	-11.9469
hounds	-11.9469
rofile	-11.9469
▁Bangladesh	-11.9469
▁Devotion	-11.9469
▁Oct	-11.9469
▁diagnos	-11.9469
1943–1992	-11.9469
1992–2003	-11.9469
2003–2006	-11.9469
49,8	-11.9469
56.9	-11.9469
Afghan	-11.9469
Dalmatian	-11.9469
OGIS	-11.9469
Orientales	-11.9469
Rosengarten	-11.9469
SOF	-11.9469
croft	-11.9469
derivati	-11.9469
disturbed	-11.9469
estabiliz	-11.9469
honotactics	-11.9469
iquit	-11.9469
kyōto	-11.9469
syllab	-11.9469
syncr	-11.9469
terranea	-11.9469
Éc	-11.9469
łł	-11.9469
–199	-11.9469
▁120,305	-11.9469
▁14,503	-11.9469
▁140,634	-11.9469
▁1596	-11.9469
▁16,424	-11.9469
▁1625	-11.9469
▁2,663	-11.9469
▁2012-2013	-11.9469
▁23,597	-11.9469
▁26,968	-11.9469
▁3,371	-11.9469
▁3,507	-11.9469
▁3,570	-11.9469
▁49,873	-11.9469
▁7,654	-11.9469
▁70,560	-11.9469
▁9,468	-11.9469
▁94,367	-11.9469
▁97.3%	-11.9469
▁Aargau	-11.9469
▁Adventures	-11.9469
▁Antiquity	-11.9469
▁Axumites	-11.9469
▁Bartók	-11.9469
▁Berkeley	-11.9469
▁Bewick	-11.9469
▁Bleep	-11.9469
▁Broxbourne	-11.9469
▁Brutalism	-11.9469
▁CBBC	-11.9469
▁Cavendish	-11.9469
▁Chancery	-11.9469
▁Circuit	-11.9469
▁Confederacy	-11.9469
▁Consortium	-11.9469
▁Dershowitz	-11.9469
▁EYS	-11.9469
▁Emporia	-11.9469
▁Entente	-11.9469
▁Facility	-11.9469
▁FireWire	-11.9469
▁GNIpc	-11.9469
▁Guardafui	-11.9469
▁HDMAC	-11.9469
▁Hatshepsut	-11.9469
▁Hazen	-11.9469
▁Hiiumaa	-11.9469
▁Himekawa	-11.9469
▁Houghton	-11.9469
▁Hyperlinks	-11.9469
▁IPTV	-11.9469
▁Identifier	-11.9469
▁Karelian	-11.9469
▁Khotan	-11.9469
▁Launia	-11.9469
▁MYS	-11.9469
▁MacDonald	-11.9469
▁Madhavacharya	-11.9469
▁Mahony	-11.9469
▁Masīhī	-11.9469
▁Mausoleum	-11.9469
▁Mestiços	-11.9469
▁Monasteries	-11.9469
▁Nashville	-11.9469
▁Nasrānī	-11.9469
▁Nirvāna	-11.9469
▁Nixon	-11.9469
▁Obaid	-11.9469
▁Peipsi	-11.9469
▁Pepsi	-11.9469
▁Phagmodru	-11.9469
▁Phonograph	-11.9469
▁Piotrk	-11.9469
▁Plymothians	-11.9469
▁Purgatory	-11.9469
▁Regulations	-11.9469
▁Rosenberg	-11.9469
▁Sabaeans	-11.9469
▁Sadik	-11.9469
▁Savoys	-11.9469
▁Smeaton	-11.9469
▁Solution	-11.9469
▁Sommerzeit	-11.9469
▁Suffixation	-11.9469
▁Taipings	-11.9469
▁Tongeren	-11.9469
▁Toronto	-11.9469
▁Trafalgar	-11.9469
▁Unauthorized	-11.9469
▁Vigilantes	-11.9469
▁Vistula	-11.9469
▁Volhynia	-11.9469
▁Wallachia	-11.9469
▁WatchESPN	-11.9469
▁Wornum	-11.9469
▁XIV	-11.9469
▁Zagorje	-11.9469
▁Zombies	-11.9469
▁advisors	-11.9469
▁argots	-11.9469
▁biodegradable	-11.9469
▁bribed	-11.9469
▁caliper	-11.9469
▁catamaran	-11.9469
▁circulating	-11.9469
▁cladding	-11.9469
▁clapperboards	-11.9469
▁combustion	-11.9469
▁computation	-11.9469
▁consequences	-11.9469
▁conventa	-11.9469
▁convocation	-11.9469
▁covenant	-11.9469
▁craving	-11.9469
▁curriculum	-11.9469
▁devotion	-11.9469
[...]
