<pad>	0
<s>	0
</s>	0
<unk>	0
▁the	-3.01964
,	-3.22351
▁of	-3.5716
s	-3.59321
.	-3.59569
▁and	-3.8439
▁in	-4.03219
▁to	-4.16286
▁a	-4.33833
:	-4.43137
▁	-4.8021
-	-4.95171
▁is	-4.99611
▁was	-5.00218
▁The	-5.03757
▁as	-5.11983
ing	-5.15679
'	-5.18534
▁question	-5.20254
▁context	-5.21378
?	-5.22349
▁for	-5.2646
▁by	-5.29241
ed	-5.32608
▁that	-5.33151
▁with	-5.37718
▁(	-5.42711
▁on	-5.50715
▁from	-5.62846
▁"	-5.64958
▁are	-5.7137
▁In	-5.82721
▁were	-5.83589
)	-5.86181
▁which	-5.91235
▁or	-5.94665
▁at	-5.99753
▁an	-6.0136
▁be	-6.01857
e	-6.0391
▁What	-6.06647
ly	-6.13634
"	-6.18181
▁it	-6.19204
d	-6.23862
▁his	-6.26501
▁have	-6.30397
▁has	-6.36056
▁their	-6.39947
▁not	-6.40163
▁also	-6.41936
▁had	-6.42086
th	-6.43254
al	-6.44667
▁its	-6.46326
a	-6.46953
▁A	-6.51921
er	-6.52907
▁first	-6.55687
y	-6.56202
;	-6.59108
▁other	-6.61948
▁but	-6.62195
▁one	-6.62337
t	-6.64528
▁did	-6.64674
),	-6.65004
n	-6.68821
▁been	-6.72331
▁such	-6.74143
▁this	-6.74428
▁most	-6.74797
▁he	-6.76136
▁many	-6.7831
▁more	-6.81862
▁who	-6.83707
▁into	-6.876
▁what	-6.88252
o	-6.88473
▁city	-6.9129
▁all	-6.91457
▁used	-6.92831
▁two	-6.93445
in	-6.93839
).	-6.93878
i	-6.95372
▁than	-6.95725
▁can	-6.9633
es	-6.98216
▁they	-6.99427
S	-6.99484
▁over	-7.01231
▁time	-7.01529
▁between	-7.04027
▁some	-7.0916
▁It	-7.10201
▁after	-7.10239
r	-7.12757
▁during	-7.13145
▁new	-7.13616
▁United	-7.1421
▁century	-7.14717
▁only	-7.17694
▁would	-7.19624
▁state	-7.1996
g	-7.20215
c	-7.20513
▁This	-7.2223
▁when	-7.22562
▁New	-7.25236
ic	-7.27563
▁year	-7.29118
▁people	-7.30984
l	-7.32067
▁use	-7.3339
▁known	-7.34789
▁years	-7.35134
▁under	-7.35197
or	-7.35766
▁I	-7.3797
b	-7.38234
▁S	-7.38328
▁may	-7.38395
▁her	-7.38508
▁W	-7.38518
▁States	-7.40022
▁B	-7.4007
▁about	-7.4032
▁U	-7.41104
C	-7.42802
▁part	-7.42862
▁de	-7.42891
▁well	-7.44015
▁world	-7.44144
▁these	-7.44277
m	-7.44943
▁government	-7.45381
▁became	-7.45711
▁made	-7.46642
▁including	-7.47549
▁million	-7.47647
▁number	-7.49654
▁there	-7.49904
▁system	-7.49918
▁called	-7.51113
▁Who	-7.51448
]	-7.52545
▁He	-7.52627
▁through	-7.52673
▁early	-7.52942
▁On	-7.52966
▁while	-7.5385
p	-7.53915
▁where	-7.54088
▁large	-7.54129
▁population	-7.54193
on	-7.54667
▁up	-7.55259
▁out	-7.55273
▁British	-7.55532
/	-7.56038
▁three	-7.56467
".	-7.56938
▁American	-7.5777
▁C	-7.58154
▁How	-7.58334
▁both	-7.58431
▁no	-7.58482
▁being	-7.59138
▁When	-7.5926
▁E	-7.59934
an	-7.62561
us	-7.62985
le	-7.63329
▁re	-7.65233
▁major	-7.65396
▁later	-7.65531
re	-7.66561
."	-7.66587
▁do	-7.66606
the	-7.67507
▁power	-7.67866
▁War	-7.68159
▁French	-7.68223
▁them	-7.68441
▁area	-7.69081
u	-7.69521
ers	-7.69604
▁often	-7.69678
h	-7.70919
▁period	-7.72314
▁high	-7.72403
en	-7.72448
▁against	-7.73827
k	-7.74364
A	-7.74532
ism	-7.74585
▁John	-7.75222
▁name	-7.7552
▁war	-7.75554
▁country	-7.75733
▁any	-7.75835
",	-7.76365
▁so	-7.76436
▁music	-7.77154
–	-7.7734
▁since	-7.77721
▁end	-7.80072
ion	-7.80411
▁does	-7.81018
ation	-7.81279
st	-7.81371
▁could	-7.8278
to	-7.83037
▁un	-7.83175
1	-7.83353
▁will	-7.83632
▁largest	-7.8386
▁form	-7.84376
▁until	-7.84762
▁public	-7.84933
▁found	-7.85193
▁T	-7.8522
▁As	-7.85812
▁much	-7.85945
▁began	-7.86182
▁second	-7.86434
▁F	-7.86924
2	-7.87314
▁several	-7.8742
ve	-7.87935
F	-7.87993
ar	-7.88004
▁include	-7.88554
▁language	-7.88632
▁work	-7.88947
▁D	-7.90349
▁World	-7.90685
ur	-7.90921
3	-7.914
▁political	-7.9157
—	-7.91919
▁each	-7.91925
▁English	-7.91928
▁European	-7.92008
▁group	-7.92151
▁M	-7.92599
▁same	-7.93262
▁However	-7.93796
▁City	-7.9421
▁North	-7.94339
▁law	-7.94368
▁m	-7.95557
▁20	-7.95579
▁among	-7.95618
▁before	-7.95626
▁around	-7.95682
▁within	-7.96199
▁military	-7.96336
▁those	-7.9639
I	-7.96463
▁2	-7.97432
▁St	-7.98345
is	-7.98424
▁West	-7.98594
ra	-7.98933
el	-7.99331
▁led	-7.99606
▁P	-7.99647
▁16	-8.00044
▁different	-8.00771
▁Chinese	-8.01756
▁modern	-8.0176
B	-8.01786
▁then	-8.01975
▁example	-8.02181
▁non	-8.02452
▁because	-8.02467
▁University	-8.02631
▁3	-8.02657
▁For	-8.03314
▁become	-8.04294
▁him	-8.04548
▁Europe	-8.04571
▁17	-8.04581
▁1	-8.04884
▁long	-8.05145
▁Roman	-8.06401
ist	-8.06494
▁China	-8.06614
▁Greek	-8.06716
z	-8.06909
▁Dur	-8.07196
E	-8.07221
▁US	-8.07786
▁based	-8.07988
▁15	-8.08125
▁control	-8.08366
▁German	-8.08406
▁established	-8.08622
ri	-8.08629
▁water	-8.08957
M	-8.10257
▁After	-8.10259
▁countries	-8.1026
▁important	-8.10796
▁common	-8.10874
▁York	-8.10884
▁Some	-8.11284
ity	-8.11307
▁development	-8.11509
▁France	-8.11619
▁like	-8.1167
ro	-8.11993
▁own	-8.12062
▁season	-8.12177
▁South	-8.12489
▁four	-8.12574
D	-8.12623
▁10	-8.13147
able	-8.13276
▁home	-8.13621
▁There	-8.13834
▁still	-8.13983
▁needed	-8.14233
it	-8.14331
▁G	-8.14347
▁London	-8.14443
▁term	-8.14658
▁By	-8.14934
▁per	-8.1503
N	-8.15384
▁school	-8.1546
▁last	-8.15546
ia	-8.15569
ian	-8.15653
▁May	-8.15688
▁Empire	-8.15846
▁These	-8.16382
▁species	-8.16617
▁considered	-8.16726
▁At	-8.16831
▁region	-8.16897
▁National	-8.1694
▁late	-8.17066
▁R	-8.1711
▁19	-8.17611
ta	-8.17686
man	-8.17928
▁N	-8.18539
▁small	-8.18645
▁due	-8.18726
at	-8.18786
ce	-8.18824
il	-8.18845
um	-8.18887
▁human	-8.19428
ry	-8.19529
▁now	-8.19769
▁life	-8.20025
ne	-8.20089
▁support	-8.20523
▁–	-8.20551
as	-8.20879
▁local	-8.21372
▁if	-8.21524
ent	-8.21762
P	-8.21959
▁areas	-8.22122
▁12	-8.22207
▁back	-8.22803
▁national	-8.22897
▁very	-8.23029
▁even	-8.23442
▁developed	-8.2357
ma	-8.23588
▁groups	-8.23609
▁18	-8.23858
▁5	-8.23924
▁states	-8.24265
▁They	-8.24446
▁she	-8.24457
▁forces	-8.24485
▁social	-8.24504
6	-8.24613
.[	-8.24767
ment	-8.24862
T	-8.25065
▁place	-8.25383
de	-8.26188
hich	-8.2624
li	-8.26624
▁East	-8.26664
▁death	-8.27112
▁members	-8.27141
te	-8.27344
▁another	-8.2808
▁set	-8.28281
O	-8.28304
▁along	-8.28335
ive	-8.28706
▁8	-8.29144
▁film	-8.2938
▁light	-8.30327
▁Soviet	-8.3035
▁religious	-8.30458
▁held	-8.30476
4	-8.30551
▁India	-8.3095
▁V	-8.30982
▁popular	-8.31162
▁capital	-8.31316
▁take	-8.32104
▁air	-8.32333
5	-8.32653
ton	-8.32923
▁An	-8.3295
▁five	-8.33033
▁located	-8.33207
▁day	-8.3334
▁order	-8.33406
L	-8.33444
▁6	-8.33512
▁League	-8.33637
ch	-8.33681
R	-8.34226
▁history	-8.3445
▁England	-8.34655
▁Great	-8.3468
co	-8.35048
▁BC	-8.35535
▁type	-8.35668
▁however	-8.35689
▁energy	-8.35824
id	-8.3611
▁K	-8.36235
▁following	-8.36415
▁Church	-8.36616
▁7	-8.36727
▁°	-8.37116
▁make	-8.37135
▁although	-8.37353
▁few	-8.37359
▁force	-8.37589
▁general	-8.37832
▁various	-8.38479
▁using	-8.38683
▁allow	-8.3875
ir	-8.38826
▁Britain	-8.38834
▁14	-8.39141
▁took	-8.39209
▁main	-8.39317
▁service	-8.39745
▁single	-8.39792
ary	-8.39937
ul	-8.39968
▁De	-8.39994
▁11	-8.4051
▁total	-8.40728
▁culture	-8.41026
▁less	-8.41084
▁13	-8.41142
H	-8.4141
▁O	-8.41517
la	-8.41703
citation	-8.41721
▁4	-8.4198
▁Union	-8.42098
▁July	-8.42143
▁process	-8.42188
▁usually	-8.42289
▁result	-8.4253
▁September	-8.42702
▁June	-8.43227
▁Queen	-8.43582
▁d	-8.43978
▁p	-8.44059
G	-8.44692
▁America	-8.45065
▁African	-8.45365
▁II	-8.45556
▁included	-8.45562
▁north	-8.45649
▁created	-8.4567
▁without	-8.45691
est	-8.45906
▁La	-8.46038
x	-8.46357
▁Paris	-8.46452
ine	-8.47486
▁According	-8.47498
▁built	-8.47551
am	-8.47635
▁President	-8.47781
▁how	-8.47821
▁family	-8.4804
▁down	-8.48081
▁top	-8.48134
ad	-8.48685
▁Where	-8.48767
▁economic	-8.48832
▁2010	-8.48934
f	-8.49119
▁said	-8.49199
▁came	-8.49703
▁influence	-8.50283
▁international	-8.50434
▁original	-8.50547
▁released	-8.50671
▁Victoria	-8.50693
v	-8.50959
▁King	-8.5105
▁rule	-8.51221
▁January	-8.51334
▁average	-8.51455
0	-8.51466
ol	-8.51469
▁former	-8.51586
▁near	-8.51632
ized	-8.51966
▁third	-8.52219
▁age	-8.52405
▁way	-8.52494
▁April	-8.52548
▁land	-8.53011
▁company	-8.53217
▁To	-8.53618
▁Republic	-8.53669
▁study	-8.53737
▁cities	-8.54049
▁official	-8.54079
▁children	-8.5418
et	-8.54553
▁October	-8.54761
▁Many	-8.54813
up	-8.55082
▁body	-8.5515
▁further	-8.55276
▁languages	-8.55365
▁Japanese	-8.55492
age	-8.55683
▁With	-8.56015
▁generally	-8.56253
▁every	-8.5633
▁produced	-8.56462
▁continued	-8.56491
▁significant	-8.56637
▁low	-8.5667
▁post	-8.5669
▁March	-8.56713
▁production	-8.56723
and	-8.5677
▁similar	-8.57013
▁line	-8.57127
▁south	-8.57438
▁present	-8.57571
▁throughout	-8.57872
▁November	-8.57983
▁2011	-8.58426
▁Western	-8.58591
▁schools	-8.58811
▁'	-8.58985
▁Other	-8.59139
▁should	-8.59284
▁L	-8.59473
▁role	-8.59692
w	-8.59873
▁higher	-8.5992
▁men	-8.60028
▁team	-8.60118
▁given	-8.60235
▁km	-8.60536
land	-8.60711
▁Kingdom	-8.60752
▁Russian	-8.60828
▁show	-8.60836
ll	-8.6109
ti	-8.61195
un	-8.61259
▁His	-8.61329
▁H	-8.61563
▁won	-8.61696
▁off	-8.61733
▁e	-8.61779
▁International	-8.61811
nd	-8.61848
▁formed	-8.61936
▁education	-8.62253
▁range	-8.62594
▁Ma	-8.62639
▁army	-8.6271
▁standard	-8.62743
ter	-8.62858
▁School	-8.63139
▁students	-8.63189
▁though	-8.63218
▁pre	-8.63537
▁God	-8.63584
▁great	-8.6371
▁central	-8.63787
▁building	-8.63823
▁played	-8.63867
▁half	-8.63937
ach	-8.63962
▁record	-8.63989
▁2009	-8.64035
▁game	-8.64218
▁free	-8.64274
▁current	-8.64319
▁Spanish	-8.64872
▁December	-8.65134
▁Indian	-8.65187
▁Although	-8.6528
▁times	-8.65333
▁August	-8.65376
os	-8.65386
▁especially	-8.65494
▁Africa	-8.6574
ant	-8.65858
im	-8.65904
▁research	-8.66159
▁natural	-8.66179
▁2006	-8.66535
▁c	-8.66541
ness	-8.66837
▁addition	-8.66869
▁level	-8.67134
▁highest	-8.67254
▁San	-8.67319
▁Army	-8.67513
▁published	-8.6755
▁Germany	-8.67716
▁art	-8.67976
se	-8.68124
▁change	-8.6823
▁parts	-8.68733
▁available	-8.68756
men	-8.68843
▁percent	-8.68886
▁point	-8.68926
na	-8.69084
▁increased	-8.69086
▁received	-8.69305
▁position	-8.69339
▁food	-8.69378
▁General	-8.69399
8	-8.69583
▁series	-8.69704
U	-8.6972
be	-8.69744
The	-8.69834
▁traditional	-8.70088
▁Napoleon	-8.70184
▁island	-8.70325
▁House	-8.7035
▁Act	-8.70375
▁State	-8.70407
▁across	-8.7041
9	-8.70592
ci	-8.70647
▁theory	-8.70649
W	-8.70776
▁One	-8.70893
▁trade	-8.70956
▁systems	-8.70997
▁Beyoncé	-8.70999
▁9	-8.71433
ous	-8.71475
▁billion	-8.71836
▁J	-8.71957
▁Council	-8.71994
▁2007	-8.7203
▁growth	-8.72066
lo	-8.72093
▁River	-8.72237
▁left	-8.72351
▁court	-8.72511
ies	-8.7253
▁sometimes	-8.72547
▁must	-8.72648
▁Re	-8.72863
▁Japan	-8.73311
▁album	-8.73318
▁particularly	-8.73704
▁short	-8.73794
V	-8.7387
▁rate	-8.73882
ni	-8.73904
▁mid	-8.74234
▁named	-8.74237
▁days	-8.74343
▁George	-8.74493
▁College	-8.74663
▁Le	-8.75192
po	-8.75317
▁women	-8.75344
▁announced	-8.75382
▁Al	-8.75468
▁white	-8.75621
▁mi	-8.75633
▁terms	-8.7568
▁al	-8.75792
▁movement	-8.75931
no	-8.76216
▁having	-8.76719
▁play	-8.76925
ba	-8.76992
▁case	-8.77247
▁itself	-8.77266
▁others	-8.77353
▁co	-8.77368
▁word	-8.77392
▁individual	-8.77525
▁introduced	-8.7766
ha	-8.77701
▁six	-8.77784
▁While	-8.77939
▁majority	-8.78031
▁style	-8.78251
▁final	-8.78448
▁Haven	-8.78475
▁Christian	-8.78487
▁rather	-8.78499
▁university	-8.78642
▁lower	-8.78727
▁2012	-8.79088
▁February	-8.79186
▁relative	-8.79707
▁Park	-8.79746
")	-8.79757
▁forms	-8.79782
▁era	-8.798
▁federal	-8.79842
▁founded	-8.79938
▁black	-8.79953
▁making	-8.80045
▁live	-8.80398
▁works	-8.80402
der	-8.80975
▁provide	-8.80979
ut	-8.80996
▁head	-8.81376
é	-8.81397
▁Greece	-8.81507
ca	-8.81606
▁view	-8.81646
▁either	-8.81743
▁brought	-8.81872
▁saw	-8.81888
▁far	-8.81949
▁themselves	-8.82055
▁cultural	-8.82106
me	-8.82165
▁Middle	-8.82438
▁(19	-8.82574
▁Ottoman	-8.82703
▁Latin	-8.8284
ph	-8.82924
▁book	-8.8309
▁allowed	-8.83185
ally	-8.83406
▁Royal	-8.83557
▁thought	-8.83897
▁wrote	-8.83897
▁private	-8.84268
▁industry	-8.84457
▁2014	-8.84509
▁William	-8.84621
▁Asia	-8.84833
▁followed	-8.84857
▁No	-8.84877
▁described	-8.84971
▁aircraft	-8.85134
▁house	-8.85193
▁person	-8.8532
▁remained	-8.85381
▁Chopin	-8.85397
▁anti	-8.85764
▁upon	-8.85781
▁From	-8.85784
▁rock	-8.85826
▁church	-8.85888
▁effect	-8.85961
▁caused	-8.86126
▁increase	-8.86138
▁data	-8.86236
▁just	-8.86374
▁west	-8.86608
▁rights	-8.86959
▁media	-8.87017
▁pro	-8.87096
▁Nasser	-8.8713
▁northern	-8.87132
▁southern	-8.8749
▁financial	-8.87496
▁religion	-8.87724
▁market	-8.87892
ate	-8.88003
▁sexual	-8.88142
▁centuries	-8.88271
▁party	-8.88442
▁president	-8.88484
ts	-8.88533
ka	-8.88589
▁commercial	-8.88668
▁changes	-8.88848
day	-8.8886
▁best	-8.8888
▁foreign	-8.89001
▁Han	-8.89461
▁full	-8.89501
▁strong	-8.89505
▁Catholic	-8.89524
▁ga	-8.89602
▁beginning	-8.89845
▁Island	-8.9013
▁seen	-8.90161
▁class	-8.90225
▁primary	-8.90236
▁written	-8.90315
▁She	-8.90377
▁b	-8.90454
▁model	-8.90553
▁help	-8.90592
▁least	-8.90632
[	-8.90682
em	-8.90771
7	-8.90854
▁Z	-8.91042
▁son	-8.91257
ial	-8.91413
▁almost	-8.91496
▁Mo	-8.91814
▁leading	-8.91878
▁possible	-8.92033
▁certain	-8.92048
▁according	-8.92095
▁contain	-8.92109
▁close	-8.9219
▁Center	-8.92236
based	-8.92253
▁started	-8.92312
▁produce	-8.92354
▁sea	-8.92368
vi	-8.92431
▁self	-8.92764
▁Jewish	-8.92868
▁All	-8.93036
▁services	-8.93155
▁ancient	-8.93252
▁status	-8.93252
▁design	-8.93411
▁Rome	-8.93475
▁right	-8.93535
▁video	-8.93592
▁football	-8.93661
ty	-8.93696
one	-8.93698
▁associated	-8.93716
ie	-8.93751
▁required	-8.93797
▁today	-8.93867
▁start	-8.93984
▁side	-8.93988
▁plant	-8.9412
▁Most	-8.94123
ical	-8.94123
▁color	-8.94145
▁Court	-8.94279
▁program	-8.94305
▁title	-8.94336
▁legal	-8.94538
▁particular	-8.94683
▁events	-8.94833
ling	-8.94889
▁25	-8.94982
▁field	-8.95111
▁construction	-8.9512
per	-8.95259
▁games	-8.95664
tic	-8.95773
ga	-8.95901
mo	-8.9623
go	-8.96234
ac	-8.96365
▁rank	-8.96379
▁troops	-8.9649
▁30	-8.96625
di	-8.96736
ful	-8.96811
▁outside	-8.96819
▁red	-8.96843
▁widely	-8.96937
▁ten	-8.96983
▁Revolution	-8.97343
▁next	-8.97423
▁Israel	-8.97579
ization	-8.97753
ge	-8.97825
▁Battle	-8.97855
▁1990	-8.97862
▁east	-8.98059
▁policy	-8.98064
▁cause	-8.98068
▁Sa	-8.98141
ists	-8.98188
▁Egypt	-8.98196
▁Central	-8.98285
▁independent	-8.98477
▁Italy	-8.98498
▁reported	-8.98607
▁independence	-8.98741
▁action	-8.9876
▁Ba	-8.98969
ke	-8.9898
▁information	-8.99142
▁open	-8.99461
▁companies	-8.99577
▁center	-8.9972
mi	-8.99724
▁old	-8.99739
▁nation	-8.99774
son	-8.99826
▁member	-9.00016
j	-9.00193
▁science	-9.00213
ak	-9.00264
▁plants	-9.00267
▁town	-9.00372
▁western	-9.00457
▁Boston	-9.00478
▁separate	-9.00478
▁Be	-9.00607
▁lost	-9.00671
▁spread	-9.00672
▁Dutch	-9.00735
▁able	-9.00764
▁man	-9.00811
▁Charles	-9.00866
▁character	-9.01137
▁Canada	-9.0114
▁again	-9.01289
▁Emperor	-9.01333
▁Street	-9.01333
▁2000	-9.01372
▁we	-9.01696
less	-9.01779
▁source	-9.01779
▁material	-9.0178
▁meaning	-9.01877
▁instead	-9.02223
▁Co	-9.02253
▁attack	-9.02304
va	-9.0241
▁structure	-9.02495
hu	-9.02696
ated	-9.02742
▁buildings	-9.0284
che	-9.02981
▁cases	-9.03013
▁21	-9.03093
▁mother	-9.03154
▁includes	-9.0321
nt	-9.03239
▁Air	-9.03249
▁moved	-9.03492
▁community	-9.03572
▁scientific	-9.03596
▁Party	-9.03618
▁network	-9.0386
▁Paul	-9.03882
▁direct	-9.0391
▁turn	-9.03934
op	-9.04052
ted	-9.04155
▁dynasty	-9.04254
▁act	-9.04307
ru	-9.04313
▁club	-9.0455
▁refer	-9.04684
▁urban	-9.04989
▁size	-9.05181
▁Australia	-9.05262
▁special	-9.05283
▁coast	-9.0539
▁together	-9.05423
▁health	-9.0552
▁see	-9.05576
▁eventually	-9.05653
▁involved	-9.05709
▁radio	-9.0571
▁base	-9.05712
▁commonly	-9.05959
▁Jews	-9.0618
da	-9.06272
hi	-9.06414
▁business	-9.06462
▁designed	-9.06649
▁sound	-9.06703
▁economy	-9.06795
▁Saint	-9.06814
▁2015	-9.06899
▁return	-9.0691
▁hand	-9.06943
line	-9.06957
▁television	-9.07032
▁Mexico	-9.07055
▁event	-9.07209
he	-9.07211
▁Eastern	-9.0728
▁[	-9.07288
▁organization	-9.074
▁border	-9.07407
▁Bell	-9.07436
▁la	-9.07454
▁Italian	-9.07536
▁join	-9.07683
▁above	-9.07735
▁successful	-9.07766
▁larger	-9.07871
▁limited	-9.07964
▁taken	-9.07998
▁police	-9.08208
▁Since	-9.08447
▁father	-9.08486
▁UK	-9.08503
vo	-9.08569
▁typically	-9.0859
▁summer	-9.08686
om	-9.08702
▁1970	-9.08749
▁mostly	-9.08775
▁greater	-9.0891
▁provided	-9.08914
▁put	-9.08924
ot	-9.09092
▁visit	-9.09143
▁dis	-9.09345
▁living	-9.09429
▁election	-9.09435
▁station	-9.09447
▁2008	-9.09627
▁earlier	-9.09642
mon	-9.09643
pe	-9.09811
▁come	-9.09869
▁territory	-9.09883
▁fact	-9.09884
ure	-9.09913
▁space	-9.09973
▁variety	-9.10124
▁never	-9.10127
ex	-9.10184
▁estimated	-9.10212
▁Ra	-9.10254
▁office	-9.10254
▁give	-9.10266
▁philosophy	-9.10367
▁laws	-9.10442
▁100	-9.10445
ance	-9.10502
▁2005	-9.10521
▁related	-9.10539
▁subject	-9.10839
▁died	-9.10868
▁means	-9.11113
▁site	-9.1146
▁James	-9.11596
out	-9.11726
▁nearly	-9.11735
▁past	-9.11757
▁reached	-9.11772
▁evidence	-9.11832
▁adopted	-9.12
▁Company	-9.12078
ah	-9.12382
▁eastern	-9.12418
tra	-9.12449
▁ground	-9.12481
ner	-9.12537
▁hard	-9.1257
▁months	-9.12705
▁Pa	-9.12866
rs	-9.12928
▁declared	-9.1293
ting	-9.13007
▁working	-9.13066
▁Ta	-9.13122
▁replaced	-9.13136
ors	-9.1331
▁1960	-9.13336
▁empire	-9.1339
▁king	-9.13418
▁run	-9.13433
▁Arab	-9.13447
▁Americans	-9.13519
▁believed	-9.1353
▁date	-9.13816
▁Congress	-9.13819
▁Minister	-9.1382
K	-9.13967
▁rest	-9.14032
▁thus	-9.14077
▁ethnic	-9.14095
▁recent	-9.1414
▁24	-9.14201
▁primarily	-9.1434
▁once	-9.14381
▁v	-9.14423
▁release	-9.14526
▁universities	-9.14575
▁remain	-9.1461
▁personal	-9.14784
▁prevent	-9.14884
▁elements	-9.15045
▁approximate	-9.15078
▁response	-9.15082
▁Gaddafi	-9.15106
▁sub	-9.15145
▁fall	-9.15169
▁served	-9.1522
▁specific	-9.15293
▁famous	-9.15337
50	-9.15378
▁temperature	-9.15443
▁invasion	-9.15592
▁regions	-9.15647
▁1980	-9.15656
▁inter	-9.15691
▁passed	-9.15816
time	-9.15819
▁Melbourne	-9.15866
10	-9.16076
▁Federal	-9.16123
▁annual	-9.16144
▁experience	-9.16344
▁Ireland	-9.16361
▁teams	-9.16457
▁lead	-9.16529
▁powers	-9.16577
▁went	-9.16785
▁active	-9.16826
▁architecture	-9.16879
way	-9.16891
▁rise	-9.16922
▁Old	-9.16977
▁away	-9.17118
▁opened	-9.17198
les	-9.17302
▁types	-9.17353
▁Cup	-9.17531
▁X	-9.17579
▁2004	-9.17679
▁little	-9.17692
▁amount	-9.17792
▁practice	-9.18009
▁child	-9.1802
▁account	-9.18064
▁words	-9.18306
▁interest	-9.18462
▁mass	-9.1863
▁whether	-9.18705
sa	-9.18739
▁sold	-9.18754
▁Museum	-9.19235
▁authority	-9.19251
▁Sea	-9.19279
▁di	-9.19359
▁code	-9.19443
pa	-9.19483
▁parties	-9.19596
▁elected	-9.19685
▁institutions	-9.19809
▁success	-9.19942
▁cross	-9.19951
▁civil	-9.20007
con	-9.20192
▁added	-9.20295
▁nature	-9.20299
▁historical	-9.2046
▁himself	-9.20573
referred	-9.20778
ng	-9.20864
▁create	-9.20917
▁Mary	-9.21063
▁potential	-9.21105
▁glass	-9.21162
▁whom	-9.21184
▁towards	-9.21372
’	-9.21375
▁killed	-9.21557
▁represent	-9.21604
▁g	-9.21604
▁kind	-9.21684
▁Music	-9.21731
▁physical	-9.21946
▁antenna	-9.21956
▁Man	-9.22011
▁originally	-9.221
▁Sun	-9.22129
ide	-9.22141
▁climate	-9.2219
▁cost	-9.22443
▁port	-9.22578
sh	-9.22621
▁operations	-9.22685
▁&	-9.22687
▁directly	-9.22724
▁earliest	-9.22738
▁technology	-9.22738
ize	-9.22988
▁Atlantic	-9.23025
0,000	-9.2304
ect	-9.23155
▁If	-9.2328
▁activity	-9.2329
▁society	-9.23294
ised	-9.23302
▁campaign	-9.23361
▁("	-9.23386
▁remains	-9.23473
ium	-9.23561
▁paper	-9.2365
▁Bar	-9.23761
▁global	-9.23841
▁characters	-9.23895
▁need	-9.2403
▁fire	-9.24037
▁studies	-9.24123
ard	-9.2414
▁professional	-9.24201
▁conflict	-9.24216
▁entire	-9.2446
▁format	-9.24823
▁song	-9.24846
▁gain	-9.24894
▁Tibet	-9.2497
ā	-9.24971
▁Washington	-9.24981
20	-9.25078
▁animals	-9.25173
▁Spain	-9.25238
▁Canadian	-9.25262
▁seven	-9.25352
▁maintain	-9.25374
%	-9.25401
com	-9.25417
▁sense	-9.25521
▁method	-9.25635
▁Russia	-9.257
▁attempt	-9.25731
▁regional	-9.2575
▁Ho	-9.25786
▁Association	-9.25802
▁host	-9.25858
▁AD	-9.25994
▁access	-9.26073
▁Oklahoma	-9.26085
▁Carolina	-9.26086
▁complex	-9.26239
lu	-9.26303
▁domestic	-9.26316
▁2013	-9.26435
▁ever	-9.26539
▁defeat	-9.26739
▁Yale	-9.26964
▁sent	-9.27003
▁Islamic	-9.27058
▁El	-9.27202
▁Black	-9.27299
▁wood	-9.27382
▁soon	-9.27471
▁regard	-9.27591
▁ideas	-9.27625
year	-9.27655
▁con	-9.27773
▁depend	-9.27906
▁deal	-9.27934
▁computer	-9.28048
▁First	-9.28091
▁oil	-9.28114
▁features	-9.28136
▁relationship	-9.283
ber	-9.28446
▁Hall	-9.28577
▁supported	-9.28649
▁content	-9.28674
ey	-9.28675
▁list	-9.28706
ab	-9.28714
▁Ha	-9.28722
▁Henry	-9.28963
▁lack	-9.29072
▁Tibetan	-9.29102
▁concept	-9.29164
▁hours	-9.29253
▁exist	-9.29255
▁Muslim	-9.29271
▁1950	-9.29288
▁Second	-9.293
▁changed	-9.2932
▁too	-9.29379
▁longer	-9.29461
▁latter	-9.29549
▁Albert	-9.29555
▁tradition	-9.29619
▁battle	-9.2979
▁scholars	-9.29814
pi	-9.29834
▁future	-9.29843
▁square	-9.29843
▁software	-9.29844
whose	-9.29845
▁People	-9.29878
▁players	-9.30116
by	-9.30172
▁travel	-9.3022
▁Po	-9.30229
▁Grand	-9.30295
▁Ka	-9.3031
▁issue	-9.30336
▁numerous	-9.30434
▁birds	-9.30438
▁occurred	-9.30439
▁t	-9.30594
ho	-9.30848
▁leader	-9.30861
▁centre	-9.30876
▁discovered	-9.30898
ja	-9.31063
tion	-9.31319
▁levels	-9.31372
▁previous	-9.3141
▁reach	-9.3146
▁feature	-9.31522
od	-9.31612
▁Another	-9.31633
▁might	-9.31646
▁Vi	-9.31674
▁smaller	-9.31771
▁1,	-9.3181
rd	-9.31856
▁Madonna	-9.31973
▁text	-9.32036
▁move	-9.32054
▁lines	-9.32111
▁loss	-9.32138
▁islands	-9.32139
▁believe	-9.322
▁Government	-9.3223
▁pressure	-9.32239
J	-9.3225
espite	-9.32497
▁Southern	-9.3253
▁ft	-9.32546
▁knowledge	-9.32561
▁musical	-9.32576
▁race	-9.32605
▁female	-9.32615
▁helped	-9.32665
ish	-9.32719
▁Red	-9.32854
▁good	-9.32876
▁begin	-9.32948
▁bacteria	-9.3298
▁Eisenhower	-9.33136
▁Institute	-9.33137
▁agreement	-9.33145
▁version	-9.33185
▁recorded	-9.33191
bi	-9.33261
▁wide	-9.33399
▁conditions	-9.33456
▁returned	-9.33465
▁treaty	-9.33479
ions	-9.33718
▁Portugal	-9.33747
▁2003	-9.33788
▁eight	-9.33832
▁Her	-9.33969
▁money	-9.34056
▁winter	-9.34072
▁met	-9.34102
▁performance	-9.34134
min	-9.34176
▁cell	-9.34263
▁heavy	-9.34362
▁mainly	-9.3438
▁proposed	-9.34387
▁car	-9.34396
▁chemical	-9.3445
▁23	-9.34464
▁degree	-9.34473
▁league	-9.3451
▁Department	-9.3467
▁III	-9.34766
▁Ro	-9.34826
▁artists	-9.34834
▁Supreme	-9.3498
▁County	-9.3502
▁units	-9.35059
▁administration	-9.3529
▁responsible	-9.3529
over	-9.35365
▁Force	-9.35514
▁Under	-9.3561
▁find	-9.35645
qu	-9.35676
▁sp	-9.35718
do	-9.35748
▁go	-9.35773
▁classical	-9.35854
▁Ming	-9.35933
▁stated	-9.36042
▁plan	-9.36132
▁appear	-9.36221
▁already	-9.36228
▁Robert	-9.36232
▁Follow	-9.36542
▁origin	-9.36547
▁genetic	-9.36554
▁value	-9.36555
▁2001	-9.36611
▁becoming	-9.36613
▁royal	-9.36779
▁resulted	-9.36839
▁Apple	-9.36867
▁highly	-9.37029
gi	-9.37117
▁electric	-9.37128
▁copper	-9.37174
▁native	-9.37177
▁month	-9.37202
▁via	-9.37231
▁Pope	-9.37283
▁identity	-9.37492
40	-9.37503
▁performed	-9.37522
ver	-9.37525
▁report	-9.37582
▁failed	-9.37627
▁Korea	-9.37649
ship	-9.37692
ler	-9.37816
▁Hu	-9.37935
io	-9.38022
▁tax	-9.38043
▁Buddhism	-9.3813
▁expansion	-9.3813
▁divided	-9.38176
▁defined	-9.38419
▁Richard	-9.38451
▁Mar	-9.38477
cu	-9.38544
▁birth	-9.38758
▁better	-9.38841
▁humans	-9.38893
);	-9.38911
▁22	-9.38912
▁reduce	-9.38941
▁officially	-9.38952
▁whole	-9.39067
▁idea	-9.39093
▁hold	-9.39223
▁develop	-9.39249
▁problems	-9.39334
▁devices	-9.39343
den	-9.3935
▁40	-9.39361
17	-9.39363
▁torch	-9.39422
▁prior	-9.3944
▁middle	-9.39468
▁student	-9.39636
▁training	-9.39665
▁behind	-9.39743
ang	-9.39745
▁worldwide	-9.39762
▁suffer	-9.39815
▁h	-9.39868
▁Se	-9.39908
fluenced	-9.39944
▁approach	-9.39968
▁(18	-9.404
▁products	-9.40559
▁front	-9.40631
▁reason	-9.40669
▁Treaty	-9.40723
▁communities	-9.40723
▁uses	-9.40798
▁launched	-9.40814
ung	-9.40964
ence	-9.41009
led	-9.41011
▁born	-9.41022
▁Why	-9.41052
▁risk	-9.41057
▁Iran	-9.41064
tor	-9.41107
▁focus	-9.41173
mar	-9.41372
▁extreme	-9.41382
▁surface	-9.41382
▁percentage	-9.41422
▁quality	-9.41527
▁increasing	-9.41531
▁methods	-9.41569
▁medical	-9.41714
▁Mu	-9.41717
▁band	-9.41755
▁spoken	-9.4177
▁Tito	-9.41779
▁signed	-9.41951
ology	-9.41952
▁miles	-9.41962
▁get	-9.42022
ecause	-9.42033
▁st	-9.42065
▁Constitution	-9.42106
▁imp	-9.4216
▁Go	-9.42282
▁previously	-9.42286
old	-9.42359
▁residents	-9.42413
▁Portuguese	-9.42483
▁disease	-9.42694
▁Delhi	-9.42713
▁contrast	-9.42713
▁below	-9.42828
▁28	-9.42934
▁Me	-9.43005
▁Pro	-9.4303
▁Thomas	-9.43049
▁pay	-9.43154
▁Armenian	-9.43223
.5	-9.43261
▁critical	-9.43344
▁province	-9.43384
▁Premier	-9.43385
▁AC	-9.43484
▁von	-9.43551
lin	-9.43601
▁Con	-9.4368
▁ability	-9.43687
▁Times	-9.43694
▁real	-9.43702
▁contemporary	-9.43723
▁test	-9.43783
▁me	-9.43812
00	-9.43855
ns	-9.43959
▁Pi	-9.43989
▁tend	-9.44008
▁presence	-9.44063
▁creation	-9.44078
▁sources	-9.44107
▁claimed	-9.44147
▁win	-9.4426
▁Football	-9.44403
▁cannot	-9.44446
▁50	-9.44462
▁Law	-9.44465
for	-9.44478
▁direction	-9.44484
▁definition	-9.44493
▁likely	-9.44537
▁aid	-9.44561
▁churches	-9.44581
▁vote	-9.44605
▁Bay	-9.44703
▁So	-9.4473
fe	-9.44738
▁Lo	-9.44741
▁Earth	-9.44744
ud	-9.44772
▁(1	-9.44804
▁stations	-9.44837
▁decided	-9.4485
▁Bo	-9.44858
of	-9.44906
qui	-9.44939
▁soldiers	-9.44939
▁Prince	-9.44968
ell	-9.45039
▁pain	-9.45166
30	-9.45204
▁Ca	-9.45257
▁appointed	-9.45296
ities	-9.45363
▁prominent	-9.4543
▁brain	-9.45433
▁Sever	-9.45489
▁night	-9.45686
▁clubs	-9.45705
▁grew	-9.45779
▁Lord	-9.45784
▁attacks	-9.45795
▁Windows	-9.45796
▁blue	-9.45851
▁More	-9.45873
▁ended	-9.45909
▁Asian	-9.46007
fa	-9.46053
▁Louis	-9.46177
▁hunting	-9.46223
▁relations	-9.46638
▁granted	-9.4675
▁DNA	-9.46888
▁26	-9.4691
▁Olympic	-9.46917
▁division	-9.46918
tes	-9.46938
▁Egyptian	-9.46973
▁numbers	-9.47017
▁gas	-9.47084
iv	-9.47218
▁contains	-9.47289
our	-9.473
▁f	-9.47421
▁destroyed	-9.47462
▁Nations	-9.47524
▁nine	-9.47528
▁quickly	-9.4754
▁carry	-9.47547
ko	-9.47684
oc	-9.47979
▁consist	-9.48024
2)	-9.48141
▁literature	-9.48222
▁2013,	-9.48239
▁compared	-9.48333
▁project	-9.4843
▁records	-9.4845
▁defeated	-9.48472
▁metal	-9.48491
▁Hill	-9.48503
▁share	-9.48506
▁compos	-9.48535
▁Chicago	-9.48577
▁High	-9.48578
▁Irish	-9.48688
▁individuals	-9.48708
▁competition	-9.48728
▁key	-9.48799
▁Miami	-9.48964
▁r	-9.49052
▁additional	-9.49216
which	-9.49243
▁always	-9.49296
▁flight	-9.49297
▁serve	-9.4934
▁Christ	-9.49431
▁increasingly	-9.49524
▁fourth	-9.49565
▁Pu	-9.49582
▁Orthodox	-9.49689
▁green	-9.49746
▁industrial	-9.49761
ley	-9.49768
▁Dell	-9.49785
▁mixed	-9.49852
▁resulting	-9.4989
▁Su	-9.49999
▁resistance	-9.50011
ory	-9.5007
▁ch	-9.50084
ations	-9.50128
▁growing	-9.50134
▁initially	-9.50163
▁Na	-9.5021
▁efforts	-9.50266
▁basis	-9.50378
▁blood	-9.50419
▁Sir	-9.50449
▁you	-9.50482
ite	-9.50506
▁college	-9.50568
▁district	-9.50571
century	-9.50633
▁Parliament	-9.50731
▁appearance	-9.50744
▁multiple	-9.50758
▁Northern	-9.50776
▁cut	-9.50914
fi	-9.51028
▁placed	-9.51048
▁applied	-9.51095
bo	-9.51112
ob	-9.51127
▁letter	-9.51319
▁territories	-9.5146
▁Imperial	-9.5146
▁continue	-9.51493
▁oldest	-9.51497
mp	-9.51598
▁nations	-9.51598
▁argued	-9.51659
ow	-9.51669
80	-9.51688
▁lived	-9.517
▁mm	-9.51706
▁27	-9.51841
▁Art	-9.51889
ack	-9.51982
▁writing	-9.52123
▁activities	-9.52194
▁orientation	-9.52194
▁Two	-9.52207
▁solar	-9.52214
cy	-9.52217
▁Rock	-9.52223
▁match	-9.52317
▁Gu	-9.52334
tu	-9.52335
▁length	-9.52337
▁officials	-9.52368
▁Armenia	-9.52431
▁Mac	-9.52448
▁board	-9.5249
▁basic	-9.52514
▁Detroit	-9.52563
▁Idol	-9.52563
▁programs	-9.52587
▁indigenous	-9.52595
ya	-9.52705
▁differences	-9.52767
ating	-9.52774
ari	-9.5282
▁decision	-9.52829
▁bring	-9.52873
▁notable	-9.52878
ger	-9.52894
all	-9.52899
▁Kerry	-9.52933
▁campus	-9.53012
ians	-9.53047
▁occur	-9.53196
form	-9.53209
▁function	-9.53233
▁unit	-9.53291
▁Philip	-9.53294
▁Plymouth	-9.53305
▁impact	-9.53311
▁gold	-9.53321
▁offered	-9.53324
▁Port	-9.53339
▁Day	-9.53574
ise	-9.53712
▁o	-9.53896
▁ex	-9.53932
▁cells	-9.53973
▁location	-9.53981
ig	-9.54037
▁purpose	-9.54047
▁consider	-9.5411
side	-9.54264
▁songs	-9.543
▁collection	-9.54383
▁peace	-9.54416
▁Southampton	-9.54429
▁System	-9.54429
▁command	-9.54495
▁equal	-9.54558
▁houses	-9.54559
▁complete	-9.54572
▁decline	-9.54611
▁appeared	-9.54634
▁completed	-9.54663
ov	-9.54681
▁Ga	-9.54727
,000	-9.54774
▁widespread	-9.54806
▁families	-9.54826
tt	-9.54942
ten	-9.54954
▁poor	-9.54969
▁$1	-9.54992
▁stage	-9.54995
▁difficult	-9.55028
▁sales	-9.55066
▁multi	-9.55151
▁Schwarzenegger	-9.55185
▁Tucson	-9.55185
▁existence	-9.55196
▁respectively	-9.55254
▁Society	-9.55565
▁novel	-9.55568
▁internal	-9.55574
▁noted	-9.55599
▁(2	-9.5561
▁agreed	-9.55647
▁frequently	-9.55698
▁gained	-9.55847
▁reign	-9.55991
▁UN	-9.56015
▁raised	-9.56018
▁Y	-9.56044
▁Li	-9.56298
▁Pe	-9.56299
▁matter	-9.56325
▁Alexander	-9.5633
▁Houston	-9.5633
ny	-9.56352
▁reform	-9.56378
▁portion	-9.56477
ina	-9.56489
▁temperatures	-9.56553
▁currently	-9.56577
▁Republican	-9.56603
▁reduced	-9.56834
ius	-9.5687
▁protect	-9.56928
▁Seattle	-9.57101
▁earthquake	-9.57101
▁David	-9.57101
▁Florida	-9.57101
art	-9.57115
tan	-9.57116
▁establishment	-9.57124
▁issues	-9.57162
▁round	-9.5723
▁racial	-9.57256
like	-9.57354
red	-9.57387
▁operating	-9.57492
▁treatment	-9.57497
▁therefore	-9.575
▁sports	-9.57505
▁security	-9.57512
▁2008,	-9.57734
▁films	-9.57736
▁situation	-9.57877
▁victory	-9.57877
▁Polish	-9.57979
▁constitution	-9.58015
▁derived	-9.58033
▁Edward	-9.5827
▁colonies	-9.58271
▁property	-9.58276
▁minority	-9.58288
▁Civil	-9.58297
▁Pacific	-9.58338
▁White	-9.58396
ological	-9.58398
ong	-9.58487
▁beyond	-9.5866
▁relay	-9.58681
▁object	-9.58691
▁speech	-9.58953
giving	-9.5906
▁heart	-9.59072
▁county	-9.59156
ham	-9.59265
▁distinct	-9.59352
▁speed	-9.59777
▁contract	-9.59831
▁Christianity	-9.59913
que	-9.5997
▁citizens	-9.59973
ana	-9.5999
▁Islands	-9.60068
▁ago	-9.60128
▁Australian	-9.60147
etropolitan	-9.60207
▁enough	-9.60247
rat	-9.60364
pro	-9.60364
▁clear	-9.60427
▁marked	-9.60453
▁consists	-9.60497
ris	-9.60539
▁thousands	-9.60552
▁Ages	-9.60575
mer	-9.60614
▁executive	-9.60644
▁floor	-9.60686
▁Lee	-9.60723
ible	-9.60743
▁problem	-9.60745
par	-9.6082
▁generation	-9.60888
▁expanded	-9.60898
tro	-9.60964
▁k	-9.61022
▁capacity	-9.61046
▁exchange	-9.61046
25	-9.6109
▁taking	-9.61148
▁damage	-9.6126
▁break	-9.61409
▁intended	-9.61438
▁sought	-9.61454
▁populations	-9.61482
ick	-9.61482
han	-9.61531
▁books	-9.61565
uc	-9.6157
war	-9.61572
bit	-9.61599
▁Ar	-9.61866
▁Ch	-9.61887
▁carried	-9.61899
▁Human	-9.61952
▁settlement	-9.6201
▁cover	-9.62219
▁Bronx	-9.6226
▁simple	-9.62261
▁Fort	-9.62293
▁income	-9.62337
▁insects	-9.62425
▁environment	-9.62436
60	-9.62595
ster	-9.62655
lan	-9.62659
▁iPod	-9.62669
▁nuclear	-9.62669
▁provides	-9.62689
▁defence	-9.62715
▁route	-9.62842
▁Over	-9.62862
▁young	-9.62923
▁Pre	-9.6293
▁attempted	-9.62962
ay	-9.63011
ran	-9.63073
▁Spielberg	-9.63078
▁Airport	-9.63089
▁effects	-9.63156
▁Di	-9.63158
▁recognized	-9.63179
za	-9.63256
ill	-9.63425
▁press	-9.63471
▁Diego	-9.6349
▁memory	-9.6349
field	-9.63896
▁extended	-9.63897
▁supply	-9.63903
▁Office	-9.63996
▁identified	-9.64025
▁USB	-9.64061
▁receive	-9.64112
▁effective	-9.64142
▁Estonia	-9.64146
▁male	-9.64158
▁formal	-9.64234
▁phase	-9.64259
▁doctrine	-9.64318
▁Ocean	-9.64318
▁Internet	-9.64319
▁leaders	-9.64427
▁store	-9.64455
▁practices	-9.64456
▁ha	-9.64484
▁product	-9.64568
ign	-9.64573
▁meeting	-9.64633
▁opposition	-9.64735
▁Prime	-9.64756
▁essential	-9.64792
▁Virginia	-9.64898
▁shown	-9.65083
▁Te	-9.65094
▁daily	-9.65156
▁alternative	-9.65158
▁reference	-9.65168
▁materials	-9.65188
▁1940	-9.6519
▁Communist	-9.65216
▁true	-9.65232
▁artist	-9.65257
▁featured	-9.65284
▁ships	-9.65291
▁starting	-9.65495
▁Apollo	-9.65573
▁digital	-9.65574
▁instance	-9.65575
▁academic	-9.6561
▁Darwin	-9.6568
▁river	-9.65703
▁refused	-9.65724
▁Somali	-9.65724
▁ruled	-9.65761
ier	-9.65796
see	-9.65804
▁ma	-9.65838
fer	-9.66218
▁2,	-9.66234
▁hit	-9.66276
▁affect	-9.66283
▁Prussian	-9.66288
▁accepted	-9.66405
▁influential	-9.66419
▁Palace	-9.66424
▁rules	-9.66426
▁zinc	-9.66481
▁claim	-9.66481
▁Green	-9.66495
ious	-9.6665
▁union	-9.66654
▁decade	-9.66696
.7	-9.66711
▁signal	-9.6684
▁Richmond	-9.66845
▁Nanjing	-9.66871
▁follow	-9.66878
▁dance	-9.66888
▁Ko	-9.66904
▁shows	-9.66922
du	-9.67005
▁Am	-9.67022
▁expected	-9.6705
▁launch	-9.67061
ji	-9.67087
▁older	-9.67129
ning	-9.67175
▁attract	-9.67197
▁revolution	-9.67262
▁importance	-9.67276
▁planned	-9.67279
▁scale	-9.67412
▁worked	-9.67585
▁read	-9.67595
▁career	-9.67596
▁developing	-9.67608
ative	-9.67622
▁console	-9.67701
8%	-9.67731
ries	-9.67937
▁monarch	-9.67992
▁instruments	-9.68026
▁recently	-9.68071
▁liberal	-9.68132
▁Whitehead	-9.68137
▁Poland	-9.68166
ev	-9.68245
70	-9.68269
▁behavior	-9.68406
▁controlled	-9.68415
▁airport	-9.6849
▁makes	-9.68564
▁emperor	-9.68565
▁Thus	-9.68606
▁contact	-9.68625
▁secondary	-9.68707
ug	-9.68782
istic	-9.68791
ator	-9.68819
▁regular	-9.68828
▁heat	-9.68876
ps	-9.68908
▁Mediterranean	-9.69
▁cotton	-9.69
▁uranium	-9.69001
▁audio	-9.69001
▁Cha	-9.69037
such	-9.69088
▁organizations	-9.692
▁But	-9.69238
▁concert	-9.69362
▁Both	-9.69377
▁patent	-9.69405
▁failure	-9.69441
▁broadcast	-9.69461
▁electrical	-9.69535
▁describe	-9.69669
▁section	-9.69821
▁Committee	-9.69875
▁council	-9.69899
▁sa	-9.69978
▁elections	-9.69983
▁200	-9.69996
▁lands	-9.70013
▁flag	-9.7012
▁strength	-9.70272
▁migration	-9.70378
▁Qing	-9.70388
▁Ad	-9.70481
▁advanced	-9.70498
▁permanent	-9.70544
▁results	-9.70662
if	-9.70665
▁genes	-9.70704
▁/	-9.70743
▁Avenue	-9.70758
▁Buddhist	-9.70758
▁Jesus	-9.70758
▁author	-9.70769
▁Modern	-9.70793
▁except	-9.7082
▁decades	-9.70913
▁perform	-9.71001
▁our	-9.71006
▁dogs	-9.7103
▁components	-9.71051
king	-9.71111
▁Arsenal	-9.71203
X	-9.71206
▁tribes	-9.71224
▁governor	-9.7127
▁unique	-9.71347
▁slaves	-9.71352
▁issued	-9.71576
▁texts	-9.71611
▁District	-9.71649
▁Festival	-9.71649
▁Switzerland	-9.71649
15	-9.71669
▁mean	-9.71671
cal	-9.71713
including	-9.71725
▁Pan	-9.7173
American	-9.71733
▁VI	-9.71805
▁rail	-9.71836
▁regarded	-9.71957
▁call	-9.71964
wi	-9.71987
▁week	-9.72
▁29	-9.72083
▁kingdom	-9.72097
▁spring	-9.72105
▁yet	-9.72112
▁dialect	-9.72148
▁TV	-9.72174
▁Austria	-9.7233
▁reflect	-9.72434
ou	-9.72442
gen	-9.72529
▁Ge	-9.7253
▁story	-9.72569
▁minister	-9.72582
▁carbon	-9.72588
▁opposed	-9.72589
dy	-9.72621
ki	-9.72645
▁course	-9.72707
▁script	-9.72729
ever	-9.72801
tal	-9.72852
▁recording	-9.72872
▁imperial	-9.72897
▁Barcelona	-9.73
og	-9.73025
▁cultures	-9.73062
▁Or	-9.73074
&	-9.73084
▁marriage	-9.73097
ck	-9.73099
▁formation	-9.73159
▁Dame	-9.73203
▁Records	-9.73215
▁factors	-9.73252
▁represented	-9.73361
und	-9.7339
▁keep	-9.73422
off	-9.73437
▁evolution	-9.73444
her	-9.73447
▁request	-9.73455
▁California	-9.73455
▁article	-9.73455
▁Secretary	-9.73458
▁greatest	-9.7352
▁turned	-9.73522
bu	-9.73526
▁playing	-9.736
most	-9.7361
▁Prussia	-9.73727
▁road	-9.73825
cent	-9.73841
▁avoid	-9.73882
▁crisis	-9.73912
▁split	-9.73916
end	-9.74079
▁chief	-9.74119
har	-9.74183
▁organisms	-9.74202
▁mandolin	-9.7437
▁toward	-9.74406
▁surrounding	-9.7446
▁foundation	-9.74473
▁en	-9.74475
▁Along	-9.74475
▁label	-9.74488
ai	-9.74492
▁shared	-9.74622
▁gene	-9.74645
▁adult	-9.74686
▁meet	-9.74763
▁transfer	-9.7483
▁Czech	-9.74831
▁downtown	-9.74848
▁lie	-9.74858
▁colonial	-9.74865
▁element	-9.74881
▁emerged	-9.74885
let	-9.74892
▁CD	-9.74951
▁Time	-9.75055
▁achieved	-9.75109
▁standards	-9.75181
▁vi	-9.7523
▁faith	-9.75281
▁labour	-9.75294
▁Xbox	-9.75296
▁motor	-9.75353
▁necessary	-9.75365
ju	-9.75379
▁Science	-9.75384
▁semi	-9.75432
.1	-9.75462
▁officers	-9.7552
▁Korean	-9.75529
▁speak	-9.75579
▁(4	-9.75733
▁Texas	-9.75759
▁studio	-9.75786
▁occupied	-9.75812
▁beer	-9.75818
(	-9.7587
house	-9.75878
▁running	-9.75887
▁viewed	-9.76069
▁broke	-9.76105
▁31	-9.76123
▁intellectual	-9.76226
▁Early	-9.76277
▁device	-9.76334
▁newspaper	-9.76337
▁Har	-9.76372
▁animal	-9.76412
▁Santa	-9.76443
spite	-9.76463
port	-9.76469
▁movements	-9.76534
aw	-9.76542
▁resources	-9.76561
▁60	-9.76612
▁simply	-9.76696
▁done	-9.76696
▁zone	-9.76697
▁rates	-9.76724
▁Navy	-9.76743
my	-9.7676
▁Protestant	-9.76779
▁application	-9.76819
▁meant	-9.76856
▁Fa	-9.76908
ita	-9.77073
▁Group	-9.77174
tri	-9.77194
▁reasons	-9.77241
▁negative	-9.77285
▁effort	-9.77303
▁iron	-9.77324
▁examples	-9.77372
▁tried	-9.77497
▁i	-9.77538
forced	-9.77541
▁branch	-9.77542
▁theories	-9.77607
▁1989	-9.77642
▁equipment	-9.77642
▁suggest	-9.77674
van	-9.77721
known	-9.77729
kin	-9.77734
▁Turkish	-9.77742
▁Persian	-9.77762
12	-9.77765
▁remaining	-9.77772
▁Christians	-9.77781
▁quarter	-9.77818
▁significantly	-9.77892
▁broad	-9.77973
▁teaching	-9.7802
▁establish	-9.7802
▁Also	-9.78125
▁weeks	-9.78132
▁Min	-9.78144
▁communication	-9.78284
▁department	-9.78294
▁extensive	-9.78379
▁Later	-9.78407
▁Libya	-9.78424
▁Best	-9.78449
▁Do	-9.78462
▁goal	-9.7852
▁differ	-9.78562
▁medieval	-9.78596
▁headquarters	-9.78596
▁Theatre	-9.78598
▁BBC	-9.78614
▁Da	-9.78652
▁player	-9.78681
▁characteristics	-9.787
ep	-9.78708
▁say	-9.78854
ile	-9.78905
▁users	-9.78917
▁transport	-9.7903
ff	-9.79067
▁fleet	-9.7909
▁Super	-9.79094
▁1997	-9.79096
▁1920	-9.79126
▁combined	-9.79133
▁sex	-9.79147
▁Arm	-9.79163
▁administrative	-9.79163
▁finally	-9.79187
▁BCE	-9.79209
▁director	-9.79211
ze	-9.7925
▁captured	-9.79267
▁offer	-9.79342
▁se	-9.79478
Y	-9.79501
▁Joseph	-9.7956
▁management	-9.7957
▁suggested	-9.7957
▁things	-9.79598
▁dog	-9.7964
▁upper	-9.79683
▁letters	-9.79754
▁ratio	-9.79781
▁structures	-9.80035
▁names	-9.80096
▁discovery	-9.80151
ft	-9.8016
▁Mi	-9.80197
▁j	-9.80247
▁drug	-9.80268
▁degrees	-9.80413
▁towns	-9.80444
▁peak	-9.8046
▁add	-9.80465
▁ancestry	-9.80533
▁literary	-9.80533
▁1999	-9.80551
▁advantage	-9.80709
▁(3	-9.80711
19	-9.80774
▁classes	-9.8078
▁Alaska	-9.81025
▁Burke	-9.81031
work	-9.81183
set	-9.81223
▁tree	-9.81278
▁sector	-9.81308
▁learning	-9.81353
▁Islam	-9.81379
▁maintained	-9.81384
▁secret	-9.81407
▁points	-9.81416
ik	-9.81438
▁wave	-9.81474
af	-9.8148
▁respect	-9.81513
▁Anglo	-9.81516
▁alliance	-9.81517
▁peoples	-9.81526
▁Democratic	-9.81543
▁Bank	-9.81553
▁face	-9.81565
▁dominant	-9.81604
▁ways	-9.81631
des	-9.81807
▁applications	-9.81882
▁bar	-9.81888
▁Byzantine	-9.82011
▁Hyderabad	-9.82011
▁fell	-9.82028
▁extend	-9.82051
▁height	-9.82067
▁pure	-9.8211
▁showed	-9.82153
▁notably	-9.8218
▁removed	-9.82203
▁counter	-9.82228
▁constant	-9.82291
▁subsequent	-9.82292
▁fully	-9.82369
▁attention	-9.82509
▁Turkey	-9.8251
▁defense	-9.82536
▁traffic	-9.82542
▁prime	-9.82544
▁1930	-9.8255
ria	-9.82596
▁stop	-9.82696
▁limit	-9.82815
ward	-9.82831
with	-9.82865
▁look	-9.82932
▁Enlightenment	-9.83028
▁hydrogen	-9.83067
wood	-9.83147
speaking	-9.8319
▁greatly	-9.83221
▁singer	-9.83259
▁machine	-9.83343
▁demand	-9.83392
q	-9.83409
kh	-9.83418
▁build	-9.83436
▁Holy	-9.83438
▁threat	-9.83464
▁accept	-9.83487
▁kept	-9.83511
▁visited	-9.83525
▁Order	-9.83529
▁owned	-9.83553
▁ice	-9.83619
act	-9.83629
▁overall	-9.83643
ring	-9.8375
▁initial	-9.83801
▁workers	-9.8386
▁entered	-9.83923
▁Un	-9.83964
▁Presbyterian	-9.84016
▁choice	-9.84016
▁titles	-9.84022
▁dialects	-9.84025
▁leadership	-9.84033
▁closely	-9.84052
▁Notre	-9.84055
Z	-9.84058
br	-9.84131
▁plans	-9.84333
▁bill	-9.8435
▁places	-9.84393
▁Per	-9.84493
▁audience	-9.84524
▁trading	-9.84524
▁Helena	-9.84524
▁Neumann	-9.84525
▁transmission	-9.84526
▁extent	-9.84527
▁Native	-9.84563
▁protection	-9.84586
▁deep	-9.84751
sha	-9.84777
▁constructed	-9.84797
▁investment	-9.85042
▁Philadelphia	-9.85049
▁weapons	-9.85051
▁Car	-9.85065
▁le	-9.85196
ble	-9.85213
▁Mountains	-9.85358
val	-9.85375
▁Nigeria	-9.854
▁cast	-9.85406
▁principle	-9.85429
au	-9.85477
▁authorities	-9.85556
▁credit	-9.85573
▁Sp	-9.85617
▁pop	-9.85626
▁ship	-9.8578
▁diet	-9.858
▁caus	-9.85807
7%	-9.85828
▁Ja	-9.85833
▁awarded	-9.85875
▁mis	-9.85884
▁constitutional	-9.85924
▁transition	-9.85927
14	-9.8597
▁combination	-9.86062
▁housing	-9.86063
▁fought	-9.86063
▁sh	-9.8607
▁Tennessee	-9.86086
▁care	-9.86154
▁frequency	-9.86164
▁settled	-9.8618
▁dominated	-9.86187
▁affected	-9.86206
▁Fr	-9.86267
▁flow	-9.8633
▁rapid	-9.8637
▁tour	-9.86402
▁know	-9.86464
▁magazine	-9.86473
▁Scotland	-9.8658
▁heavily	-9.86581
▁Ku	-9.86592
▁Universal	-9.86656
▁organized	-9.86704
▁popularity	-9.86722
▁ideal	-9.86865
▁improve	-9.86884
ese	-9.86919
▁online	-9.86974
▁understanding	-9.87
▁census	-9.87
▁wanted	-9.87002
lam	-9.87101
▁Education	-9.87101
▁honor	-9.87102
▁target	-9.87114
▁probably	-9.87143
6%	-9.87248
▁Slavic	-9.87264
▁sc	-9.87275
▁PC	-9.87384
▁writers	-9.87456
▁charge	-9.87461
79	-9.87463
▁composition	-9.87631
▁Book	-9.87679
▁distinction	-9.87721
▁Arabic	-9.87771
▁bit	-9.87862
▁actually	-9.87905
▁require	-9.87934
▁Q	-9.88068
▁FA	-9.88113
▁document	-9.88134
▁Academy	-9.88151
▁daughter	-9.88151
▁Club	-9.88151
▁Hayek	-9.88152
▁Valley	-9.88155
▁trans	-9.88165
▁Cor	-9.88181
▁Mexican	-9.88184
▁evolved	-9.88193
▁send	-9.882
▁Jo	-9.8843
▁historic	-9.88508
▁Census	-9.8868
▁biological	-9.88687
pp	-9.88836
▁elevator	-9.89174
▁Of	-9.89193
▁analysis	-9.89212
▁married	-9.89212
▁medicine	-9.89212
wa	-9.89213
▁vast	-9.89264
▁ultimately	-9.89299
▁positive	-9.89366
▁Lu	-9.89458
▁conduct	-9.89519
▁actual	-9.89531
ven	-9.89582
bar	-9.89673
▁Microsoft	-9.89747
▁naval	-9.89751
▁railway	-9.89777
▁Three	-9.8979
▁fifth	-9.89843
▁screen	-9.89851
▁Free	-9.89932
▁declined	-9.90024
90	-9.90065
▁count	-9.90141
▁Ru	-9.90157
▁Cyprus	-9.90285
▁Elizabeth	-9.90285
▁review	-9.90298
▁inspired	-9.90299
▁Four	-9.90366
▁leg	-9.90466
▁En	-9.90513
▁grow	-9.90521
can	-9.90601
▁Tuvalu	-9.90726
▁parliament	-9.90802
▁politics	-9.90825
▁palace	-9.90825
▁reforms	-9.90827
▁Governor	-9.90845
ability	-9.90996
izing	-9.91002
▁arrived	-9.91011
▁mountain	-9.91104
ave	-9.91219
▁provid	-9.91234
ged	-9.91239
▁versions	-9.91295
▁fundamental	-9.91369
▁freedom	-9.91382
▁movie	-9.91391
▁emphasis	-9.91403
▁stay	-9.91428
▁Chief	-9.91428
▁density	-9.91457
▁powerful	-9.91488
ash	-9.91513
▁super	-9.91514
▁Sh	-9.91523
ified	-9.91541
ight	-9.91567
▁improved	-9.91575
▁severe	-9.91705
▁Du	-9.9177
▁mo	-9.91776
▁contribut	-9.9182
▁connected	-9.91829
▁existing	-9.91894
▁(5	-9.91909
▁Public	-9.91915
▁technical	-9.91915
▁Swiss	-9.91915
▁website	-9.91916
▁taught	-9.91918
▁Though	-9.91918
▁desert	-9.91919
▁Ni	-9.9195
▁benefit	-9.91952
▁colony	-9.91957
now	-9.91985
▁voltage	-9.91996
–19	-9.92014
▁concern	-9.92016
▁Mon	-9.92073
▁Bill	-9.92212
▁properties	-9.92467
▁Among	-9.92474
▁selection	-9.92499
▁sequence	-9.92518
▁mind	-9.92525
▁...	-9.92617
▁Bra	-9.92633
27	-9.92713
16	-9.92722
Q	-9.92745
▁don	-9.92859
▁w	-9.92978
ˈ	-9.93001
▁fuel	-9.93017
rian	-9.93039
▁Th	-9.93042
▁Lake	-9.93072
▁price	-9.93098
zi	-9.93124
▁covered	-9.93125
▁pass	-9.9313
▁Muslims	-9.93138
▁dry	-9.93148
▁ordered	-9.932
▁newly	-9.93211
pt	-9.9326
called	-9.93268
▁determined	-9.93301
▁joint	-9.93441
▁policies	-9.93573
▁creating	-9.93576
▁Quran	-9.93591
▁traditions	-9.9367
▁Live	-9.93733
▁scientists	-9.93784
▁weight	-9.93818
▁Col	-9.93856
▁techniques	-9.93988
▁courts	-9.94033
▁regime	-9.94119
▁genocide	-9.94131
▁Commonwealth	-9.94131
▁Tower	-9.94141
35	-9.94163
▁image	-9.94217
▁interpretation	-9.94238
▁Russians	-9.94245
▁comes	-9.94276
▁revealed	-9.94383
term	-9.94408
▁serious	-9.9448
▁Commission	-9.94532
▁Near	-9.94583
▁Research	-9.94693
ō	-9.94693
▁chain	-9.94694
▁staff	-9.94695
▁Neptune	-9.94702
chi	-9.94712
▁operation	-9.94749
▁gradually	-9.94756
▁completely	-9.95017
▁opening	-9.95065
▁facilities	-9.95258
▁Comcast	-9.95259
▁educational	-9.95289
▁chosen	-9.95315
▁subsequently	-9.95505
▁supporters	-9.95599
▁debate	-9.9563
sen	-9.95668
▁acts	-9.95751
▁PlayStation	-9.95826
▁Square	-9.95826
car	-9.95829
▁kilometres	-9.9583
▁maximum	-9.9583
▁Northwestern	-9.95852
▁revenue	-9.95975
▁crime	-9.95975
▁hundred	-9.96019
▁successor	-9.96186
▁ring	-9.96268
▁objects	-9.96274
▁news	-9.96308
town	-9.96311
isation	-9.96389
▁copies	-9.96398
▁Division	-9.96399
▁manufacturing	-9.96433
▁operate	-9.96448
▁Sanskrit	-9.96524
▁Ya	-9.96542
▁MP	-9.96582
▁losses	-9.96587
▁Up	-9.96684
cha	-9.96703
▁track	-9.96746
▁allies	-9.96751
▁achieve	-9.96862
▁Gra	-9.9696
▁progress	-9.96987
▁Town	-9.96988
▁Manhattan	-9.97008
▁destroy	-9.97012
▁managed	-9.97062
▁Dan	-9.97126
▁speakers	-9.9715
▁figures	-9.97187
gan	-9.97244
▁street	-9.97276
▁Ann	-9.97351
▁Cl	-9.9748
▁0	-9.97513
ü	-9.9755
▁Frederick	-9.9755
▁fine	-9.9761
▁immediately	-9.97696
▁component	-9.97748
▁belief	-9.97749
tus	-9.9775
ada	-9.97761
use	-9.97847
▁values	-9.97881
▁involve	-9.97911
▁Award	-9.97917
▁ca	-9.97926
▁ran	-9.97946
rate	-9.97949
▁cur	-9.9797
▁Namibia	-9.98132
▁combat	-9.98132
▁Major	-9.98142
▁frame	-9.98321
▁pi	-9.98321
▁traditionally	-9.98357
▁dead	-9.98383
▁translation	-9.98439
▁Estonian	-9.98475
▁graduate	-9.98558
▁distribution	-9.98717
▁strategy	-9.98717
▁Medical	-9.98719
▁Catalan	-9.98732
▁Age	-9.98755
▁Summer	-9.98791
ix	-9.98831
▁continent	-9.98941
▁paid	-9.9895
▁pattern	-9.9895
▁guns	-9.98959
▁Sch	-9.98983
xi	-9.99019
yn	-9.99108
▁shape	-9.99109
▁listed	-9.99112
▁testing	-9.99125
light	-9.99224
▁historians	-9.99235
▁Greeks	-9.99263
▁arts	-9.99267
▁environmental	-9.99289
▁Nintendo	-9.99305
▁provinces	-9.99307
▁snow	-9.99328
▁conservative	-9.99333
▁concluded	-9.99359
cor	-9.9938
tin	-9.99409
▁saying	-9.99423
▁reading	-9.9952
▁brother	-9.99559
rr	-9.99576
▁stores	-9.99599
▁bi	-9.99599
▁double	-9.99701
▁bird	-9.99704
75	-9.99751
▁experienced	-9.99751
▁normal	-9.99761
▁l	-9.99827
▁Brazil	-9.99832
▁Ri	-9.99842
▁minor	-9.99861
▁Buddha	-9.99897
▁1994	-9.99917
▁assent	-10
▁Bible	-10.0006
85	-10.0006
▁continues	-10.0012
▁leave	-10.0017
▁difference	-10.0017
°	-10.0026
▁Awards	-10.0029
ants	-10.0029
▁entirely	-10.0036
▁Arts	-10.0039
▁closed	-10.0042
▁Dr	-10.0043
▁prey	-10.0045
etween	-10.0048
▁Raleigh	-10.0049
▁leaving	-10.0049
▁felt	-10.0049
▁Development	-10.005
▁debt	-10.005
▁roughly	-10.0052
▁table	-10.0059
▁enter	-10.0061
▁agricultural	-10.0067
▁presented	-10.0074
▁ensure	-10.0078
back	-10.009
▁display	-10.009
▁grant	-10.0092
head	-10.0093
▁strike	-10.0109
▁inhabitants	-10.0109
▁copyright	-10.011
▁criticism	-10.0113
▁favor	-10.0115
▁li	-10.0124
▁want	-10.0125
▁360	-10.0126
▁seasons	-10.0127
ata	-10.0132
lm	-10.0134
▁protest	-10.0135
▁employed	-10.0135
▁attempts	-10.0141
▁electronic	-10.0142
▁factor	-10.0144
▁promoted	-10.015
.5%	-10.0151
▁expressed	-10.0154
▁Sand	-10.0158
▁block	-10.016
▁lives	-10.0163
▁Can	-10.0167
í	-10.0167
▁Assembly	-10.0169
▁hub	-10.0169
▁introduction	-10.017
▁Warsaw	-10.017
▁Board	-10.0171
▁Marshall	-10.0174
▁promote	-10.018
▁convert	-10.0182
▁parents	-10.0183
ons	-10.0183
▁500	-10.0187
med	-10.0189
▁2002	-10.019
▁70	-10.0209
ford	-10.0211
ned	-10.0218
▁goods	-10.0223
▁Library	-10.023
▁diversity	-10.023
▁scheme	-10.023
▁woman	-10.023
▁1998	-10.0232
we	-10.0235
▁approved	-10.0235
▁Dis	-10.024
▁bands	-10.024
▁lay	-10.0242
34	-10.0247
ily	-10.0251
á	-10.0254
▁rapidly	-10.0255
▁rejected	-10.026
punk	-10.0272
▁stone	-10.0275
ue	-10.0278
vis	-10.0282
▁producer	-10.0289
▁fields	-10.029
78	-10.0291
ə	-10.0291
▁BYU	-10.0291
▁solution	-10.0291
▁piano	-10.0292
▁Duke	-10.0292
▁intelligence	-10.0294
▁That	-10.0295
▁electricity	-10.0297
45	-10.0302
▁(17	-10.0306
22	-10.0311
▁Israeli	-10.0322
▁mentioned	-10.0328
▁attended	-10.0334
▁Tri	-10.0338
21	-10.0345
▁fighting	-10.0346
▁conducted	-10.0347
▁IBM	-10.0352
▁virtual	-10.0352
▁classification	-10.0354
▁1992	-10.0354
▁Even	-10.0356
▁Tom	-10.0367
▁Hong	-10.0373
▁45	-10.0374
▁gun	-10.0387
▁measures	-10.0389
+	-10.0393
ens	-10.0399
65	-10.0411
▁Muhammad	-10.0414
▁architectural	-10.0414
▁disc	-10.0414
▁Digimon	-10.0414
▁Crown	-10.0418
▁Cross	-10.0418
▁soft	-10.0423
▁carriers	-10.0424
▁ball	-10.0429
dian	-10.0432
▁del	-10.0432
▁Princess	-10.0437
▁reports	-10.0443
▁my	-10.0453
▁figure	-10.0454
gh	-10.0454
▁scene	-10.0454
▁Game	-10.0458
▁formally	-10.046
▁Los	-10.0465
▁wear	-10.0465
▁Kathmandu	-10.0476
▁Manchester	-10.0476
▁advocat	-10.0476
▁armies	-10.0477
▁1945	-10.0479
▁wall	-10.048
▁determine	-10.0483
▁slow	-10.0484
▁feet	-10.0484
▁acquired	-10.0491
▁clothing	-10.0491
▁banks	-10.0496
▁claims	-10.0498
▁80	-10.0503
onic	-10.0509
▁score	-10.0512
class	-10.0515
▁slave	-10.0515
48	-10.0516
▁retained	-10.0518
but	-10.0524
▁bank	-10.053
ax	-10.0536
▁arms	-10.0538
▁anthropology	-10.0539
▁fresh	-10.0539
▁genome	-10.0539
▁theatre	-10.0542
▁specifically	-10.0542
▁stand	-10.0548
▁occurs	-10.0555
▁publication	-10.0555
▁Valencia	-10.0563
▁Ben	-10.0568
▁drugs	-10.0573
ef	-10.058
").	-10.0585
▁Land	-10.0585
well	-10.0587
▁classified	-10.0603
▁indicate	-10.0603
▁diseases	-10.0605
▁output	-10.0605
▁Bi	-10.0605
▁equivalent	-10.0607
▁strongly	-10.0608
▁mere	-10.0611
▁explain	-10.0616
▁Martin	-10.0616
gar	-10.0618
-1	-10.0619
▁Rights	-10.0622
▁pope	-10.0626
cho	-10.063
mor	-10.063
▁projects	-10.0639
▁user	-10.0651
▁coup	-10.0651
▁hot	-10.0654
77	-10.0665
▁vacuum	-10.0665
▁Bermuda	-10.0665
▁Prize	-10.0665
▁cr	-10.0667
▁slavery	-10.0667
▁2016	-10.0669
▁serving	-10.0675
▁ph	-10.0683
▁incorporated	-10.0686
▁focused	-10.0695
▁actions	-10.0698
proved	-10.07
23	-10.0701
▁parent	-10.0716
▁fight	-10.0716
ara	-10.072
▁concerns	-10.0724
▁governments	-10.0725
▁secular	-10.0729
scale	-10.073
▁1988	-10.0731
▁reduction	-10.0731
▁promotion	-10.0733
▁massive	-10.0735
▁Yugoslavia	-10.0737
▁Ti	-10.0744
▁proportion	-10.0745
je	-10.0749
▁rose	-10.075
ama	-10.0763
▁Forces	-10.0771
▁typical	-10.0771
▁goals	-10.0772
▁78	-10.079
▁twice	-10.0793
▁library	-10.0793
▁stadium	-10.0793
▁universe	-10.0793
▁appeal	-10.0793
▁winner	-10.0795
▁1995	-10.0795
▁1996	-10.0795
▁micro	-10.0795
▁nearby	-10.0797
▁sites	-10.0797
▁strategic	-10.0798
▁et	-10.0803
▁Bush	-10.0804
▁capable	-10.0805
▁park	-10.0807
▁holds	-10.0814
▁aspects	-10.082
▁Star	-10.0826
▁na	-10.0833
▁Station	-10.0834
▁write	-10.0836
▁rare	-10.0837
▁proper	-10.0838
▁du	-10.0842
ek	-10.0842
▁edition	-10.0845
▁narrow	-10.0857
▁usage	-10.0859
▁Long	-10.0861
▁setting	-10.0864
▁warm	-10.0869
▁gender	-10.0869
▁sell	-10.087
▁express	-10.0871
▁Netherlands	-10.0878
▁computers	-10.0879
▁cm	-10.0882
ans	-10.0884
-2	-10.0889
▁effectively	-10.0891
▁origins	-10.0892
▁institution	-10.0894
water	-10.0907
▁mosaic	-10.0912
▁carrier	-10.0915
ome	-10.0917
44	-10.0919
presidential	-10.0921
▁exercise	-10.0922
▁separation	-10.0922
▁Allied	-10.0922
▁nobility	-10.0923
▁background	-10.0923
▁dedicated	-10.0923
▁renamed	-10.0924
▁efficiency	-10.0929
▁Peter	-10.093
18	-10.0931
▁think	-10.0942
▁fl	-10.0946
24	-10.0956
▁whereas	-10.0963
▁universal	-10.0966
▁statement	-10.0969
bre	-10.097
▁ruler	-10.0973
av	-10.0973
▁runs	-10.0975
ī	-10.0987
▁YouTube	-10.0987
▁radical	-10.0987
▁1941	-10.0987
▁Ibn	-10.0988
▁DST	-10.099
▁alone	-10.0993
▁referr	-10.0997
ade	-10.0997
▁inside	-10.1
▁functions	-10.1004
zo	-10.1008
▁practical	-10.101
▁existed	-10.103
76	-10.1043
note	-10.1048
▁moving	-10.1053
▁Brown	-10.1053
▁societies	-10.1053
▁Wood	-10.1053
vin	-10.1054
▁directed	-10.1062
cc	-10.1074
▁big	-10.1083
▁Austrian	-10.1085
uk	-10.1089
▁define	-10.1103
▁My	-10.1106
▁die	-10.1107
▁gods	-10.1109
▁household	-10.1114
▁association	-10.1115
▁favour	-10.1117
▁Michael	-10.1119
▁external	-10.1119
▁legislation	-10.1119
▁proposal	-10.1119
▁storage	-10.1119
▁Cathedral	-10.1119
▁Southeast	-10.1119
ini	-10.112
▁90	-10.112
▁salt	-10.112
▁Foundation	-10.1121
▁Report	-10.1122
▁documents	-10.1127
▁(16	-10.1127
▁Antarctica	-10.1131
▁shift	-10.1133
▁colleges	-10.1149
▁acid	-10.1166
▁hosted	-10.1167
▁Cubs	-10.1167
▁causes	-10.1168
▁aim	-10.117
▁ocean	-10.117
▁markets	-10.1175
res	-10.1177
▁draw	-10.1183
▁condition	-10.1183
▁contribute	-10.1184
▁clock	-10.1185
▁Carnival	-10.1186
▁Pakistan	-10.1186
▁Stadium	-10.1186
▁FBI	-10.1186
▁wife	-10.1186
▁diverse	-10.1186
▁concentration	-10.1189
▁1979	-10.119
▁asked	-10.119
▁feed	-10.119
▁Wales	-10.1192
▁sport	-10.1195
-19	-10.1199
▁Fox	-10.1199
az	-10.1219
39	-10.1221
▁friends	-10.1221
▁Ju	-10.1223
▁Due	-10.1228
▁challenge	-10.1234
len	-10.1235
▁onto	-10.1237
are	-10.1242
55	-10.1249
▁Hospital	-10.1253
▁conquest	-10.1253
▁silver	-10.1253
▁steel	-10.1253
▁prompt	-10.1253
▁connect	-10.1253
▁divine	-10.1253
▁consumption	-10.1253
▁invented	-10.1254
▁items	-10.1255
▁shot	-10.1256
▁Baptist	-10.1259
▁attacked	-10.1265
▁relationships	-10.1273
shi	-10.1275
▁Ki	-10.1281
▁wars	-10.1282
▁sign	-10.1284
▁Ph	-10.1286
▁continental	-10.1287
▁room	-10.1298
ino	-10.1301
▁You	-10.1301
iff	-10.1305
▁converted	-10.1307
▁mayor	-10.1315
▁budget	-10.1321
▁firm	-10.1321
▁Service	-10.1321
▁Popper	-10.1321
▁principal	-10.1327
▁Today	-10.1328
▁Sony	-10.133
▁etc	-10.1331
▁star	-10.1333
In	-10.1335
26	-10.1339
▁channel	-10.1348
▁immigrants	-10.1352
▁protests	-10.1354
▁mission	-10.1356
▁fe	-10.1357
▁armed	-10.1357
top	-10.1365
▁And	-10.1368
▁voice	-10.1369
▁Germanic	-10.1375
▁36	-10.1376
▁sq	-10.1378
tr	-10.1379
▁affairs	-10.1384
▁Punjab	-10.1389
▁ceremony	-10.1389
▁search	-10.1389
▁vocal	-10.1389
▁fashion	-10.1389
▁Organization	-10.1389
▁residential	-10.1389
▁satellite	-10.1392
▁Power	-10.1394
▁lowest	-10.1399
▁br	-10.1401
▁Life	-10.1402
▁requires	-10.1402
▁matches	-10.1407
▁cable	-10.1409
▁LEDs	-10.1415
98	-10.1416
▁positions	-10.1435
▁Che	-10.1436
▁35	-10.144
▁exception	-10.1447
▁religions	-10.145
also	-10.1455
▁Renaissance	-10.1457
▁mechanical	-10.1457
▁rural	-10.1457
▁dropped	-10.1458
▁GDP	-10.1458
▁something	-10.1459
▁auto	-10.1461
▁phrase	-10.1464
▁expression	-10.1469
▁assumed	-10.1475
▁obtain	-10.1477
84	-10.1479
▁operated	-10.1481
▁originated	-10.1483
▁Gr	-10.1486
▁mountains	-10.1489
▁Command	-10.1499
▁patterns	-10.1499
▁link	-10.1503
96	-10.1507
▁Cr	-10.1515
68	-10.1525
▁tr	-10.1526
▁Myanmar	-10.1526
▁Standard	-10.1526
▁Like	-10.1529
▁Sunday	-10.153
▁scholar	-10.1532
▁antibiotics	-10.1533
▁offices	-10.1534
▁da	-10.1536
▁address	-10.1537
▁writes	-10.1539
▁tri	-10.1539
ging	-10.1542
▁longest	-10.1544
▁monarchy	-10.1549
▁soul	-10.1551
born	-10.1559
▁master	-10.1562
don	-10.1564
97	-10.1565
▁seek	-10.1569
▁cult	-10.158
▁compounds	-10.1582
▁annually	-10.1585
▁Out	-10.1589
▁Fu	-10.1594
▁seat	-10.1595
▁Peninsula	-10.1596
▁expensive	-10.1596
▁filament	-10.1596
▁industries	-10.1596
▁weather	-10.1596
▁agencies	-10.1596
▁Police	-10.1596
▁safety	-10.1597
▁perception	-10.1597
▁membership	-10.16
▁accompani	-10.1601
▁studied	-10.1601
▁convention	-10.1602
▁Ali	-10.1603
rt	-10.1603
▁possibly	-10.1604
ani	-10.1615
▁walls	-10.162
▁solo	-10.1622
ock	-10.1624
▁minutes	-10.1624
▁Inter	-10.1628
▁Romans	-10.1639
▁apply	-10.1641
▁Fe	-10.1647
mic	-10.1654
▁invention	-10.1655
▁grounds	-10.1657
ric	-10.1664
▁calendar	-10.1666
▁seems	-10.167
▁formerly	-10.167
▁150	-10.1672
▁cent	-10.1678
▁manager	-10.1682
▁distance	-10.169
▁drop	-10.1693
▁noble	-10.1695
38	-10.1696
▁ban	-10.1696
▁roots	-10.17
▁serves	-10.1704
29	-10.1707
▁views	-10.1712
lat	-10.1716
▁god	-10.1723
▁weak	-10.1733
▁task	-10.1737
▁About	-10.1737
▁considerable	-10.1742
▁Third	-10.1742
etic	-10.1748
ura	-10.1749
▁hands	-10.1749
ification	-10.1751
▁celebrated	-10.1752
▁Men	-10.1754
▁landing	-10.1754
▁sciences	-10.1756
▁core	-10.1758
▁couple	-10.1759
▁Games	-10.176
▁DC	-10.1761
lying	-10.1764
▁We	-10.1772
▁Mer	-10.1779
ei	-10.1779
▁Ver	-10.178
▁purchase	-10.1787
lia	-10.179
▁sun	-10.1791
71	-10.18
▁Columbia	-10.1802
87	-10.1802
▁Frank	-10.1807
▁Anglican	-10.1807
▁Field	-10.1807
▁conference	-10.1807
▁physics	-10.1807
▁ruling	-10.1807
▁sister	-10.1808
▁cold	-10.1809
▁diplomatic	-10.1814
▁adopt	-10.1825
▁researchers	-10.183
▁conquered	-10.1833
▁models	-10.1834
▁app	-10.1856
place	-10.1862
▁spoke	-10.1866
nate	-10.1867
▁neighbor	-10.1878
▁substance	-10.1878
▁Marvel	-10.1878
▁cappella	-10.1879
▁forward	-10.188
▁copy	-10.188
▁1964	-10.1881
▁parallel	-10.1888
▁rival	-10.1892
,[	-10.1895
▁thousand	-10.1895
emp	-10.1895
▁vary	-10.1901
▁representation	-10.1905
▁spen	-10.1909
▁Tra	-10.1913
amp	-10.1927
▁load	-10.1927
race	-10.1931
▁bus	-10.1932
▁instrument	-10.1934
▁collapse	-10.1936
US	-10.1943
▁successfully	-10.1944
pre	-10.195
▁wild	-10.195
▁Zealand	-10.195
▁legislature	-10.195
▁wealth	-10.1951
▁1993	-10.1953
▁Light	-10.1953
▁1939	-10.1953
▁Gothic	-10.1962
▁experiment	-10.1963
▁300	-10.1967
▁principles	-10.197
▁demonstrated	-10.1971
▁coming	-10.1979
▁reduc	-10.1983
▁selected	-10.1989
▁guard	-10.199
▁Post	-10.1992
28	-10.1993
ars	-10.1993
▁critics	-10.1995
▁love	-10.1998
64	-10.2011
▁races	-10.2016
74	-10.202
▁Massachusetts	-10.2023
▁agriculture	-10.2023
▁opinion	-10.2023
▁kill	-10.2023
▁1978	-10.2026
▁perceived	-10.2029
▁transportation	-10.203
▁laid	-10.203
▁interests	-10.2035
▁visible	-10.2041
▁protected	-10.2042
▁museum	-10.2043
▁useful	-10.2045
▁$2	-10.2046
▁earth	-10.2047
▁hosts	-10.2054
▁PS	-10.2056
▁mode	-10.2065
▁retain	-10.2067
tz	-10.2073
ray	-10.2074
▁networks	-10.2077
run	-10.2079
▁featur	-10.2087
▁Francis	-10.2093
▁replace	-10.2095
▁Kanye	-10.2096
▁receiving	-10.2096
▁survey	-10.2096
▁Security	-10.2096
▁residence	-10.2096
▁1971	-10.2099
▁Is	-10.2113
tern	-10.2116
ez	-10.2118
▁producing	-10.2118
▁pe	-10.2143
▁pair	-10.2144
▁bombing	-10.2147
▁substantial	-10.2147
5,000	-10.2151
ː	-10.2169
▁perhaps	-10.2169
▁quantum	-10.2169
▁medium	-10.2169
▁rainfall	-10.2169
▁Health	-10.217
▁trend	-10.217
▁Ex	-10.217
▁attendance	-10.217
Ma	-10.2173
▁funds	-10.2174
low	-10.2175
▁alongside	-10.2175
▁1991	-10.2175
▁corruption	-10.2178
▁purposes	-10.2181
ville	-10.2183
▁Beijing	-10.2184
▁argue	-10.2187
ae	-10.2188
▁nor	-10.2196
▁partial	-10.2198
▁sides	-10.2199
▁connection	-10.2199
▁protein	-10.2202
▁Mc	-10.221
▁appears	-10.2213
88	-10.2218
▁Si	-10.2219
▁Part	-10.2221
▁Qu	-10.2223
▁dates	-10.2227
▁emotion	-10.223
▁belong	-10.2233
▁3,	-10.2233
α	-10.2243
▁fiber	-10.2243
▁incident	-10.2243
▁encoding	-10.2244
▁Convention	-10.2244
▁Billboard	-10.2244
▁criticized	-10.2245
▁Bureau	-10.2246
▁subjects	-10.2247
▁Additionally	-10.2248
▁slightly	-10.225
▁folk	-10.225
▁Video	-10.2254
▁democracy	-10.2255
▁skin	-10.2256
▁funding	-10.226
▁Song	-10.2262
▁Bas	-10.2266
▁organism	-10.2275
▁bridge	-10.2284
▁volume	-10.2285
.4%	-10.2286
board	-10.2312
▁Bri	-10.2317
▁Sichuan	-10.2318
▁occupation	-10.2318
▁1974	-10.2321
uff	-10.2324
▁alcohol	-10.2325
▁Real	-10.2327
ular	-10.2327
▁persons	-10.2336
73	-10.2337
▁Iranian	-10.2338
95	-10.2339
▁founding	-10.2342
ition	-10.2344
▁valley	-10.2348
dia	-10.2348
▁circuit	-10.2352
▁musicians	-10.2354
▁suggests	-10.2369
yl	-10.2371
▁ending	-10.2376
vent	-10.2376
▁Somerset	-10.2379
▁votes	-10.2383
py	-10.2387
▁kings	-10.239
▁easily	-10.2393
▁penalty	-10.2393
▁technologies	-10.2393
▁Nepal	-10.2393
▁solid	-10.2393
▁settlers	-10.2395
▁train	-10.2395
▁1985	-10.2397
▁visitors	-10.2397
▁Road	-10.2398
▁Angeles	-10.2398
▁execution	-10.2399
lor	-10.2405
▁offers	-10.2405
▁begun	-10.2408
ites	-10.2409
▁storm	-10.2412
▁succeeded	-10.2413
▁eggs	-10.2416
state	-10.2421
burg	-10.2421
▁republic	-10.2421
▁limits	-10.2424
▁card	-10.2431
▁males	-10.2434
ice	-10.2434
ole	-10.2443
▁obtained	-10.2447
▁Iraq	-10.2456
▁symbol	-10.2462
▁Through	-10.2463
ert	-10.2463
▁400	-10.2468
▁approval	-10.2469
▁categories	-10.2469
▁platform	-10.2469
▁Berlin	-10.2469
▁buy	-10.2469
▁compression	-10.247
▁radiation	-10.247
▁extra	-10.247
▁professor	-10.247
▁meat	-10.2475
▁Such	-10.248
▁advance	-10.2485
▁measure	-10.2487
82	-10.2488
▁styles	-10.2491
▁Germans	-10.2491
ates	-10.2496
pri	-10.2499
▁judge	-10.2503
▁Carl	-10.2506
▁trees	-10.2506
EC	-10.251
ctor	-10.2516
▁newspapers	-10.2527
bal	-10.2536
▁going	-10.2536
▁concerned	-10.2537
mu	-10.254
▁Jay	-10.2545
▁Corporation	-10.2545
▁destruction	-10.2545
ö	-10.2545
▁march	-10.2545
▁treaties	-10.2546
42	-10.255
▁Master	-10.255
08	-10.2554
▁describes	-10.2562
more	-10.2563
▁box	-10.2567
▁fear	-10.2579
▁mechanism	-10.2582
not	-10.2583
▁expand	-10.2592
▁here	-10.2594
ram	-10.2595
▁evening	-10.2598
▁programme	-10.2608
▁Boy	-10.2609
ose	-10.2612
▁tons	-10.2613
▁commander	-10.2613
▁separated	-10.2613
▁Radio	-10.2615
86	-10.2615
▁Hindu	-10.2618
▁assist	-10.2619
▁Vienna	-10.2622
▁Prior	-10.2622
▁Castle	-10.2623
▁Freemasonry	-10.2623
▁History	-10.2624
▁else	-10.2624
▁otherwise	-10.2627
▁elevators	-10.2628
▁reality	-10.2629
▁regulations	-10.2637
▁plain	-10.2637
pan	-10.2639
▁offering	-10.2641
bert	-10.2644
▁charter	-10.2646
▁invaded	-10.2647
▁observed	-10.2654
▁happened	-10.2657
▁Hy	-10.2661
▁web	-10.2664
▁relation	-10.2671
33	-10.2674
erto	-10.2681
▁Syria	-10.2683
▁processes	-10.2685
▁cycle	-10.2687
▁organ	-10.2688
▁(6	-10.2688
▁rulers	-10.2692
style	-10.2698
▁Sam	-10.27
▁responsibility	-10.27
▁comprehensive	-10.27
▁database	-10.27
▁poet	-10.2701
▁apart	-10.2702
▁Connecticut	-10.2703
▁investigation	-10.2704
▁Sc	-10.2705
bel	-10.272
▁understand	-10.2722
▁Blue	-10.2725
▁award	-10.2729
▁flat	-10.273
▁variation	-10.2741
▁outer	-10.2762
▁capture	-10.2765
level	-10.2774
4%	-10.2777
▁Unicode	-10.2778
▁Stalin	-10.2778
▁changing	-10.2778
▁agency	-10.2779
▁precipitation	-10.2779
▁Zhejiang	-10.2782
▁Johnson	-10.2795
▁Code	-10.2796
▁photo	-10.2808
▁normally	-10.2813
▁forest	-10.2814
▁compris	-10.2829
ranging	-10.2833
▁selling	-10.2835
▁bo	-10.2836
▁fat	-10.2837
58	-10.2838
▁officer	-10.2848
▁Burma	-10.2853
▁Vietnam	-10.2856
▁Hellenistic	-10.2857
▁populous	-10.2857
▁push	-10.2857
▁Scottish	-10.2857
▁marine	-10.2857
▁Montana	-10.2857
▁Daily	-10.2857
▁descent	-10.2857
▁1986	-10.286
▁Guam	-10.2862
ore	-10.2864
▁tourism	-10.2864
▁Liberal	-10.2865
▁Minor	-10.2868
long	-10.2869
▁passengers	-10.2869
▁watch	-10.2869
rich	-10.2875
▁decisions	-10.2879
▁identify	-10.2886
▁engineering	-10.2888
▁measured	-10.289
lis	-10.2891
▁govern	-10.2892
▁pan	-10.2895
▁efficient	-10.2896
99	-10.2902
▁Year	-10.2905
▁safe	-10.2907
▁participate	-10.2916
▁recognize	-10.2916
▁insect	-10.2918
ges	-10.2931
▁spirit	-10.2936
▁opportunity	-10.2936
▁1972	-10.2936
▁comparison	-10.2936
ks	-10.2941
▁employees	-10.2942
▁—	-10.2945
▁tube	-10.2947
lav	-10.2955
▁fast	-10.2957
▁lighting	-10.2959
▁Piu	-10.2967
-20	-10.2969
▁winning	-10.2969
▁LED	-10.2985
▁pieces	-10.2993
▁10,000	-10.2997
▁performances	-10.2997
western	-10.2998
66	-10.2998
▁aspect	-10.3
point	-10.3013
▁Feynman	-10.3016
▁absolute	-10.3016
▁Building	-10.3016
▁Foreign	-10.3016
▁USSR	-10.3016
▁Championship	-10.3016
▁exposure	-10.3016
▁ser	-10.3016
▁Before	-10.3016
▁Ashkenazi	-10.3017
▁Mount	-10.3017
▁composer	-10.3018
▁1969	-10.3018
▁somewhat	-10.3019
ica	-10.302
67	-10.302
▁festivals	-10.3029
▁branches	-10.3033
▁inches	-10.3035
▁Love	-10.3037
lum	-10.3038
▁comprise	-10.3044
▁faced	-10.3048
▁120	-10.3054
lock	-10.3065
▁linked	-10.3073
row	-10.3074
▁hundreds	-10.3076
▁Jim	-10.3082
We	-10.3085
▁sin	-10.3089
▁biggest	-10.3097
▁Business	-10.3097
▁internet	-10.3097
▁mainstream	-10.3098
SA	-10.3099
▁1982	-10.31
▁sufficient	-10.31
▁discussion	-10.3108
▁Maria	-10.3112
volving	-10.3112
▁encouraged	-10.3115
▁survived	-10.3115
▁attributed	-10.3116
ress	-10.3119
▁distinguish	-10.312
▁abandoned	-10.3121
▁accused	-10.3123
▁rarely	-10.3124
air	-10.3129
▁correct	-10.3132
▁founder	-10.3136
▁sounds	-10.3137
met	-10.3142
▁Hispanic	-10.3152
tre	-10.3162
▁habitat	-10.3166
atic	-10.3168
▁sixth	-10.3172
nic	-10.3175
▁Taiwan	-10.3177
▁Athanasius	-10.3178
▁Defence	-10.3178
▁samurai	-10.3178
▁wrestling	-10.3178
▁truth	-10.3178
▁Norfolk	-10.3178
▁assistance	-10.3179
▁path	-10.3179
▁comics	-10.318
att	-10.318
▁1966	-10.3181
▁Gar	-10.3181
▁motion	-10.3182
▁Centre	-10.3183
▁merged	-10.3185
▁possession	-10.3188
37	-10.3189
ral	-10.3194
uit	-10.3196
ably	-10.3202
▁Not	-10.3205
▁Ed	-10.3206
▁Somalia	-10.321
evolutionary	-10.3212
▁bear	-10.3214
47	-10.3225
▁streets	-10.3232
wing	-10.3235
ola	-10.3236
ena	-10.3238
▁frequent	-10.3238
ula	-10.3244
▁bomb	-10.3244
▁Ancient	-10.326
▁episode	-10.326
▁1956	-10.326
▁grand	-10.326
▁quite	-10.3261
▁dress	-10.3262
▁1949	-10.3263
▁poetry	-10.3263
▁1967	-10.3263
▁executed	-10.3264
▁(15	-10.3264
▁coverage	-10.3265
▁4,	-10.3265
▁driven	-10.3272
ically	-10.3273
▁Stone	-10.3275
▁drive	-10.3275
32	-10.3278
▁purchased	-10.3282
▁victims	-10.3289
▁rain	-10.3291
▁file	-10.3305
▁Mark	-10.3307
500	-10.3318
▁struggle	-10.3323
who	-10.3327
▁artillery	-10.3342
▁enemy	-10.3342
▁twenty	-10.3342
▁committee	-10.3343
▁seats	-10.3343
▁Everton	-10.3343
▁Senate	-10.3344
largest	-10.3344
▁metres	-10.3345
▁Alps	-10.3346
▁restored	-10.335
▁2010.	-10.3351
▁designated	-10.3352
▁discipline	-10.3353
▁33	-10.3357
▁fixed	-10.3359
▁threatened	-10.3361
▁rec	-10.3362
▁Kong	-10.3365
▁65	-10.3377
▁finished	-10.3381
▁wind	-10.3389
▁hip	-10.3393
late	-10.3396
▁38	-10.3398
94	-10.3398
▁fo	-10.3404
▁aimed	-10.3406
▁infection	-10.3406
▁consumer	-10.3408
lim	-10.3413
▁stock	-10.3419
▁te	-10.3425
▁neighbour	-10.3426
▁mathematics	-10.3426
▁resolution	-10.3426
▁violence	-10.3426
▁telephone	-10.3426
▁mobile	-10.3426
▁initiative	-10.3427
▁passage	-10.3429
▁1987	-10.3429
▁1944	-10.3429
▁harm	-10.343
▁1880	-10.3432
▁1900	-10.3435
▁characterized	-10.3437
▁fan	-10.3441
▁rich	-10.3455
los	-10.3455
▁centers	-10.3458
▁Philippines	-10.346
▁forming	-10.3463
▁earn	-10.3468
iz	-10.3473
▁attend	-10.3478
log	-10.3489
▁characteristic	-10.3495
▁prices	-10.35
▁Ke	-10.3505
▁Labour	-10.351
▁facility	-10.351
▁Alfred	-10.351
▁Link	-10.351
▁Community	-10.3511
▁moment	-10.3511
▁stating	-10.3513
▁1968	-10.3513
body	-10.3515
▁asphalt	-10.3519
▁pitch	-10.3519
lar	-10.3519
▁mosaics	-10.3523
▁fans	-10.3529
bacterial	-10.353
▁Eli	-10.3534
▁suit	-10.354
▁IV	-10.3541
▁Bre	-10.3541
▁soil	-10.3547
▁farm	-10.3561
▁covers	-10.3564
illa	-10.3569
▁divisions	-10.3571
ker	-10.3585
▁com	-10.3591
63	-10.3592
▁Taylor	-10.3595
▁mathematical	-10.3595
▁bodies	-10.3595
▁mutual	-10.3595
▁interior	-10.3595
▁senior	-10.3595
▁transmitter	-10.3595
▁1984	-10.3598
▁trial	-10.3599
▁preferred	-10.3603
▁Cork	-10.3603
▁told	-10.3604
chen	-10.3606
▁mainland	-10.3608
▁scheduled	-10.3613
ban	-10.3616
▁EU	-10.3621
▁planet	-10.3622
hol	-10.363
sch	-10.3633
▁got	-10.3636
49	-10.3641
▁suburbs	-10.3651
▁orchestra	-10.3652
ney	-10.3659
▁standing	-10.3659
$	-10.3661
▁varying	-10.3663
▁festival	-10.3666
▁passenger	-10.3666
▁adults	-10.3668
▁lamp	-10.367
▁poly	-10.3678
▁alphabet	-10.368
▁varies	-10.3681
▁reaction	-10.3682
▁Metro	-10.3684
▁stem	-10.3684
▁1975	-10.3684
▁extinction	-10.3685
▁sort	-10.3687
▁Film	-10.3687
▁occasionally	-10.3689
ography	-10.3691
▁integrated	-10.3695
▁initiated	-10.3698
gas	-10.3712
▁leads	-10.3717
▁Hi	-10.3717
9%	-10.3726
▁fish	-10.374
▁wine	-10.3745
▁immediate	-10.3745
▁learn	-10.3746
▁engine	-10.3747
▁Far	-10.3748
▁Bur	-10.3759
▁Sports	-10.3763
kar	-10.3766
▁Ministry	-10.3766
▁extension	-10.3766
▁worship	-10.3767
▁criminal	-10.3767
▁Young	-10.3768
▁NES	-10.3769
▁Congo	-10.377
▁1976	-10.377
▁Dominican	-10.3771
▁Classical	-10.3778
▁va	-10.3784
▁Bond	-10.3786
gue	-10.3793
▁feel	-10.3803
▁am	-10.3804
▁beat	-10.3807
▁canon	-10.3809
▁judges	-10.3811
▁generated	-10.3815
▁voted	-10.3816
▁Bro	-10.3822
81	-10.3824
▁strict	-10.3831
▁killing	-10.3836
▁balance	-10.3836
▁ports	-10.3839
arm	-10.3844
▁mammals	-10.3845
ologist	-10.3846
▁repeated	-10.3847
▁albums	-10.3851
▁nickname	-10.3853
▁casualties	-10.3853
▁bought	-10.3853
▁estate	-10.3856
▁su	-10.3856
▁classic	-10.3856
▁recordings	-10.3859
post	-10.386
▁Americas	-10.3861
▁Nor	-10.3865
rk	-10.3874
▁amounts	-10.3882
▁$3	-10.3887
ero	-10.3892
▁debut	-10.39
▁needs	-10.3908
▁communications	-10.391
▁emotional	-10.391
It	-10.3921
▁decrease	-10.3921
▁encourage	-10.3921
▁survive	-10.3921
▁motors	-10.3926
▁y	-10.3932
east	-10.3933
▁genre	-10.3934
▁immun	-10.3937
▁error	-10.3941
▁1961	-10.3941
▁hardware	-10.3942
▁export	-10.3942
▁adj	-10.3944
▁matters	-10.3944
ira	-10.3944
▁Gold	-10.3945
▁medal	-10.3946
▁1914	-10.3946
▁arrival	-10.3947
▁clean	-10.3949
▁dollar	-10.3949
▁Sumerian	-10.3949
▁estimates	-10.3951
TV	-10.3956
▁thing	-10.3966
ali	-10.3976
93	-10.398
▁Bal	-10.3983
uch	-10.3983
ku	-10.3988
▁print	-10.399
▁seem	-10.4
▁Top	-10.4003
▁2013.	-10.4004
▁ties	-10.4016
▁costs	-10.4016
▁Wu	-10.402
▁bombers	-10.4021
rie	-10.4026
▁sovereign	-10.4028
▁minimum	-10.4029
▁Champions	-10.403
▁Bern	-10.403
▁planning	-10.4031
▁Home	-10.4032
▁doing	-10.4036
▁geographical	-10.4041
▁Wii	-10.4041
▁Van	-10.4042
▁Shell	-10.4042
fu	-10.4044
▁pet	-10.4047
▁establishing	-10.4048
▁talk	-10.4049
▁Abu	-10.4052
▁accounts	-10.4053
▁conception	-10.4055
jo	-10.4065
fold	-10.4071
▁expedition	-10.4071
era	-10.4078
▁journalist	-10.4085
91	-10.4093
▁Eritrea	-10.4104
▁elite	-10.4118
ν	-10.4119
▁Economic	-10.4119
▁Obama	-10.4119
▁Reserve	-10.4119
▁Ukrainian	-10.4119
▁diarrhea	-10.4119
▁throne	-10.4119
▁Jerusalem	-10.4119
▁finance	-10.4119
▁AFL	-10.4119
▁coalition	-10.4119
▁Justice	-10.4119
▁personnel	-10.4119
▁Roger	-10.4121
▁Francisco	-10.4122
▁1963	-10.4122
law	-10.4122
▁1918	-10.4123
▁intention	-10.4124
▁Around	-10.4125
update	-10.4126
from	-10.4127
book	-10.4132
▁concepts	-10.4137
▁exhibit	-10.4147
▁roads	-10.4151
die	-10.4151
gal	-10.4154
▁Head	-10.4156
▁districts	-10.4158
▁experiences	-10.4159
▁regularly	-10.4164
▁tun	-10.4165
▁electro	-10.4167
▁note	-10.4167
▁1000	-10.4172
▁northwest	-10.4175
▁says	-10.4176
▁beliefs	-10.4178
▁Olympics	-10.4183
▁Galicia	-10.4193
▁adolescents	-10.4206
▁64	-10.4206
▁retail	-10.4208
▁Independence	-10.4209
▁controversy	-10.4209
▁conversion	-10.4209
▁elevation	-10.4209
▁1953	-10.4209
▁neither	-10.4209
▁asthma	-10.421
▁CE	-10.421
▁Gulf	-10.421
▁pub	-10.4211
ibn	-10.4211
▁manner	-10.4214
▁Low	-10.4214
▁adoption	-10.4214
▁increases	-10.4215
▁Fair	-10.4217
▁Charleston	-10.4219
▁32	-10.4221
▁targets	-10.4225
▁worth	-10.4227
▁wider	-10.4233
▁Plan	-10.4234
▁journal	-10.4239
▁Sar	-10.4239
▁implemented	-10.425
IC	-10.4269
▁orders	-10.4272
ella	-10.4274
▁hour	-10.4276
mm	-10.4279
▁jobs	-10.4282
▁seed	-10.4287
”	-10.43
▁Conference	-10.43
▁Technology	-10.43
▁recognition	-10.43
▁uniform	-10.43
▁huge	-10.43
▁overseas	-10.43
▁Arbor	-10.43
▁kingdoms	-10.4301
▁guide	-10.4301
▁philosophical	-10.4302
phone	-10.4303
▁1911	-10.4304
▁adaptation	-10.4307
▁predators	-10.4309
▁relief	-10.4309
ok	-10.4317
▁resigned	-10.4317
▁engaged	-10.4321
▁Chi	-10.433
▁construct	-10.4338
▁plays	-10.4338
▁cab	-10.4338
▁appoint	-10.434
–18	-10.4343
ire	-10.4344
▁des	-10.4345
ew	-10.4345
▁cool	-10.4345
lay	-10.4347
.2%	-10.4352
▁Big	-10.4352
▁arm	-10.4357
stra	-10.4361
ute	-10.4375
ped	-10.4375
▁necessar	-10.4377
▁bishops	-10.438
▁Social	-10.4386
▁cuisine	-10.4391
▁description	-10.4391
▁supplies	-10.4391
▁temporary	-10.4391
▁yellow	-10.4391
▁par	-10.4392
▁sugar	-10.4392
▁Work	-10.4392
▁chance	-10.4394
▁Bridge	-10.4395
▁Yuan	-10.4395
▁1948	-10.4396
▁1965	-10.4396
▁revolutionary	-10.4397
▁100,000	-10.4404
▁us	-10.4407
rin	-10.4408
▁Bel	-10.4412
▁imposed	-10.4414
▁perfect	-10.4416
▁signals	-10.4419
▁foot	-10.4421
▁Ten	-10.4424
inch	-10.443
▁dependent	-10.444
▁governed	-10.4448
▁Ham	-10.4457
▁agree	-10.4463
▁periods	-10.4465
▁representatives	-10.4468
▁Antarctic	-10.4468
▁Gal	-10.448
ken	-10.4482
▁step	-10.4484
▁Aristotle	-10.4484
▁Montevideo	-10.4484
▁assembly	-10.4484
▁autonomy	-10.4484
▁crowd	-10.4484
▁legislative	-10.4484
▁morning	-10.4484
▁tuberculosis	-10.4484
▁prayer	-10.4484
▁Smith	-10.4484
▁alleged	-10.4484
▁entities	-10.4484
olecular	-10.4485
▁independently	-10.4485
▁Garden	-10.4485
▁sovereignty	-10.4485
lit	-10.4487
▁1958	-10.4487
▁Adam	-10.4489
▁Za	-10.4491
▁cardinal	-10.4492
▁translated	-10.4494
▁lose	-10.4495
▁vice	-10.4495
▁exhibition	-10.4498
▁20%	-10.4498
▁im	-10.4499
▁succession	-10.4501
lla	-10.4503
▁mouth	-10.4503
▁assigned	-10.4504
▁hearing	-10.451
▁calling	-10.4511
ille	-10.4512
▁confirmed	-10.4514
tory	-10.4518
▁Nazi	-10.4521
▁select	-10.4522
▁Khan	-10.4523
▁Non	-10.4528
▁mark	-10.4531
31	-10.4544
▁try	-10.4549
pur	-10.4553
acent	-10.4559
▁neighborhoods	-10.4564
▁dark	-10.4565
▁exclusive	-10.4566
▁stress	-10.4568
▁save	-10.4569
dis	-10.4573
nce	-10.4574
▁camp	-10.4575
ο	-10.4578
▁Instead	-10.4578
▁Judaism	-10.4578
▁Liverpool	-10.4578
▁opposite	-10.4578
▁ordinary	-10.4578
▁oxygen	-10.4578
▁referendum	-10.4578
▁revolt	-10.4578
▁varieties	-10.4578
⟩	-10.4578
▁heritage	-10.4578
▁transistor	-10.4578
▁corps	-10.4578
▁Franco	-10.4578
▁Guinea	-10.4578
▁immigration	-10.4578
▁remove	-10.4578
▁portray	-10.4579
▁Baltic	-10.4579
▁rooms	-10.458
▁inventor	-10.458
▁promise	-10.458
▁civilization	-10.4582
▁historian	-10.4589
▁Val	-10.4589
▁Start	-10.4593
making	-10.4595
▁wealthy	-10.4596
▁concentrated	-10.4596
▁Locke	-10.4606
▁shore	-10.4607
▁writings	-10.4609
drew	-10.4625
▁rely	-10.4629
▁distinguished	-10.4634
gin	-10.4635
▁highway	-10.4642
tric	-10.4649
▁touch	-10.4652
▁sentence	-10.4668
▁proceed	-10.467
evertheless	-10.4671
▁UEFA	-10.4672
▁elsewhere	-10.4672
▁Monica	-10.4673
▁committed	-10.4673
▁citizenship	-10.4673
▁(8	-10.4673
▁Witnesses	-10.4673
▁rice	-10.4673
▁strip	-10.4676
▁1912	-10.4678
▁supposed	-10.4679
▁spot	-10.4681
▁neighborhood	-10.4686
▁candidate	-10.4686
▁shell	-10.4691
▁transferr	-10.4693
iness	-10.4693
▁Further	-10.4695
▁USA	-10.4696
▁net	-10.4696
▁shortly	-10.4699
ski	-10.4701
▁grown	-10.4703
▁Pat	-10.4715
▁detect	-10.4715
cation	-10.4719
▁orbit	-10.4735
▁Manchu	-10.4736
▁Tour	-10.4742
unt	-10.4744
▁ranges	-10.4745
uri	-10.4746
▁2014.	-10.4747
put	-10.4751
▁bat	-10.4752
▁gr	-10.4764
▁editor	-10.4766
▁Constantinople	-10.4767
▁Electric	-10.4767
▁Jehovah	-10.4767
▁Westminster	-10.4767
▁draft	-10.4767
▁fossil	-10.4767
▁illegal	-10.4767
▁Besides	-10.4767
▁entry	-10.4767
▁doctor	-10.4768
▁undergraduate	-10.4768
under	-10.4772
▁reflected	-10.4775
▁Trade	-10.4775
▁discrimination	-10.4777
▁stable	-10.4778
▁violent	-10.4778
▁artificial	-10.4779
▁representative	-10.4786
92	-10.479
▁defend	-10.4797
pen	-10.48
▁Sound	-10.4803
100	-10.4805
.3%	-10.4811
▁damaged	-10.4814
▁discussed	-10.4814
▁switch	-10.4814
rit	-10.4818
▁Mongol	-10.4823
▁Em	-10.4826
▁map	-10.4831
▁Wall	-10.4833
▁historically	-10.4847
▁suffering	-10.485
cus	-10.4851
pping	-10.4853
▁influences	-10.4854
▁paintings	-10.4857
▁sole	-10.4862
▁colour	-10.4863
▁husband	-10.4863
▁peninsula	-10.4863
▁voting	-10.4863
▁renewable	-10.4864
▁Jackson	-10.4864
▁colors	-10.4864
▁Euro	-10.4865
▁⟨	-10.4865
46	-10.4866
▁Guard	-10.4867
▁1942	-10.4867
▁1977	-10.4868
▁dense	-10.4869
▁mental	-10.4872
▁10%	-10.4876
west	-10.4878
▁Staff	-10.488
▁para	-10.488
▁restaurants	-10.4881
▁ritual	-10.4882
▁Much	-10.4882
▁thereby	-10.4883
▁compound	-10.4883
▁job	-10.4884
▁string	-10.4887
ough	-10.4899
▁Shi	-10.49
▁shoot	-10.4902
▁profit	-10.4903
▁Mr	-10.4915
▁kit	-10.4917
$1	-10.4917
▁Hot	-10.4925
▁Mass	-10.4929
▁brief	-10.4939
rum	-10.494
43	-10.495
▁Est	-10.495
▁Global	-10.496
▁Mercury	-10.496
▁Temple	-10.496
▁predecessor	-10.496
▁siege	-10.496
▁choose	-10.496
▁sphere	-10.496
▁Child	-10.496
▁shipping	-10.496
▁controversial	-10.496
▁entity	-10.4961
▁Agency	-10.4961
▁appointment	-10.4963
▁edge	-10.4966
▁videos	-10.4966
▁Kr	-10.4967
▁Caribbean	-10.4967
▁crystal	-10.4968
▁1910	-10.4971
rap	-10.4973
▁recognised	-10.4973
PC	-10.4973
▁sections	-10.4975
▁Norman	-10.4975
09	-10.4976
free	-10.4976
▁lamps	-10.4976
▁compete	-10.4977
▁locations	-10.4979
▁Indo	-10.4982
▁Wars	-10.4983
▁decreased	-10.4983
▁notes	-10.4986
▁provision	-10.4987
▁34	-10.4995
▁boat	-10.4995
▁punk	-10.4997
▁assert	-10.4998
play	-10.5002
▁roll	-10.5002
▁TB	-10.5008
hang	-10.5009
▁fill	-10.5013
▁actor	-10.5015
ano	-10.503
▁boys	-10.5039
▁desire	-10.5039
astic	-10.5042
▁secure	-10.5044
▁speaking	-10.5047
▁Georgia	-10.505
▁courses	-10.5057
▁Vatican	-10.5058
▁Virgil	-10.5058
▁Arthur	-10.5058
▁intense	-10.5058
▁entertainment	-10.5059
▁rising	-10.506
▁Scout	-10.506
RC	-10.5063
▁distributed	-10.5066
▁1917	-10.5067
▁permit	-10.507
▁publicly	-10.5071
unk	-10.5075
▁oxide	-10.5075
▁cl	-10.5078
selling	-10.5079
▁Cu	-10.5081
▁fly	-10.5082
elle	-10.5083
▁fruit	-10.5083
▁technique	-10.5084
▁n	-10.5085
standing	-10.5087
▁taxes	-10.5089
▁Area	-10.5097
▁surrender	-10.5108
▁tourists	-10.5112
eanwhile	-10.5116
▁moral	-10.5132
AA	-10.5141
mid	-10.5149
▁Com	-10.5151
▁labor	-10.5153
▁Special	-10.5157
▁explicit	-10.5157
▁infrastructure	-10.5157
▁liquid	-10.5157
▁populated	-10.5157
▁Jersey	-10.5157
▁duties	-10.5158
▁pull	-10.5158
▁Franklin	-10.5159
ó	-10.5159
▁denied	-10.5162
hen	-10.5163
pu	-10.5177
ntil	-10.5184
▁Lodge	-10.5185
▁segment	-10.5185
▁absorbed	-10.5187
pped	-10.5187
▁goes	-10.519
▁claiming	-10.5193
▁authors	-10.5197
berg	-10.5199
▁receives	-10.5207
▁acting	-10.5212
▁leaves	-10.5212
▁artistic	-10.5215
▁piece	-10.5222
▁emotions	-10.5222
▁printing	-10.5223
mine	-10.5224
avi	-10.523
▁discuss	-10.5236
▁Kh	-10.5237
star	-10.524
urthermore	-10.5245
ets	-10.5256
▁Macintosh	-10.5257
▁Seleucid	-10.5257
▁Studies	-10.5257
▁amendment	-10.5257
▁category	-10.5257
▁remote	-10.5257
▁adjust	-10.5258
▁drum	-10.5259
▁bond	-10.526
▁proclaimed	-10.5269
▁achievement	-10.5272
▁Coast	-10.5272
▁exists	-10.5277
▁option	-10.528
51	-10.5288
▁village	-10.5288
▁panel	-10.5293
▁opponents	-10.5293
▁Libyan	-10.5294
nlike	-10.5297
meter	-10.5305
▁Jr	-10.5307
▁expect	-10.531
▁comment	-10.531
wide	-10.5311
yo	-10.5315
▁continuous	-10.5337
lie	-10.5345
▁dated	-10.5348
▁benefits	-10.5352
pr	-10.5353
range	-10.5356
▁contest	-10.5356
▁Opera	-10.5361
▁Shah	-10.5362
▁1955	-10.5363
▁Night	-10.5364
▁assets	-10.5364
▁isolated	-10.5365
▁1860	-10.5365
▁Hebrew	-10.5367
▁deployed	-10.5373
▁appropriate	-10.5375
▁crossing	-10.5376
▁realm	-10.5376
▁button	-10.5381
▁dynamic	-10.5382
▁Sub	-10.5388
▁jurisdiction	-10.5393
▁consequence	-10.5393
▁organisation	-10.5393
▁hospital	-10.5395
▁restricted	-10.5399
▁reject	-10.5407
ique	-10.541
fl	-10.541
▁murder	-10.5411
▁manufacturers	-10.5415
▁learned	-10.5416
▁Comp	-10.5419
▁writer	-10.542
non	-10.5425
▁sale	-10.5432
▁contributions	-10.5433
▁denominations	-10.5434
▁critic	-10.5435
▁apparent	-10.5439
▁supporting	-10.5445
▁begins	-10.5447
▁sacrifice	-10.5447
▁waste	-10.5456
▁hunters	-10.5457
▁loyal	-10.5459
ich	-10.546
▁Energy	-10.546
▁Industrial	-10.546
▁Project	-10.546
▁Television	-10.546
▁Umayyad	-10.546
▁reputation	-10.546
▁why	-10.546
▁regain	-10.546
▁uprising	-10.5461
▁cloud	-10.5461
▁Point	-10.5461
▁wildlife	-10.5461
▁Good	-10.5462
▁1890	-10.5466
▁sail	-10.5466
▁blow	-10.5467
▁dating	-10.5469
▁variants	-10.5474
▁Play	-10.5476
IS	-10.5476
▁sand	-10.5482
▁parks	-10.5482
▁planes	-10.5482
ij	-10.5483
▁prepared	-10.5487
▁bad	-10.5488
▁requirements	-10.5488
▁performing	-10.5491
▁Bowl	-10.5493
▁News	-10.5495
1)	-10.5498
party	-10.5498
▁Mountain	-10.5498
▁correspond	-10.5502
▁hair	-10.5504
▁customers	-10.5507
▁attraction	-10.5508
rant	-10.5511
▁thermal	-10.5512
▁2008.	-10.5513
rove	-10.5517
07	-10.5519
▁coins	-10.5521
ott	-10.5524
▁Wi	-10.5527
mann	-10.5537
▁Mayor	-10.554
▁monks	-10.5545
▁unlike	-10.5552
win	-10.5561
▁fled	-10.5561
2,	-10.5562
▁Hanover	-10.5563
▁Michigan	-10.5564
▁Network	-10.5564
▁worn	-10.5564
▁drought	-10.5564
▁calls	-10.5565
▁analog	-10.5566
▁Series	-10.5566
▁Yong	-10.5567
▁1876	-10.5568
▁MTV	-10.5568
▁Jones	-10.5569
fectious	-10.557
▁examination	-10.5571
ook	-10.5572
▁poll	-10.5572
▁altitude	-10.5573
tum	-10.5574
bra	-10.5576
▁Jean	-10.5581
▁organic	-10.5586
rn	-10.5588
▁incandescent	-10.5591
▁rebel	-10.5594
▁follows	-10.5597
▁Late	-10.5601
▁reserves	-10.5609
▁mono	-10.561
▁stored	-10.5612
oid	-10.5613
▁finish	-10.5619
▁printed	-10.5621
▁thin	-10.5635
▁Nu	-10.564
▁Op	-10.5649
BS	-10.5649
losing	-10.5652
▁7,	-10.5658
▁NATO	-10.5668
▁suburban	-10.5669
▁southeast	-10.567
▁nothing	-10.5671
▁measurement	-10.5671
▁75	-10.5672
▁1870	-10.5674
▁Ur	-10.5676
▁1830	-10.5676
▁patients	-10.5681
▁nationalist	-10.5686
later	-10.5686
▁custom	-10.5692
dom	-10.5695
ili	-10.5699
▁machines	-10.5703
dding	-10.5707
▁wa	-10.5708
▁mat	-10.5708
▁borders	-10.5709
part	-10.5711
!	-10.5711
▁temple	-10.5712
▁bulb	-10.5712
▁civilian	-10.5723
▁indicated	-10.5724
AT	-10.5728
▁Main	-10.573
ima	-10.5733
▁rivers	-10.5741
▁visual	-10.5751
AC	-10.5752
▁raise	-10.5754
▁windows	-10.5755
▁Alexandria	-10.5761
69	-10.5765
▁tools	-10.5766
▁credited	-10.5768
ograph	-10.5768
app	-10.5768
▁Afghanistan	-10.5773
▁Entertainment	-10.5773
▁Gladstone	-10.5773
▁Twilight	-10.5773
▁boundaries	-10.5773
▁wavelength	-10.5773
▁Montini	-10.5773
▁answer	-10.5774
▁restrictions	-10.5774
▁Cubism	-10.5774
▁1943	-10.5776
▁1981	-10.5776
▁instruction	-10.5779
var	-10.5779
▁lu	-10.5779
▁Walter	-10.578
▁emergency	-10.5785
▁hope	-10.5788
▁neo	-10.579
▁hop	-10.5791
▁Director	-10.5791
.9%	-10.58
aga	-10.5809
▁slowly	-10.581
omb	-10.5813
▁holding	-10.5813
▁notion	-10.5815
▁businesses	-10.5818
▁drinking	-10.5823
▁skill	-10.5823
spect	-10.5824
▁competitions	-10.5834
▁alloy	-10.5835
pha	-10.5836
IT	-10.5837
▁Les	-10.5841
hop	-10.5849
▁trained	-10.5855
▁affirmati	-10.5866
cher	-10.5869
▁Dor	-10.5878
▁Arizona	-10.5879
▁Mahayana	-10.5879
▁elaborate	-10.5879
▁opportunities	-10.5879
▁perspective	-10.5879
▁rpm	-10.5879
▁Peace	-10.5879
▁buried	-10.5879
▁37	-10.5879
▁culminat	-10.5879
▁technological	-10.5879
▁Journal	-10.5879
▁Water	-10.588
▁interview	-10.588
▁mild	-10.588
▁Rhine	-10.5881
▁1983	-10.5882
▁experimental	-10.5882
▁Reformation	-10.5883
▁1973	-10.5883
▁Windsor	-10.5885
▁stages	-10.5888
▁DJ	-10.5893
▁pl	-10.5894
▁contestants	-10.5897
▁recommended	-10.5901
▁attached	-10.5902
▁theme	-10.5903
▁Mah	-10.5903
▁adapted	-10.5908
▁collapsed	-10.5916
▁charged	-10.5919
▁consisted	-10.592
ava	-10.592
▁vehicles	-10.5921
rated	-10.5923
600	-10.5924
▁publishing	-10.5924
▁Mal	-10.593
▁(0.	-10.5933
▁Ford	-10.5936
▁import	-10.5936
▁crown	-10.5938
▁routes	-10.5942
▁rebels	-10.5942
▁coat	-10.5943
▁flying	-10.5944
▁trying	-10.5946
ound	-10.5949
▁teachings	-10.5952
▁friend	-10.5953
get	-10.5954
other	-10.5956
▁tourist	-10.5957
▁license	-10.5967
turn	-10.5977
nu	-10.5984
ñ	-10.5987
▁Architecture	-10.5987
▁Lincoln	-10.5987
▁Memorial	-10.5987
▁collaboration	-10.5987
▁possibility	-10.5987
▁1954	-10.5987
▁funeral	-10.5987
▁eleven	-10.5987
▁Hollywood	-10.5987
▁stories	-10.5987
▁layer	-10.5988
▁commitment	-10.5989
▁enforcement	-10.5989
▁understood	-10.5997
▁1850	-10.5998
▁Anti	-10.5999
▁clan	-10.6002
▁roles	-10.6011
▁exclusively	-10.6012
▁Only	-10.602
mber	-10.6021
tron	-10.6021
pin	-10.6022
▁(7	-10.6026
▁arrested	-10.6033
▁broken	-10.6035
▁implement	-10.6041
▁root	-10.6042
▁philosopher	-10.6046
▁reveal	-10.6047
▁homes	-10.6053
▁metals	-10.6053
▁connections	-10.606
0%	-10.606
▁Don	-10.6061
▁operates	-10.6066
cut	-10.6069
print	-10.607
plan	-10.607
▁unity	-10.6076
▁2015.	-10.6077
▁Count	-10.608
▁prisoners	-10.6087
▁marks	-10.6087
▁(20	-10.6092
▁Wal	-10.6093
▁Administration	-10.6096
▁expense	-10.6096
▁tropical	-10.6096
▁Russell	-10.6096
▁northeast	-10.6098
▁1931	-10.6099
▁invited	-10.6099
▁Armenians	-10.6099
▁involvement	-10.6101
▁happen	-10.6104
▁abolished	-10.6109
▁annexed	-10.6113
▁Par	-10.6119
▁participated	-10.6122
▁Media	-10.6128
ida	-10.6131
▁enabled	-10.6131
▁Fo	-10.6136
▁closer	-10.6139
▁1,000	-10.6143
▁arise	-10.6144
ark	-10.6146
No	-10.6146
rew	-10.6152
▁picture	-10.6154
▁wire	-10.6155
CO	-10.6158
yan	-10.6158
lecommunications	-10.616
▁details	-10.6172
▁cap	-10.6174
▁experiments	-10.6177
▁Zu	-10.6178
▁theology	-10.6183
mus	-10.6184
▁600	-10.6187
▁Affairs	-10.6205
▁Chihuahua	-10.6205
▁continuing	-10.6205
▁militia	-10.6205
▁humid	-10.6205
▁varied	-10.6206
▁pump	-10.6206
▁remark	-10.6207
▁ongoing	-10.6207
▁optic	-10.6207
04	-10.6207
ison	-10.621
▁distinctive	-10.6213
▁decide	-10.6213
▁boot	-10.6214
▁Hungary	-10.6217
2%	-10.6223
ux	-10.6224
▁row	-10.6225
▁download	-10.6226
▁Howard	-10.6229
front	-10.6233
▁Cape	-10.6238
▁eat	-10.624
▁connector	-10.6243
▁5,	-10.6246
▁handle	-10.6258
▁structural	-10.6259
▁Ly	-10.6261
▁viewers	-10.6264
▁awards	-10.6267
band	-10.6278
▁cre	-10.6282
He	-10.6283
59	-10.6284
▁campaigns	-10.6287
▁OS	-10.6289
Continental	-10.6311
▁spiritual	-10.6314
▁Dynasty	-10.6317
▁capabilities	-10.6317
▁identical	-10.6317
▁Caesar	-10.6317
▁negotiations	-10.6317
▁Disney	-10.6317
▁employment	-10.632
▁1937	-10.632
▁factories	-10.6321
▁voters	-10.6321
▁bass	-10.6321
▁Golden	-10.6322
coming	-10.6326
▁employ	-10.6327
▁Similarly	-10.6327
▁fair	-10.6327
ado	-10.633
▁developments	-10.6332
▁deposits	-10.6343
ES	-10.6343
ST	-10.6346
▁Dar	-10.6358
▁bound	-10.6358
wo	-10.6362
▁(10	-10.6366
▁lot	-10.6367
▁trip	-10.6374
▁singing	-10.6375
▁Cho	-10.6382
▁Virgin	-10.6385
▁Rus	-10.6391
▁displayed	-10.6408
▁Are	-10.6412
▁vessels	-10.6412
è	-10.642
dar	-10.642
▁opera	-10.6422
ika	-10.6426
▁Conservative	-10.6429
▁MPEG	-10.6429
▁Spectre	-10.6429
▁commerce	-10.6429
▁yield	-10.6429
▁loop	-10.6429
▁Slavs	-10.6429
▁Interstate	-10.643
▁childhood	-10.643
▁ill	-10.6431
3)	-10.6445
▁parade	-10.6446
mis	-10.6447
▁mill	-10.6448
▁Lower	-10.6448
▁Gen	-10.6453
▁mix	-10.6456
▁Macedonian	-10.6459
▁crops	-10.646
▁drawn	-10.646
▁united	-10.6464
gna	-10.6464
Re	-10.6479
▁hero	-10.648
▁arose	-10.648
▁transform	-10.6481
▁Kill	-10.6485
▁merchants	-10.6488
▁arrest	-10.6494
▁vehicle	-10.6499
▁raid	-10.6499
▁bell	-10.65
▁conflicts	-10.6503
wan	-10.6504
▁descendants	-10.6506
▁seal	-10.6508
▁plate	-10.6512
lle	-10.6518
power	-10.6526
▁alter	-10.6527
owned	-10.6531
zy	-10.6538
▁entering	-10.6539
▁Jefferson	-10.6543
▁LaserDisc	-10.6543
▁Luftwaffe	-10.6543
▁Sweden	-10.6543
▁currency	-10.6543
▁franchise	-10.6543
▁stretch	-10.6543
▁twelve	-10.6543
▁impossible	-10.6543
▁Watch	-10.6543
▁Sudan	-10.6543
▁explanation	-10.6545
▁Arena	-10.6545
▁crew	-10.6547
▁1938	-10.6547
▁fail	-10.6549
▁exceed	-10.655
▁Roll	-10.655
▁myth	-10.6554
uring	-10.6554
▁judicial	-10.6555
▁owner	-10.6562
▁administered	-10.6565
▁abuse	-10.6573
Arab	-10.6575
▁+	-10.6581
▁scenes	-10.6583
▁Jin	-10.6587
▁youth	-10.6594
▁ta	-10.6595
▁Eton	-10.6595
ean	-10.6597
▁philosophers	-10.6599
atory	-10.6602
▁2012.	-10.6606
▁skills	-10.6606
mut	-10.6607
▁el	-10.6607
itch	-10.6609
▁treat	-10.6617
▁explained	-10.6631
mel	-10.6634
eginning	-10.6656
▁channels	-10.6657
▁clergy	-10.6658
▁Samuel	-10.6658
▁Territory	-10.6658
▁circumstances	-10.6658
▁provincial	-10.6658
▁tournament	-10.6658
ä	-10.6658
▁pollution	-10.6658
▁1962	-10.6658
▁variable	-10.6658
▁Channel	-10.6658
▁rescue	-10.6658
▁disaster	-10.6658
▁stopped	-10.6658
▁feast	-10.6659
▁depression	-10.6659
PA	-10.6659
▁Tro	-10.666
▁1957	-10.666
▁44	-10.6661
▁prefer	-10.6661
.1%	-10.6662
▁Show	-10.6665
bus	-10.6665
▁protesters	-10.6667
▁peaceful	-10.6668
▁elector	-10.6674
▁preserve	-10.6685
▁installed	-10.6693
▁responded	-10.6704
▁−	-10.6707
▁finding	-10.6713
▁waves	-10.6714
Le	-10.6719
iva	-10.672
▁priest	-10.6736
tent	-10.6739
▁tracks	-10.674
Al	-10.6742
▁Right	-10.6743
▁manufacture	-10.6745
▁vertical	-10.6752
▁commission	-10.6756
▁guitar	-10.676
▁sing	-10.676
▁Tur	-10.6769
▁extract	-10.677
▁rational	-10.677
▁dramatic	-10.6773
▁Uruguay	-10.6774
▁Avicenna	-10.6774
▁cabinet	-10.6774
▁consecutive	-10.6774
▁entitled	-10.6774
▁pharmaceutical	-10.6774
▁phenomenon	-10.6774
▁situated	-10.6774
▁surviving	-10.6774
▁warfare	-10.6774
▁radar	-10.6774
▁riot	-10.6774
▁signs	-10.6774
▁cited	-10.6774
▁thirteen	-10.6774
hose	-10.6774
▁infringement	-10.6775
▁allied	-10.6776
▁1947	-10.6778
▁80%	-10.6778
▁tell	-10.6781
▁farmers	-10.6781
▁households	-10.6783
▁ignored	-10.6784
▁lifetime	-10.6786
▁referee	-10.6788
▁gross	-10.6793
▁surrounded	-10.6793
far	-10.6793
▁HD	-10.6794
▁sharing	-10.6797
02	-10.68
▁filed	-10.6801
▁files	-10.6802
▁eyes	-10.6806
ET	-10.6808
03	-10.6811
▁inhabited	-10.6812
▁fr	-10.6822
▁instrumental	-10.6823
▁treated	-10.6824
▁nationalism	-10.6824
▁spending	-10.6831
even	-10.6837
▁molecules	-10.6838
hour	-10.6838
▁Bon	-10.684
▁missile	-10.6855
▁arrangement	-10.6855
▁processing	-10.6858
▁Jan	-10.6864
▁Br	-10.6868
▁thick	-10.6875
ette	-10.6879
▁react	-10.688
▁showing	-10.688
▁conventional	-10.6884
pat	-10.6887
▁homosexual	-10.6888
▁Sultan	-10.689
▁chronic	-10.6891
▁Bonaparte	-10.6891
▁Famicom	-10.6891
▁Gallery	-10.6891
▁Indigenous	-10.6891
▁Intelligence	-10.6891
▁Utrecht	-10.6891
▁faculty	-10.6891
▁atmosphere	-10.6891
▁circa	-10.6891
oriented	-10.6892
▁interface	-10.6892
▁Women	-10.6893
▁Spring	-10.6893
▁acres	-10.6893
▁occurring	-10.6893
▁Andrew	-10.6895
▁centres	-10.6897
▁neutral	-10.6899
table	-10.6901
▁dollars	-10.6901
▁designs	-10.6902
▁lit	-10.6907
▁deck	-10.6908
▁200,000	-10.6908
▁2009.	-10.6914
▁RNA	-10.6928
5%	-10.693
▁Pass	-10.6935
▁operational	-10.6939
▁linguistic	-10.6946
▁possess	-10.6946
nna	-10.6958
tta	-10.6959
▁enjoy	-10.6959
▁Ban	-10.6962
▁Mali	-10.6965
▁Ab	-10.6967
city	-10.6967
▁55	-10.698
▁eye	-10.6982
▁objective	-10.6985
▁elder	-10.6991
▁crop	-10.6992
▁candidates	-10.6994
▁connecting	-10.6994
▁respective	-10.6995
▁partner	-10.7006
▁excess	-10.7008
▁pubs	-10.701
▁Capital	-10.701
▁Military	-10.701
▁Natural	-10.701
▁Nicholas	-10.701
▁Ukraine	-10.701
▁sleep	-10.701
▁territorial	-10.701
▁Article	-10.7011
▁cinema	-10.7011
▁defect	-10.7011
▁busiest	-10.7011
▁preference	-10.7011
▁assault	-10.7011
▁cancer	-10.7012
▁guest	-10.7012
▁generat	-10.7012
▁Corps	-10.7012
▁blacks	-10.7013
▁ranking	-10.7013
▁chairman	-10.7013
▁acceptance	-10.7013
stone	-10.7013
▁remember	-10.7013
▁90%	-10.7014
▁1946	-10.7014
▁Fire	-10.7016
vert	-10.7017
▁chip	-10.7019
▁coach	-10.7023
▁architects	-10.7023
▁infrared	-10.7024
▁battles	-10.7026
MA	-10.7026
▁praised	-10.7035
An	-10.7037
▁fit	-10.7041
▁Forest	-10.7042
room	-10.7043
down	-10.7045
Hispanic	-10.7048
▁someone	-10.7061
▁page	-10.7065
▁chart	-10.7065
:00	-10.7065
hood	-10.7067
▁resemble	-10.707
▁flood	-10.7073
RI	-10.7074
▁Balkans	-10.7077
▁retreat	-10.7083
▁mention	-10.7091
▁Eu	-10.7092
gy	-10.7098
83	-10.7104
▁accurate	-10.7109
dro	-10.711
▁exact	-10.7111
▁spend	-10.7113
▁wage	-10.7114
▁canton	-10.7115
▁reverse	-10.7115
▁phone	-10.712
▁prevented	-10.7121
▁owners	-10.7122
▁links	-10.7122
▁bio	-10.7124
▁patron	-10.7129
▁Little	-10.7131
▁Madison	-10.7131
▁Medicine	-10.7131
▁cavalry	-10.7131
▁convince	-10.7131
▁overwhelming	-10.7131
▁flame	-10.7131
▁saving	-10.7131
▁chromosome	-10.7131
▁1936	-10.7131
▁Digital	-10.7132
▁Railway	-10.7132
▁fellow	-10.7133
▁Place	-10.7133
▁antibacterial	-10.7133
▁counties	-10.7135
▁replacement	-10.7135
▁1919	-10.7138
▁Pact	-10.7141
▁qua	-10.7142
▁Metropolitan	-10.7142
organ	-10.7143
▁communist	-10.7145
ties	-10.7146
▁pick	-10.7146
▁Fund	-10.7148
stitut	-10.715
▁Pop	-10.715
▁Ol	-10.7152
▁consul	-10.7155
▁ensu	-10.7157
▁66	-10.7177
▁AA	-10.718
▁enjoyed	-10.7181
▁teach	-10.7186
adi	-10.7187
▁infantry	-10.7189
RA	-10.7195
▁respond	-10.7196
▁alloys	-10.7198
▁exploit	-10.7201
▁constitute	-10.7204
▁layers	-10.7204
▁Mont	-10.7212
ua	-10.722
▁Will	-10.7224
▁Pol	-10.7226
▁celebration	-10.7227
▁argument	-10.7228
▁decree	-10.7233
▁bright	-10.724
▁engineers	-10.724
▁chose	-10.7244
▁Dean	-10.7249
▁fle	-10.725
▁DVD	-10.7253
▁Kansas	-10.7253
▁attitude	-10.7253
▁embrac	-10.7253
▁journey	-10.7253
▁rebellion	-10.7253
▁trigger	-10.7253
▁1952	-10.7253
▁Sicily	-10.7253
▁Space	-10.7253
▁nomination	-10.7253
▁programming	-10.7253
▁array	-10.7253
▁pilot	-10.7253
▁Grammy	-10.7253
▁Therefore	-10.7255
▁Federation	-10.7255
▁NBC	-10.7255
▁scholarship	-10.7255
▁mandate	-10.7256
▁parliamentary	-10.7258
▁1922	-10.7259
▁1927	-10.7259
▁removal	-10.726
▁Control	-10.7262
▁offensive	-10.7265
▁Socialist	-10.7267
▁permitted	-10.7269
▁faster	-10.7276
▁demonstrate	-10.7276
▁centered	-10.7282
▁delayed	-10.7288
▁indicates	-10.7294
▁deem	-10.7296
▁difficulty	-10.7298
▁Wei	-10.7307
▁girls	-10.7314
▁drink	-10.7318
▁pioneer	-10.7327
▁cars	-10.7327
La	-10.7328
▁traveled	-10.7333
dor	-10.734
present	-10.7341
▁Karl	-10.7343
▁grain	-10.7353
▁prison	-10.7358
▁Yugoslav	-10.736
▁agent	-10.736
▁females	-10.7362
▁(9	-10.7365
▁Tre	-10.7366
▁movies	-10.7371
▁regulation	-10.7373
▁Hitler	-10.7376
▁Oxford	-10.7376
▁advice	-10.7376
▁frequencies	-10.7376
▁occupy	-10.7376
▁prevalent	-10.7376
▁Movement	-10.7376
▁struck	-10.7376
▁Whig	-10.7376
▁literacy	-10.7377
▁Madrid	-10.7377
▁pronunciation	-10.7377
▁(12	-10.7379
▁belt	-10.7379
▁1951	-10.738
▁passing	-10.7382
▁Store	-10.7383
▁Plain	-10.7383
▁Eight	-10.7383
▁VII	-10.7384
▁Broadway	-10.7389
▁notice	-10.7395
▁Independent	-10.7396
▁Eritrean	-10.7396
▁Lama	-10.7397
▁concerts	-10.7398
▁ahead	-10.74
ception	-10.74
▁50%	-10.7403
▁Hz	-10.7404
▁burned	-10.7409
▁linear	-10.7409
▁introduce	-10.7417
▁disk	-10.7418
▁hall	-10.7418
German	-10.7418
▁Met	-10.742
▁preserved	-10.7422
sky	-10.7424
▁depict	-10.7426
▁receiver	-10.7442
▁autonomous	-10.7443
▁emergenc	-10.7445
mont	-10.7449
hara	-10.7458
oke	-10.7466
tag	-10.7468
▁Bu	-10.7473
▁Democrat	-10.7474
▁manage	-10.7478
▁images	-10.7479
bor	-10.748
▁elect	-10.7482
▁antennas	-10.7484
▁geographic	-10.7485
▁Classic	-10.7489
▁reli	-10.7491
▁theater	-10.7498
▁Burmese	-10.7501
▁Management	-10.7501
▁XXIII	-10.7501
▁browser	-10.7501
▁poverty	-10.7501
▁Crusade	-10.7501
▁shelter	-10.7501
▁fluid	-10.7501
▁psychology	-10.7501
▁1909	-10.7505
▁capita	-10.7506
▁paint	-10.7506
▁1929	-10.7507
▁onwards	-10.7508
▁implementation	-10.7508
06	-10.751
▁1840	-10.7512
▁bone	-10.7516
▁moderate	-10.7516
▁Williams	-10.7517
▁inner	-10.7519
▁heir	-10.752
–16	-10.752
▁craft	-10.7526
▁Line	-10.7529
▁infections	-10.7533
▁dam	-10.7536
predominantly	-10.7536
citing	-10.7537
his	-10.7538
where	-10.7545
stru	-10.7547
▁pole	-10.755
▁vision	-10.7551
▁Rose	-10.7556
net	-10.7557
ye	-10.7559
▁End	-10.7562
▁weekly	-10.7562
▁meetings	-10.7565
▁Bishop	-10.7576
▁internationally	-10.7581
▁XII	-10.7582
▁Leon	-10.7582
Co	-10.7583
▁2002,	-10.7602
▁ski	-10.7605
ibility	-10.7605
Pa	-10.7611
▁cardinals	-10.7617
awa	-10.7619
,800	-10.7626
▁Captain	-10.7628
▁Declaration	-10.7628
▁Palermo	-10.7628
▁desktop	-10.7628
▁protocol	-10.7628
▁worst	-10.7628
▁Calvin	-10.7628
▁easy	-10.7628
▁Leader	-10.7628
▁corporate	-10.7628
▁check	-10.7629
PS	-10.763
▁Winter	-10.7634
▁simultaneously	-10.7637
▁conceived	-10.7639
▁1800	-10.7641
▁transit	-10.7647
▁traced	-10.7647
▁Simon	-10.7647
▁Georgian	-10.7647
▁Fall	-10.7651
▁nominal	-10.7651
▁manuscripts	-10.7656
▁registered	-10.7656
had	-10.7658
▁your	-10.7658
ovi	-10.767
▁priests	-10.767
▁disputed	-10.7671
▁noun	-10.7672
pass	-10.7673
▁tied	-10.7676
mmer	-10.7678
▁loans	-10.7681
▁enable	-10.7686
▁Neo	-10.769
gate	-10.7693
▁Liberia	-10.7704
ico	-10.7707
▁Reform	-10.7709
▁prove	-10.7709
▁Band	-10.7711
▁Son	-10.7713
▁shut	-10.7714
aud	-10.7716
▁dispute	-10.7722
▁estimate	-10.7723
▁usual	-10.7735
▁architect	-10.7741
▁thinking	-10.7743
▁antibiotic	-10.7743
▁predator	-10.7743
▁innovation	-10.7743
▁resident	-10.7744
▁input	-10.7746
▁Trans	-10.7748
▁chair	-10.7756
▁missions	-10.7756
▁Example	-10.7756
▁adolescence	-10.7756
▁apparatus	-10.7756
▁mechanics	-10.7756
▁missionaries	-10.7756
▁supplement	-10.7756
▁volunteer	-10.7756
▁bulk	-10.7756
▁honour	-10.7756
▁sixteen	-10.7756
▁1861	-10.7756
▁admission	-10.7756
▁dielectric	-10.7756
▁railroad	-10.7756
▁cat	-10.7756
▁Week	-10.7757
▁banned	-10.7757
flow	-10.7757
▁donated	-10.7759
▁tomb	-10.776
▁daylight	-10.7761
verage	-10.7761
▁1848	-10.7762
▁seized	-10.7769
▁Rh	-10.7771
char	-10.7773
gun	-10.7773
anda	-10.7775
▁Warner	-10.7781
mile	-10.7782
▁airports	-10.7785
▁Tang	-10.7801
▁depicted	-10.7807
▁publications	-10.7812
AM	-10.7814
▁returning	-10.7817
▁Marine	-10.7826
▁Ken	-10.7829
eh	-10.784
▁argues	-10.785
▁2007.	-10.786
ways	-10.7861
▁Ye	-10.7866
▁fee	-10.7867
▁garden	-10.7875
▁Earl	-10.7876
▁horse	-10.7878
▁Spirit	-10.788
ista	-10.7881
▁marketing	-10.7883
▁Alsace	-10.7886
▁Cretaceous	-10.7886
▁Environment	-10.7886
▁Heritage	-10.7886
▁abstract	-10.7886
▁behaviour	-10.7886
▁competing	-10.7886
▁democratic	-10.7886
▁integral	-10.7886
▁muscle	-10.7886
▁renewed	-10.7886
▁session	-10.7886
▁rope	-10.7886
▁spectrum	-10.7887
▁municipalities	-10.7887
▁font	-10.7888
▁republican	-10.789
▁reception	-10.7891
▁teacher	-10.7891
▁1924	-10.7892
▁Lady	-10.7893
▁subcontinent	-10.7893
▁avoided	-10.7895
▁Juan	-10.7895
▁unified	-10.7896
▁Cy	-10.7898
org	-10.7901
▁tower	-10.7909
▁lesser	-10.7912
▁verse	-10.7921
▁deliberate	-10.7924
▁63	-10.7927
view	-10.7929
▁Five	-10.7934
school	-10.7935
57	-10.7935
▁magnetic	-10.7935
New	-10.7939
▁verb	-10.7941
▁2005.	-10.7941
▁Mall	-10.7945
7,000	-10.7946
plus	-10.7953
▁51	-10.7955
▁54	-10.7956
▁bases	-10.7961
wer	-10.7962
▁Mid	-10.7969
▁volumes	-10.7969
▁Newton	-10.7976
made	-10.7976
lio	-10.7981
▁oversee	-10.7987
▁trace	-10.7994
tel	-10.7994
▁2,000	-10.8
▁consult	-10.8001
▁ultimate	-10.8008
▁banking	-10.8009
▁politicians	-10.8013
▁weapon	-10.8013
▁tribe	-10.8014
▁champion	-10.8017
▁Defense	-10.8018
▁Executive	-10.8018
▁Tajikistan	-10.8018
▁athletic	-10.8018
▁divorce	-10.8018
▁enterprise	-10.8018
▁persecution	-10.8018
▁tissue	-10.8018
▁1913	-10.8018
▁resort	-10.8018
▁Daniel	-10.8018
▁poem	-10.8018
▁horizontal	-10.8018
▁statue	-10.8018
▁Christmas	-10.8018
▁Athens	-10.8018
▁ref	-10.8019
▁vital	-10.8019
▁anything	-10.802
pproximate	-10.802
▁Nobel	-10.802
▁pesticides	-10.802
▁justice	-10.802
▁capacitors	-10.8021
▁Digi	-10.8022
▁CBS	-10.8024
▁25%	-10.8027
▁conf	-10.8028
▁improvements	-10.8039
MS	-10.8039
▁Latino	-10.804
▁agents	-10.8048
2,000	-10.805
▁Shu	-10.8058
▁facto	-10.806
▁recovered	-10.8062
▁interpreted	-10.8064
▁younger	-10.8064
▁hits	-10.8068
▁none	-10.8074
▁transformed	-10.8075
tech	-10.8077
speed	-10.8077
▁disco	-10.8085
▁dye	-10.8091
tail	-10.8094
▁bulbs	-10.8095
▁generate	-10.8104
mark	-10.8107
ivers	-10.8111
gent	-10.8117
▁sheet	-10.8121
▁exile	-10.8133
▁Samoa	-10.8134
oma	-10.8135
shire	-10.8139
▁witness	-10.8141
▁Gro	-10.8141
▁interactions	-10.8144
▁capacitor	-10.8148
▁superior	-10.8148
▁Operation	-10.8149
▁anniversary	-10.8151
▁conclusion	-10.8151
▁entrance	-10.8151
▁absence	-10.8151
▁Cambridge	-10.8151
▁synthetic	-10.8151
▁Harbor	-10.8152
▁landscape	-10.8152
▁adhere	-10.8152
▁Canon	-10.8152
▁punishment	-10.8152
▁vowel	-10.8153
▁kick	-10.8153
▁outbreak	-10.8154
▁decorated	-10.8154
▁apartment	-10.8156
▁1871	-10.8156
▁difficulties	-10.8157
▁1916	-10.8158
▁Seven	-10.8159
▁Rico	-10.816
▁mining	-10.816
▁consumed	-10.8161
that	-10.8161
▁53	-10.8162
▁gathered	-10.8168
▁Arch	-10.8169
▁controller	-10.8169
▁corporation	-10.8169
▁Six	-10.817
▁noise	-10.817
wal	-10.8172
▁dismissed	-10.8172
▁comic	-10.8177
▁dual	-10.8185
900	-10.8186
▁undergo	-10.819
atomic	-10.8203
after	-10.8203
▁migrants	-10.8206
▁48	-10.8206
▁covering	-10.8208
▁withdrew	-10.8218
▁similarly	-10.8222
▁forests	-10.8225
▁seventh	-10.8228
▁shares	-10.8229
▁icon	-10.8231
▁wing	-10.8233
▁sustain	-10.8234
▁conquer	-10.8237
iya	-10.8243
▁papers	-10.8244
fo	-10.8255
ify	-10.8265
▁schedule	-10.8267
▁ti	-10.8268
▁Historic	-10.8269
▁whites	-10.8272
▁disrupt	-10.8272
fr	-10.8273
▁extinct	-10.8279
▁municipal	-10.8282
▁divide	-10.8284
▁Services	-10.8285
▁decisive	-10.8286
▁Clinton	-10.8286
▁Neolithic	-10.8286
▁autumn	-10.8286
▁participation	-10.8286
▁stood	-10.8286
▁subsidiary	-10.8286
▁temporarily	-10.8286
▁junction	-10.8286
▁identification	-10.8286
▁Information	-10.8286
▁procedure	-10.8286
▁confusion	-10.8287
▁framework	-10.8287
▁Abdul	-10.8287
▁Suez	-10.8287
▁boom	-10.8288
▁patronage	-10.8288
▁duty	-10.8289
▁corporations	-10.8289
▁Solar	-10.8291
▁1925	-10.8296
▁promot	-10.8296
▁Julian	-10.8297
▁cannon	-10.83
▁Inc	-10.83
▁educated	-10.8303
▁Sina	-10.8303
▁Il	-10.8308
self	-10.8313
itz	-10.8314
▁specialized	-10.8314
1%	-10.8317
▁condemned	-10.8327
▁detailed	-10.8328
aircraft	-10.834
▁commissioned	-10.8343
▁Zen	-10.8346
▁Canal	-10.8349
bed	-10.835
▁Croatian	-10.8355
hip	-10.8355
affiliated	-10.8358
▁aerial	-10.8383
EM	-10.8386
▁revenues	-10.8387
key	-10.8393
▁princes	-10.8394
▁advis	-10.8399
▁ancestors	-10.84
cies	-10.8402
▁really	-10.841
▁Tar	-10.8419
▁Buckingham	-10.8423
▁Swaziland	-10.8423
▁bronze	-10.8423
▁headquartered	-10.8423
▁modified	-10.8423
▁package	-10.8423
▁vocabulary	-10.8423
▁shopping	-10.8423
▁impedance	-10.8423
▁tunnel	-10.8423
▁injured	-10.8423
▁tribal	-10.8424
▁minorities	-10.8425
▁raw	-10.8426
▁1959	-10.8427
▁assess	-10.8427
▁Campus	-10.8427
▁adolescent	-10.8428
bury	-10.8431
pot	-10.8431
▁Open	-10.8432
▁consistent	-10.8438
ngel	-10.8439
▁teachers	-10.8439
▁Proto	-10.8441
▁lineage	-10.8442
▁investor	-10.8445
▁Dala	-10.8451
▁magazines	-10.8452
▁eliminated	-10.8456
▁Hav	-10.8457
▁bombs	-10.8461
▁Gray	-10.8464
▁tall	-10.8466
▁ready	-10.8469
sses	-10.8469
▁stands	-10.847
related	-10.8474
BA	-10.8476
▁blocks	-10.8476
▁Ram	-10.8477
Saxon	-10.8479
▁funded	-10.8484
▁displays	-10.8494
▁brothers	-10.8502
▁Nan	-10.8503
list	-10.8506
▁civilians	-10.8507
▁photograph	-10.8512
type	-10.8519
▁filled	-10.8521
▁inspiration	-10.8521
▁Bru	-10.8523
▁Officer	-10.8531
▁Carr	-10.8532
▁publish	-10.8533
▁withdraw	-10.8534
▁spaces	-10.8538
▁exc	-10.8545
▁$4	-10.8547
▁migrate	-10.8548
▁heads	-10.8551
hl	-10.8556
cast	-10.8556
▁ASCII	-10.8562
▁Hurricane	-10.8562
▁cluster	-10.8562
▁jazz	-10.8562
▁CIA	-10.8562
▁lecture	-10.8564
▁stability	-10.8564
right	-10.8564
▁escape	-10.8565
▁1907	-10.8566
▁mines	-10.8567
▁feudal	-10.8569
ase	-10.857
▁message	-10.857
▁Common	-10.8572
▁legally	-10.8573
▁acids	-10.8573
▁Every	-10.8573
200	-10.8574
▁Mill	-10.8574
▁interaction	-10.8575
▁commercially	-10.8578
▁interact	-10.8579
▁hunter	-10.8581
▁strain	-10.8583
hot	-10.8585
del	-10.8589
posed	-10.8597
▁binding	-10.8601
▁Hol	-10.8605
▁glaci	-10.8607
▁pen	-10.8609
rick	-10.8617
▁collect	-10.8618
▁discs	-10.8619
▁unusual	-10.8622
▁bars	-10.8622
cat	-10.8624
▁wires	-10.8628
▁Yu	-10.8628
person	-10.8628
▁Saxon	-10.8632
national	-10.8633
often	-10.864
▁painting	-10.864
▁customs	-10.8642
▁sum	-10.8643
▁interpret	-10.8644
▁trains	-10.8644
▁consequences	-10.8655
▁fishing	-10.8657
▁Protestants	-10.8665
▁stronger	-10.8665
▁crimes	-10.8666
▁practiced	-10.8682
▁refuge	-10.8693
▁Commons	-10.8694
▁logic	-10.8697
▁familiar	-10.8701
▁Confederate	-10.8703
▁Eventually	-10.8703
▁FIFA	-10.8703
▁Singapore	-10.8703
▁absorption	-10.8703
▁facilitate	-10.8703
▁mortgage	-10.8703
▁nominated	-10.8703
▁revival	-10.8703
▁routine	-10.8703
▁sediment	-10.8703
▁traits	-10.8703
▁Type	-10.8703
▁duration	-10.8703
▁corner	-10.8703
▁navy	-10.8703
▁rapper	-10.8704
▁Thailand	-10.8704
▁partnership	-10.8704
▁announcement	-10.8704
▁governance	-10.8705
▁1908	-10.8708
▁Motor	-10.8708
▁Sky	-10.8708
▁Hotel	-10.8709
▁attributes	-10.871
▁traces	-10.8711
tang	-10.8712
▁cord	-10.8712
▁Cypriot	-10.8715
▁terminal	-10.8716
duced	-10.8718
▁withdrawal	-10.8719
▁informal	-10.872
▁broadcasts	-10.8725
▁fairly	-10.8731
▁enacted	-10.8731
▁Just	-10.8733
lau	-10.8738
▁specialist	-10.8738
▁conscious	-10.8739
stat	-10.874
aq	-10.874
▁symbolic	-10.8744
last	-10.876
modern	-10.8761
lived	-10.8763
▁Liber	-10.877
▁pathogen	-10.8772
chang	-10.8779
▁powered	-10.8786
▁Valencian	-10.8789
▁releases	-10.8793
▁complain	-10.8797
▁proteins	-10.8797
vy	-10.8798
▁plane	-10.8798
ement	-10.8799
▁insurance	-10.88
▁bed	-10.8801
▁villages	-10.8801
▁73	-10.8815
fri	-10.882
▁deaths	-10.883
▁progressive	-10.883
ivity	-10.8835
▁acknowledge	-10.8838
▁(11	-10.8842
▁obvious	-10.8846
▁unsuccessful	-10.8846
▁1854	-10.8846
▁Mughal	-10.8846
▁Pennsylvania	-10.8846
▁availability	-10.8846
▁biodiversity	-10.8846
▁driving	-10.8846
▁proximity	-10.8846
▁Margaret	-10.8846
▁Joint	-10.8846
▁SSR	-10.8846
▁abroad	-10.8846
▁domain	-10.8846
▁inscription	-10.8846
▁expelled	-10.8846
▁Index	-10.8846
▁Turks	-10.8846
▁comparative	-10.8846
▁exposed	-10.8846
▁senate	-10.8847
▁pigment	-10.8847
▁ownership	-10.8847
▁singles	-10.8848
▁blockade	-10.885
▁regardless	-10.8852
▁1934	-10.8853
▁1921	-10.8853
▁horses	-10.8855
▁traders	-10.8858
▁competitive	-10.8858
▁Samoan	-10.8864
grad	-10.8864
▁$7	-10.8865
▁observation	-10.8868
▁Tru	-10.8876
▁electron	-10.8877
some	-10.8878
▁bishop	-10.8879
▁breeding	-10.8887
▁tribute	-10.889
▁Dra	-10.8893
▁rent	-10.8893
cker	-10.8894
then	-10.8899
▁gap	-10.8901
holders	-10.8909
burn	-10.8911
▁conductor	-10.8912
▁permanently	-10.8917
ency	-10.8917
inter	-10.8919
life	-10.8919
final	-10.8923
▁Ger	-10.8936
▁departments	-10.8939
▁earning	-10.8942
▁ranks	-10.8944
▁(13	-10.8946
▁beside	-10.8949
▁segments	-10.895
chin	-10.8953
▁speeds	-10.8961
▁occasions	-10.8962
▁Raj	-10.8967
▁seeking	-10.8971
▁tests	-10.8973
▁Persia	-10.8973
▁publisher	-10.8974
page	-10.8976
▁bibl	-10.8976
▁3,000	-10.8977
▁ministers	-10.898
▁politically	-10.898
▁particles	-10.8986
▁Gorbachev	-10.8991
▁Gospel	-10.8991
▁Initially	-10.8991
▁Liszt	-10.8991
▁atmospheric	-10.8991
▁bandwidth	-10.8991
▁bottom	-10.8991
▁crucial	-10.8991
▁recruit	-10.8991
▁relevant	-10.8991
▁Fleet	-10.8991
▁charity	-10.8991
▁sharp	-10.8991
▁communicate	-10.8991
▁saint	-10.8991
▁zero	-10.8991
▁Training	-10.8991
▁exports	-10.8991
▁Forbes	-10.8991
▁Zhang	-10.8992
▁conservation	-10.8993
▁Indies	-10.8993
▁southwest	-10.8993
▁underground	-10.8996
▁1855	-10.8996
▁pointed	-10.8997
▁stream	-10.8997
▁Angel	-10.8998
▁baptism	-10.9002
▁Bernard	-10.9005
▁celebrate	-10.9005
▁dimensions	-10.9005
▁Regional	-10.9009
000	-10.901
▁wrestler	-10.9011
▁accounting	-10.9021
▁briefly	-10.9023
▁door	-10.9025
vested	-10.9026
▁factory	-10.9032
▁arrive	-10.9033
▁tone	-10.9035
phon	-10.9039
▁incorporate	-10.9041
▁raids	-10.9047
▁Alta	-10.9047
▁findings	-10.9047
bro	-10.9048
▁tested	-10.9054
matic	-10.9061
▁Ottomans	-10.9061
▁producers	-10.9063
▁Von	-10.9063
▁pin	-10.9066
▁clearly	-10.907
Man	-10.9076
▁recover	-10.9079
▁settlements	-10.9083
▁Mur	-10.9084
vic	-10.9084
▁encounter	-10.9089
▁Cat	-10.9089
▁accus	-10.9089
▁leagues	-10.9094
▁empires	-10.9095
▁museums	-10.9096
very	-10.9101
ori	-10.9114
duction	-10.9116
▁sequences	-10.9123
▁Sav	-10.9125
▁Marshal	-10.9126
▁readers	-10.9128
?]	-10.9129
▁engage	-10.9133
▁danger	-10.9136
▁advent	-10.9136
▁Harvard	-10.9138
▁Anatolia	-10.9138
▁ceremonial	-10.9138
▁consensus	-10.9138
▁criteria	-10.9138
▁ecosystem	-10.9138
▁emerging	-10.9138
▁mixture	-10.9138
▁qualities	-10.9138
▁Section	-10.9138
▁Electronic	-10.9138
▁roof	-10.9138
▁presidency	-10.9138
▁aftermath	-10.9138
▁engineer	-10.9138
▁false	-10.9138
▁outcome	-10.9138
▁HDTV	-10.9138
▁intervention	-10.9138
▁Bengal	-10.9139
▁trail	-10.9139
▁biology	-10.914
▁engagement	-10.914
▁szlachta	-10.9146
▁defin	-10.9147
▁47	-10.9147
▁highlight	-10.9149
▁breach	-10.9149
lf	-10.915
▁hill	-10.915
▁ethnicity	-10.9155
▁Range	-10.9157
▁brand	-10.9158
▁reactions	-10.9162
▁cathedral	-10.9162
▁borough	-10.9163
▁ancestor	-10.9163
▁Galician	-10.9164
▁window	-10.9165
▁continuously	-10.9169
ould	-10.918
▁doubled	-10.9187
▁collected	-10.9189
▁starr	-10.9192
▁Era	-10.9192
mission	-10.9197
▁Chan	-10.9209
▁seeing	-10.9214
▁landed	-10.9226
▁lacked	-10.9237
Upper	-10.9238
▁confirm	-10.9238
▁spin	-10.924
▁predict	-10.9246
▁lakes	-10.9247
▁rear	-10.9248
▁formula	-10.9249
oon	-10.9252
night	-10.9258
elli	-10.926
▁profession	-10.926
AL	-10.9263
▁Plant	-10.9264
ards	-10.9279
ón	-10.9283
▁prepare	-10.9283
kan	-10.9285
ildlife	-10.9287
▁Hamilton	-10.9287
▁Matthew	-10.9287
▁RIBA	-10.9287
▁Saturday	-10.9287
▁aesthetic	-10.9287
▁boycott	-10.9287
▁conjunction	-10.9287
▁holiday	-10.9287
▁hypothesis	-10.9287
▁Children	-10.9287
▁groove	-10.9287
▁gauge	-10.9287
▁Christoph	-10.9287
▁giant	-10.9287
papal	-10.9287
▁sculpture	-10.9287
▁Downtown	-10.9287
▁sacred	-10.9287
▁cooperation	-10.9288
▁duck	-10.9288
▁Review	-10.9289
▁dramatically	-10.9289
▁circulation	-10.929
▁boundary	-10.929
▁Cop	-10.9291
▁declaration	-10.9292
▁Tony	-10.9295
▁occasion	-10.9299
-3	-10.9299
▁unknown	-10.93
▁heterosexual	-10.93
▁Gaul	-10.9301
▁Otto	-10.9303
▁innovations	-10.9303
ollegiate	-10.9304
▁arranged	-10.9305
▁Kim	-10.9308
▁confrontation	-10.9309
▁infected	-10.9309
▁30,000	-10.931
▁championship	-10.9317
▁moon	-10.9318
▁prince	-10.9319
ball	-10.932
▁See	-10.932
▁solely	-10.9321
▁compatible	-10.9322
▁consumers	-10.9325
▁mounted	-10.9327
▁designer	-10.9335
read	-10.9341
▁cater	-10.9348
▁breaking	-10.9353
specific	-10.9356
European	-10.9356
▁electronics	-10.9361
zu	-10.9365
5–	-10.9366
,300	-10.9374
▁temples	-10.9375
▁walk	-10.938
▁anthropologists	-10.9386
▁1.5	-10.9387
ios	-10.9399
▁FM	-10.9406
▁Sol	-10.941
▁nights	-10.941
▁boy	-10.9412
▁Qua	-10.9413
▁GE	-10.9418
went	-10.9419
▁dominate	-10.9419
,200	-10.9419
▁let	-10.9424
▁Thuringia	-10.9424
▁coal	-10.9426
▁pur	-10.9428
▁invade	-10.9433
▁Scott	-10.9438
▁Benjamin	-10.9438
▁Brigade	-10.9438
▁Funafuti	-10.9438
▁Language	-10.9438
▁Moscow	-10.9438
▁acquisition	-10.9438
▁chapel	-10.9438
▁dominance	-10.9438
▁easier	-10.9438
▁guidance	-10.9438
▁phenomena	-10.9438
▁raising	-10.9438
▁significance	-10.9438
▁Hudson	-10.9438
▁delegate	-10.9438
▁illustrat	-10.9438
▁Alpine	-10.9438
▁madaris	-10.9438
▁decay	-10.9439
▁valid	-10.9439
▁marry	-10.9439
▁conceptual	-10.9439
▁disappear	-10.9439
▁psychological	-10.9439
▁plastic	-10.9439
▁accent	-10.9439
▁fault	-10.9439
▁capability	-10.9439
▁halt	-10.944
▁lobby	-10.9441
▁grid	-10.9442
▁1932	-10.9444
▁reache	-10.9445
five	-10.9446
▁Lutheran	-10.9446
▁Brooklyn	-10.9447
▁doors	-10.9451
▁successive	-10.9453
▁Serb	-10.9459
▁Shan	-10.946
▁looking	-10.9463
▁assume	-10.9464
▁destination	-10.9473
asi	-10.9476
cock	-10.9478
▁pages	-10.9481
▁delivered	-10.9482
▁mint	-10.9489
▁Generally	-10.9492
▁Nav	-10.9494
▁Cole	-10.9502
active	-10.9504
guard	-10.951
▁defended	-10.9517
bridge	-10.9517
▁republics	-10.9527
▁attacking	-10.9528
verse	-10.953
two	-10.9533
▁translations	-10.9535
▁commanders	-10.9537
mount	-10.9538
▁originate	-10.9542
▁Amer	-10.9549
▁Arabs	-10.9549
▁expanding	-10.9554
▁Hard	-10.9557
gre	-10.9558
▁boroughs	-10.9566
▁Steve	-10.9572
▁Macedonia	-10.9577
▁Victor	-10.9586
▁acquire	-10.9586
▁drama	-10.9591
zhou	-10.9592
▁Appalachian	-10.9592
▁ESPN	-10.9592
▁Religious	-10.9592
▁constituent	-10.9592
▁devoted	-10.9592
▁empirical	-10.9592
Bissau	-10.9592
▁mosque	-10.9592
▁RAF	-10.9592
▁ISO	-10.9592
▁inherent	-10.9592
▁torchbearer	-10.9593
▁admitted	-10.9593
▁suspect	-10.9593
▁awareness	-10.9594
▁Beyonce	-10.9594
▁Large	-10.9594
▁completion	-10.9594
▁weekend	-10.9594
▁stake	-10.9595
▁brick	-10.9595
action	-10.9595
▁revision	-10.9596
▁shall	-10.9596
▁accessible	-10.9596
▁dozen	-10.9596
▁travelled	-10.9597
gui	-10.9598
▁sight	-10.9599
▁functional	-10.96
▁associate	-10.9601
▁refugees	-10.9603
▁Stra	-10.9608
▁plural	-10.961
▁denomination	-10.9613
ature	-10.9614
▁eighth	-10.9615
▁themes	-10.9615
▁dubb	-10.9621
▁AT	-10.9623
▁Sino	-10.9627
▁demands	-10.9635
▁cosm	-10.964
▁Nigerian	-10.9641
▁broadcasting	-10.9642
▁lake	-10.9642
▁Romance	-10.9643
▁encountered	-10.9644
▁nutrition	-10.966
own	-10.9661
▁tape	-10.9661
▁extensively	-10.9663
▁bas	-10.9663
▁joining	-10.9663
▁Program	-10.9664
▁sponsored	-10.9664
▁premier	-10.9671
▁mechanisms	-10.9674
▁Catholics	-10.9675
▁seemed	-10.9681
▁46	-10.9684
ceded	-10.9692
▁wish	-10.9692
▁melt	-10.9692
▁specification	-10.9695
▁jurisdictions	-10.9696
▁fired	-10.9702
▁shifted	-10.9707
▁fighter	-10.9719
▁fed	-10.9724
▁Ci	-10.9737
▁1991,	-10.974
▁obligations	-10.9743
▁cables	-10.9745
▁Front	-10.9748
▁Belgium	-10.9749
▁Mississippi	-10.9749
▁Protection	-10.9749
▁Province	-10.9749
▁Rajasthan	-10.9749
▁Zelda	-10.9749
▁acoustic	-10.9749
▁cartridge	-10.9749
▁fiscal	-10.9749
▁replacing	-10.9749
▁mirror	-10.9749
▁Girl	-10.9749
▁relegat	-10.9749
▁alumni	-10.9749
▁RCA	-10.9749
▁Urban	-10.9749
▁Edison	-10.9749
▁torque	-10.9749
▁magic	-10.9749
▁colonists	-10.975
▁lawsuit	-10.9751
▁transported	-10.9751
▁prize	-10.9752
▁CBC	-10.9753
▁boost	-10.9753
▁dissolved	-10.9754
▁USAF	-10.9755
▁effectiveness	-10.9755
▁ally	-10.9755
▁hired	-10.9756
▁regulatory	-10.9757
▁Charter	-10.9763
▁runway	-10.9771
▁teen	-10.9771
▁resist	-10.9776
▁inhibit	-10.9776
▁licensed	-10.9777
▁unless	-10.9778
▁kg	-10.9779
▁studying	-10.9782
▁federalism	-10.9787
▁camera	-10.9789
▁freed	-10.9791
▁resource	-10.9795
▁Plato	-10.9801
▁Yet	-10.9802
▁contribution	-10.9805
nar	-10.9806
▁barr	-10.9808
imp	-10.9808
▁naturally	-10.981
▁Commander	-10.9811
De	-10.9816
white	-10.9824
▁happens	-10.9825
▁Cold	-10.9828
chy	-10.9829
maker	-10.983
though	-10.9832
700	-10.9832
human	-10.9838
▁corresponding	-10.9838
wick	-10.9838
▁Cable	-10.9842
▁epic	-10.9843
▁52	-10.9848
To	-10.9848
▁tablet	-10.9849
gram	-10.9856
▁recall	-10.986
▁settle	-10.9863
▁attending	-10.9863
▁labels	-10.9884
▁guarantee	-10.9888
▁electrons	-10.9891
poli	-10.9891
▁Indonesia	-10.9895
▁Cuba	-10.9895
▁numbered	-10.9895
rain	-10.9898
▁Vol	-10.9899
ç	-10.9907
▁Hawaii	-10.9907
▁Hokkien	-10.9907
▁Medieval	-10.9907
▁beautiful	-10.9907
▁carriage	-10.9907
▁circle	-10.9907
▁compromise	-10.9907
▁submarine	-10.9907
▁victories	-10.9907
▁Political	-10.9907
▁coffee	-10.9907
▁legitimate	-10.9907
▁1901	-10.9907
▁decoration	-10.9907
▁venture	-10.9907
▁UTF	-10.9907
▁Denmark	-10.9907
▁coincid	-10.9907
▁narrative	-10.9908
▁observ	-10.9908
▁permission	-10.991
▁excessive	-10.9911
▁Jer	-10.9912
▁1933	-10.9913
▁detail	-10.9914
hon	-10.9915
▁Harry	-10.9917
▁bias	-10.9918
▁idealism	-10.9921
▁recovery	-10.9923
▁simplified	-10.9923
how	-10.9924
ector	-10.9924
▁socially	-10.9925
▁collectively	-10.9926
▁rotation	-10.9926
–12	-10.9927
▁Race	-10.9927
▁Blu	-10.9927
▁$6	-10.9929
hard	-10.993
▁hence	-10.9931
▁Romantic	-10.9933
▁Democrats	-10.9934
volution	-10.9934
▁fallen	-10.9935
▁bin	-10.9936
▁inherited	-10.9936
▁Ji	-10.9936
▁congregations	-10.9938
▁Cap	-10.9938
▁halls	-10.9938
▁Wang	-10.9939
▁39	-10.994
▁30%	-10.9941
▁Dance	-10.9943
▁Press	-10.9943
▁constituted	-10.9948
▁Web	-10.9955
▁commit	-10.9968
loom	-10.9969
▁participants	-10.9973
▁Vice	-10.9973
worth	-10.9975
hab	-10.9978
▁Scholars	-10.998
▁theoretical	-10.9981
▁tanks	-10.9982
language	-10.9986
▁sta	-10.9987
generation	-10.9988
▁Rout	-10.9993
▁Romania	-11.0007
ister	-11.0008
▁discover	-11.0008
▁pupils	-11.0009
▁epi	-11.001
▁install	-11.0011
▁organize	-11.0019
▁abandon	-11.002
▁provisions	-11.0026
▁Chapel	-11.0034
▁Tim	-11.0036
ulation	-11.004
▁enforce	-11.0046
▁regulate	-11.0049
DA	-11.0051
graphic	-11.0051
count	-11.0051
-4	-11.0052
tude	-11.0053
▁160	-11.0055
▁Macedon	-11.0057
▁exceptions	-11.0062
▁hydro	-11.0068
▁Clark	-11.0068
▁Mockingbird	-11.0069
▁advertising	-11.0069
▁batteries	-11.0069
▁elevated	-11.0069
▁enormous	-11.0069
▁monasteries	-11.0069
▁profound	-11.0069
▁twentieth	-11.0069
▁Alliance	-11.0069
▁steam	-11.0069
▁influx	-11.0069
▁insulin	-11.0069
▁talent	-11.0069
▁Design	-11.0069
▁fulfill	-11.0069
▁insisted	-11.0069
▁lord	-11.0069
▁grammar	-11.0069
▁Davis	-11.007
▁exploration	-11.0071
▁Sultanate	-11.0071
lab	-11.0072
▁Country	-11.0073
▁CEO	-11.0073
▁mountainous	-11.0074
▁proof	-11.0075
▁coastline	-11.0077
▁nest	-11.0077
▁fame	-11.0079
▁recommendation	-11.0082
▁peasants	-11.0083
▁12,000	-11.0085
▁towers	-11.0087
▁followers	-11.0088
▁KU	-11.0092
▁collections	-11.0094
▁descended	-11.0095
▁Cuban	-11.0095
cro	-11.0096
▁exactly	-11.0098
▁grains	-11.01
▁tram	-11.0102
▁assumption	-11.0104
▁reserved	-11.0105
▁rocket	-11.0106
ware	-11.0113
▁hills	-11.0116
ude	-11.0118
▁approaches	-11.0119
▁mile	-11.012
▁bills	-11.012
▁Manchuria	-11.0121
▁Augustus	-11.0122
▁demonstration	-11.0125
▁mini	-11.0129
▁Pole	-11.0134
fin	-11.0143
ground	-11.0145
▁willing	-11.0146
oi	-11.0147
▁sectors	-11.0148
efficient	-11.015
▁95	-11.0157
▁Ray	-11.0157
▁keeping	-11.0159
▁Gate	-11.0162
ii	-11.0162
▁Communications	-11.0162
▁advances	-11.0162
▁eating	-11.0163
▁valleys	-11.0168
▁holes	-11.0168
▁hoped	-11.0175
▁attractions	-11.0176
▁farming	-11.0179
▁restrict	-11.0183
▁condemn	-11.0183
▁Way	-11.0184
▁helicopters	-11.0195
▁rivals	-11.0195
ational	-11.0201
▁interested	-11.0207
▁Tan	-11.0208
▁emphasize	-11.0214
CD	-11.0215
ridge	-11.0219
▁pursue	-11.0221
▁Anthony	-11.0232
▁Gregorian	-11.0232
▁Species	-11.0232
▁administrator	-11.0232
▁chapter	-11.0232
▁economist	-11.0232
▁garrison	-11.0232
▁latitude	-11.0232
▁libraries	-11.0232
▁stomach	-11.0232
▁Support	-11.0232
▁Wilson	-11.0232
▁client	-11.0232
▁Colony	-11.0232
▁Machine	-11.0233
▁Small	-11.0233
▁throw	-11.0233
▁trophy	-11.0233
▁Freedom	-11.0233
optim	-11.0233
▁transmitted	-11.0234
▁keyboard	-11.0234
▁Norway	-11.0235
▁editorial	-11.0235
▁closing	-11.0235
▁banner	-11.0235
▁selective	-11.0237
▁elites	-11.0237
▁margin	-11.0238
▁Professor	-11.0239
▁Broad	-11.024
▁herself	-11.024
▁40%	-11.0241
▁systematic	-11.0242
▁Canis	-11.0243
gio	-11.0246
▁wings	-11.0246
▁accomplished	-11.0248
▁complexity	-11.025
▁Medi	-11.025
▁warning	-11.0251
▁Heart	-11.0256
▁manufactured	-11.026
▁meters	-11.0264
▁Syrian	-11.0267
▁emerge	-11.0269
harvest	-11.0274
lingua	-11.0277
▁coined	-11.028
▁Kin	-11.028
▁fictional	-11.0284
▁neur	-11.0291
▁violation	-11.0294
▁painted	-11.0303
▁App	-11.0305
uf	-11.0306
▁pictures	-11.0311
▁gate	-11.0312
hat	-11.0316
sexual	-11.0316
French	-11.0316
▁requir	-11.0317
▁marketed	-11.0317
earned	-11.032
DC	-11.0322
Zn	-11.0323
▁equally	-11.0328
▁environments	-11.0332
▁hotels	-11.0334
pet	-11.0335
▁Py	-11.0341
ky	-11.0342
case	-11.0343
▁absorb	-11.035
cate	-11.0352
▁49	-11.0354
eau	-11.0355
▁sit	-11.0362
▁strengthen	-11.0367
▁solve	-11.0367
▁Im	-11.0374
▁kinds	-11.0376
▁combine	-11.038
▁relate	-11.039
▁toxic	-11.0398
▁Abbey	-11.0399
▁Amsterdam	-11.0399
▁Colorado	-11.0399
▁Cultural	-11.0399
▁Philosoph	-11.0399
▁Roosevelt	-11.0399
▁Scientific	-11.0399
▁clause	-11.0399
▁curriculum	-11.0399
▁doubt	-11.0399
▁romantic	-11.0399
▁unemployment	-11.0399
▁Arnold	-11.0399
▁legacy	-11.0399
▁Louisiana	-11.0399
▁terrain	-11.0399
▁Finland	-11.0399
▁aristocrat	-11.0399
▁ideology	-11.0399
▁pool	-11.0399
▁warrior	-11.0399
▁nerve	-11.0399
▁fraction	-11.0399
▁shrine	-11.04
▁captain	-11.04
▁tin	-11.04
▁vault	-11.04
▁wore	-11.04
▁redesign	-11.0401
▁acclaim	-11.0401
▁digestion	-11.0402
▁drain	-11.0402
▁tallest	-11.0402
▁actress	-11.0402
án	-11.0403
▁brew	-11.0403
▁1849	-11.0404
▁gall	-11.0405
▁Malaysia	-11.0405
▁Wolf	-11.0405
▁eliminate	-11.0406
▁mask	-11.0406
face	-11.0408
▁upgrade	-11.0408
▁flora	-11.041
▁Dock	-11.0411
▁genres	-11.0413
▁ple	-11.0418
▁unrest	-11.0419
▁gone	-11.0422
▁suspended	-11.0423
▁presentation	-11.0423
▁desired	-11.0433
▁metro	-11.0438
▁43	-11.0447
▁videoconferenc	-11.0452
▁atoms	-11.0455
▁minerals	-11.0464
▁rating	-11.0471
▁hotel	-11.0474
▁Somalis	-11.0477
,400	-11.0478
▁suitabl	-11.0483
General	-11.0486
Roman	-11.0488
BC	-11.0488
▁rings	-11.049
▁Gil	-11.049
lag	-11.0496
!"	-11.0498
▁circuits	-11.0502
▁(200	-11.0504
▁feared	-11.0507
▁heating	-11.0511
fall	-11.0514
▁sky	-11.0515
▁nobles	-11.0515
order	-11.0518
▁hole	-11.0519
▁Gates	-11.0519
▁steppe	-11.052
▁comp	-11.0524
▁tea	-11.0527
8,000	-11.0528
▁delay	-11.0533
itive	-11.0542
▁solder	-11.0544
▁Cypriots	-11.0554
▁employer	-11.0555
una	-11.0557
▁CP	-11.0557
▁Dominic	-11.0559
▁van	-11.0561
▁Kiev	-11.0565
▁Southwest	-11.0567
itis	-11.0568
▁Capitol	-11.0569
▁Destiny	-11.0569
▁Jonathan	-11.0569
▁Stephen	-11.0569
▁occurrence	-11.0569
▁plague	-11.0569
▁preceding	-11.0569
▁stroke	-11.0569
▁Computer	-11.0569
▁aggressive	-11.0569
▁chicken	-11.0569
▁1889	-11.0569
▁Atticus	-11.0569
▁Celtic	-11.0569
▁outdoor	-11.0569
ike	-11.0569
▁Phillip	-11.0569
▁Critic	-11.0569
▁laboratory	-11.0569
▁navigation	-11.0569
▁compact	-11.0569
▁knew	-11.0569
▁Price	-11.0569
▁eighteen	-11.0569
▁veto	-11.057
▁massacre	-11.057
▁lift	-11.057
▁holy	-11.057
anti	-11.057
▁chemistry	-11.057
▁Drug	-11.0571
▁Village	-11.0571
▁cub	-11.0573
▁housed	-11.0575
▁depart	-11.0575
▁cargo	-11.0576
▁specified	-11.0576
▁1923	-11.0576
▁installation	-11.0578
▁sick	-11.0579
▁cook	-11.0579
▁supplied	-11.0581
▁associations	-11.0582
rock	-11.0582
▁everyone	-11.0585
▁regulated	-11.0589
▁angle	-11.0595
▁acknowledged	-11.0596
▁deities	-11.0598
▁slip	-11.06
▁sm	-11.0602
▁Archives	-11.0606
▁sensitive	-11.0608
▁resid	-11.0609
▁classify	-11.061
▁Phil	-11.0613
▁partners	-11.0616
▁jet	-11.0624
▁privileges	-11.0627
▁scores	-11.0632
▁6,000	-11.0633
▁invest	-11.0634
▁seriously	-11.0635
▁Mike	-11.0639
▁tensions	-11.064
▁Cardinal	-11.064
▁declar	-11.0642
▁humanism	-11.0645
▁variations	-11.0649
▁argu	-11.0651
lly	-11.0653
▁cycles	-11.0654
ories	-11.0657
Christian	-11.0658
cultural	-11.0658
▁reside	-11.0659
▁demo	-11.0663
eck	-11.0665
zan	-11.0671
master	-11.0675
▁deliver	-11.0678
▁organisations	-11.0683
▁Cro	-11.0686
▁coin	-11.0686
▁Unit	-11.0689
▁apps	-11.0699
▁Gun	-11.0701
▁Mongols	-11.0709
▁reporting	-11.071
ān	-11.071
▁FC	-11.0711
gene	-11.072
▁moves	-11.0725
rou	-11.0725
▁wearing	-11.073
▁Luther	-11.0732
gatherer	-11.0741
▁Abraham	-11.0741
▁Century	-11.0741
▁Coalition	-11.0741
▁Ptolemy	-11.0741
▁declining	-11.0741
▁memorial	-11.0741
▁nutrients	-11.0741
▁physiological	-11.0741
▁quantity	-11.0741
▁statistical	-11.0741
▁vegetation	-11.0741
▁wrong	-11.0741
▁smooth	-11.0741
▁assembled	-11.0741
▁diverg	-11.0741
▁Desert	-11.0741
▁crude	-11.0742
▁stars	-11.0742
▁ruin	-11.0742
▁microphone	-11.0742
▁automatically	-11.0742
▁millennium	-11.0742
▁Turner	-11.0743
▁sect	-11.0743
▁dangerous	-11.0743
▁reviews	-11.0743
▁modul	-11.0743
▁organised	-11.0743
▁index	-11.0744
▁Baptists	-11.0745
▁thereafter	-11.0749
▁controllers	-11.0749
▁orthodox	-11.0749
▁1835	-11.0749
▁Highway	-11.075
▁plot	-11.0751
▁Para	-11.0752
▁patents	-11.0753
▁ceased	-11.0754
iest	-11.0754
stein	-11.0755
▁Allies	-11.0756
▁curve	-11.0756
usually	-11.0758
▁Saxony	-11.0759
▁equipped	-11.0761
▁50,000	-11.0761
▁fur	-11.0762
▁cup	-11.0767
▁Steven	-11.077
▁passes	-11.0773
▁editions	-11.0773
▁friendly	-11.0776
▁handled	-11.0778
▁Ring	-11.0778
▁celebrations	-11.078
▁20,000	-11.078
▁pest	-11.0785
▁Action	-11.0785
▁boards	-11.0796
▁challenged	-11.08
▁bitumen	-11.08
▁severely	-11.081
▁Balkan	-11.082
▁presid	-11.0825
▁Ash	-11.0825
▁phases	-11.0827
▁scored	-11.0831
▁manufacturer	-11.0832
▁lodges	-11.0833
▁glacier	-11.0837
▁Pra	-11.0837
▁symbols	-11.0839
▁activists	-11.0842
uz	-11.0844
▁carrie	-11.0845
For	-11.0848
▁Students	-11.0851
▁Mau	-11.0865
▁Er	-11.0867
▁socialist	-11.0872
lement	-11.0874
▁HM	-11.0876
▁gay	-11.0876
II	-11.088
▁5%	-11.088
▁championships	-11.0882
▁drawing	-11.0893
▁whil	-11.0893
▁didn	-11.0894
▁enhance	-11.0894
▁tool	-11.0896
4,000	-11.0898
▁Mart	-11.0907
ér	-11.0909
▁Members	-11.0913
▁disagree	-11.0914
▁Jordan	-11.0916
▁Magazine	-11.0916
▁Strasbourg	-11.0916
▁concrete	-11.0916
▁offspring	-11.0916
▁prominence	-11.0916
▁judgment	-11.0916
▁vinyl	-11.0916
▁pagan	-11.0917
▁terminus	-11.0917
▁interference	-11.0917
▁Iron	-11.0917
▁gaming	-11.0917
▁plebeian	-11.0917
▁Comics	-11.0917
▁colon	-11.0917
▁petition	-11.0917
▁breakdown	-11.0917
▁sunlight	-11.0918
▁costume	-11.0918
▁integration	-11.0918
▁quake	-11.0918
▁Mul	-11.0919
▁illness	-11.0919
▁nonprofit	-11.092
▁leak	-11.0921
▁Operations	-11.0921
▁1837	-11.0922
▁gravity	-11.0922
▁runner	-11.0925
▁youngest	-11.0926
▁unification	-11.0927
▁nineteenth	-11.0929
▁pronounced	-11.0929
fend	-11.0932
▁Finally	-11.0932
▁enhanced	-11.0936
▁Pla	-11.0937
▁chamber	-11.0947
▁clinical	-11.0949
RT	-11.0951
Fi	-11.0952
▁Gre	-11.0952
thirds	-11.096
▁Rio	-11.0965
fast	-11.0966
▁drives	-11.0968
▁800	-11.0974
▁Side	-11.0976
▁refus	-11.0978
olo	-11.0978
▁observe	-11.0979
▁flowers	-11.0993
▁Mel	-11.0995
established	-11.0996
▁lodge	-11.1001
▁merchant	-11.1001
▁Intel	-11.1002
▁41	-11.1003
▁asserted	-11.1005
▁XI	-11.1006
▁composers	-11.1008
ules	-11.1011
Croatian	-11.1012
▁describ	-11.1013
first	-11.1016
high	-11.1017
▁commemorat	-11.102
▁Parisian	-11.102
▁ratings	-11.1025
▁$5	-11.1035
▁demonstrations	-11.1035
mail	-11.1036
▁Gram	-11.1038
▁log	-11.1041
▁arch	-11.1042
-5	-11.1046
▁Studios	-11.1054
vat	-11.1056
GB	-11.1059
▁shorter	-11.107
kill	-11.1071
▁op	-11.1072
▁observations	-11.1076
NC	-11.1078
▁terminals	-11.108
▁Bulgaria	-11.108
▁transmit	-11.1084
▁norm	-11.1086
▁Call	-11.1088
held	-11.1093
▁morph	-11.1094
▁firms	-11.1094
digit	-11.1094
▁gymnast	-11.1095
▁Athletic	-11.1095
▁Chairman	-11.1095
▁Confederation	-11.1095
▁Contemporary	-11.1095
▁Ferdinand	-11.1095
▁Rebellion	-11.1095
▁abbey	-11.1095
▁ingredient	-11.1095
▁liberty	-11.1095
▁luxury	-11.1095
▁metabolic	-11.1095
▁summit	-11.1095
▁compensation	-11.1095
▁monastic	-11.1095
▁1853	-11.1095
▁edited	-11.1095
▁sensation	-11.1095
▁trust	-11.1095
▁electromagnetic	-11.1095
▁scope	-11.1095
▁Patrick	-11.1095
▁facing	-11.1095
Single	-11.1095
▁consent	-11.1096
▁inheritance	-11.1096
▁barrier	-11.1096
▁creator	-11.1096
▁Planck	-11.1096
▁crash	-11.1097
▁Medal	-11.1097
▁loyalty	-11.1097
▁Truman	-11.1099
▁rebuilt	-11.1099
▁Methodist	-11.11
▁Rev	-11.11
▁Trust	-11.1101
▁cutting	-11.1101
▁stance	-11.1102
▁1928	-11.1102
▁rejection	-11.1103
▁Season	-11.1105
▁Hai	-11.1108
▁indeed	-11.111
DP	-11.1111
▁1820	-11.1112
▁1810	-11.1114
▁intensity	-11.1114
▁impose	-11.1115
▁transformation	-11.1117
▁Chen	-11.1119
▁enrolled	-11.1122
▁thanks	-11.1125
▁accession	-11.1128
rail	-11.1129
lash	-11.1133
▁terminat	-11.1133
▁cellular	-11.1134
▁arguments	-11.1135
▁wounded	-11.1138
-8	-11.1149
▁humanity	-11.1151
▁minimal	-11.1155
▁Kent	-11.1156
▁launching	-11.116
▁Pure	-11.1163
▁socialism	-11.1172
▁Sahara	-11.1178
▁Well	-11.1181
aire	-11.1187
▁grants	-11.1188
▁Record	-11.1191
cular	-11.1193
formerly	-11.1194
chief	-11.1196
when	-11.1198
lite	-11.1203
▁shaped	-11.1203
ether	-11.1204
▁girl	-11.1209
én	-11.1211
ester	-11.1213
new	-11.1213
▁59	-11.1214
▁1%	-11.123
▁linguist	-11.1236
▁Theory	-11.125
hand	-11.1256
▁collective	-11.1258
-18	-11.1261
nik	-11.1263
▁Powers	-11.1265
▁personally	-11.1265
▁complement	-11.1275
cid	-11.1275
▁Newfoundland	-11.1277
▁Wenchuan	-11.1277
▁efficacy	-11.1277
▁enemies	-11.1277
▁explosion	-11.1277
▁iTunes	-11.1277
▁profile	-11.1277
▁strategies	-11.1277
▁temporal	-11.1277
▁£1	-11.1277
▁persuad	-11.1277
▁qualify	-11.1277
▁Conroy	-11.1277
▁distant	-11.1277
▁poison	-11.1277
▁Zhou	-11.1277
▁adjective	-11.1277
▁Whitney	-11.1277
▁demographic	-11.1277
▁diode	-11.1277
▁brown	-11.1277
▁coronation	-11.1277
▁caught	-11.1278
▁configuration	-11.1278
▁recession	-11.1278
▁southeastern	-11.1279
▁Abdel	-11.128
▁preparation	-11.1283
▁Recent	-11.1283
▁1839	-11.1284
▁authorized	-11.1285
▁Milan	-11.1286
▁clocks	-11.1286
RO	-11.1288
reaching	-11.1288
▁Princeton	-11.129
▁Chris	-11.1291
third	-11.1292
▁equality	-11.1294
▁Tor	-11.1298
–14	-11.13
chlor	-11.13
▁15,000	-11.1301
▁Had	-11.1302
▁Set	-11.1304
▁Grant	-11.131
▁feeling	-11.1311
▁contend	-11.1312
▁flourished	-11.1314
▁apparently	-11.1316
▁accident	-11.1318
▁fees	-11.1319
▁prohibited	-11.1323
▁mount	-11.1327
▁formulat	-11.1328
▁Easter	-11.1338
▁Reformed	-11.1347
▁Rod	-11.1347
▁Fame	-11.1352
▁Years	-11.1354
▁adapt	-11.1361
▁consideration	-11.1363
▁68	-11.1366
hall	-11.1373
stream	-11.1375
▁immigrant	-11.1376
▁achiev	-11.1377
▁tank	-11.1378
group	-11.1378
Greek	-11.1379
▁debuted	-11.138
PR	-11.1383
about	-11.1387
▁shooting	-11.1387
▁Mongolia	-11.1388
▁pairs	-11.1391
▁sat	-11.1395
onia	-11.1401
▁fiction	-11.1404
▁Juli	-11.1406
▁winds	-11.1406
▁fun	-11.1408
▁Lodges	-11.141
▁predominant	-11.1411
▁manipulat	-11.1412
▁criticis	-11.1419
▁destinations	-11.142
▁Beth	-11.1426
▁Sciences	-11.1426
▁Mil	-11.1435
▁Bang	-11.1436
▁translate	-11.1444
▁steps	-11.1445
▁Lithuania	-11.1456
acre	-11.1459
▁tract	-11.1462
▁Lancashire	-11.1462
▁Swedish	-11.1462
▁allegations	-11.1462
▁loanwords	-11.1462
▁maintenance	-11.1462
▁subtropical	-11.1462
▁supreme	-11.1462
▁Jazz	-11.1462
▁cognitive	-11.1462
▁isotope	-11.1462
▁fourteen	-11.1462
▁Jacob	-11.1462
▁Bosnia	-11.1462
▁Afro	-11.1462
▁Geneva	-11.1463
▁soundtrack	-11.1463
▁therapy	-11.1464
▁Frankish	-11.1464
▁Family	-11.1465
▁Site	-11.1465
▁superiority	-11.1466
▁informed	-11.1466
▁relocated	-11.1467
▁Ryan	-11.1467
▁Penn	-11.1468
NT	-11.1469
▁1821	-11.147
▁Jack	-11.1471
▁Arabia	-11.1472
▁handling	-11.1473
▁Dun	-11.1473
▁shifts	-11.1475
chrom	-11.1477
▁partition	-11.1478
▁musician	-11.1478
▁disputes	-11.1483
▁prediction	-11.1485
▁standardized	-11.1487
Ch	-11.1489
position	-11.149
▁1500	-11.1493
▁locally	-11.1496
▁theaters	-11.1498
▁collector	-11.1499
▁anyone	-11.1503
▁examin	-11.1506
▁Sunni	-11.1508
▁repeatedly	-11.1509
▁span	-11.1511
▁grass	-11.1511
▁objectives	-11.1514
icide	-11.1517
▁strengthened	-11.1517
▁commanded	-11.1518
▁Qin	-11.1519
▁castle	-11.1524
osa	-11.1524
birds	-11.1525
▁properly	-11.1525
▁stops	-11.1527
▁melting	-11.1532
▁organs	-11.1536
▁deeply	-11.1542
▁affiliate	-11.155
dependent	-11.1553
aging	-11.1557
profit	-11.1564
quality	-11.1566
▁Arian	-11.1575
▁continents	-11.1576
▁calculat	-11.158
▁panels	-11.1593
▁addressed	-11.1595
▁tag	-11.1599
▁sponsor	-11.1601
▁succeed	-11.1602
▁2.0	-11.161
▁rituals	-11.1614
▁distances	-11.1623
▁confront	-11.1624
▁reinforce	-11.1626
tended	-11.1627
▁explore	-11.1634
▁Serbia	-11.1642
▁Qui	-11.1643
▁venues	-11.1644
▁corrupt	-11.1646
boy	-11.1647
erial	-11.1647
▁Admiral	-11.1651
▁trouble	-11.1651
sophisticated	-11.1651
▁Berkeley	-11.1651
▁Engineering	-11.1651
▁LGBT	-11.1651
▁Lisbon	-11.1651
▁Various	-11.1651
▁biotechnology	-11.1651
▁defensive	-11.1651
▁filter	-11.1651
▁maritime	-11.1651
▁reproduction	-11.1651
▁truck	-11.1651
▁Gordon	-11.1651
▁battery	-11.1651
▁federation	-11.1651
▁mandatory	-11.1651
▁sentiment	-11.1651
▁quiet	-11.1651
▁tolerance	-11.1651
▁spacecraft	-11.1651
▁stain	-11.1651
▁nevertheless	-11.1652
▁Self	-11.1652
▁basketball	-11.1652
▁Authority	-11.1652
▁burn	-11.1652
▁unclear	-11.1652
▁baseball	-11.1652
▁equator	-11.1652
▁lock	-11.1653
▁wake	-11.1653
▁Hugh	-11.1653
▁pound	-11.1655
▁traction	-11.1655
▁Mission	-11.1656
▁1882	-11.1657
▁1898	-11.1658
▁1935	-11.166
▁humanist	-11.1661
▁backward	-11.1661
▁Churchill	-11.1662
▁acceptable	-11.1662
▁1815	-11.1662
▁Lang	-11.1664
▁encoded	-11.1666
▁Former	-11.1667
▁cave	-11.167
▁40,000	-11.167
▁grade	-11.1674
pop	-11.1678
was	-11.1678
▁gathering	-11.1679
▁charges	-11.1681
▁sample	-11.1682
▁virus	-11.1688
▁newer	-11.169
elect	-11.169
▁nationally	-11.1691
▁Catholicism	-11.1693
▁flowering	-11.1705
▁Key	-11.1706
▁Camp	-11.1708
path	-11.171
▁symptoms	-11.1718
zen	-11.1719
▁quot	-11.1723
avian	-11.1727
logy	-11.1727
▁streaming	-11.1728
▁peaks	-11.1735
ncy	-11.174
jan	-11.174
▁latest	-11.1742
−	-11.1749
▁reserve	-11.1755
member	-11.1758
friend	-11.1761
▁discussing	-11.1762
▁Picture	-11.1763
▁loan	-11.1764
▁tension	-11.1764
▁700	-11.1771
▁(14	-11.1772
▁1]	-11.1777
▁customer	-11.179
▁Victorian	-11.1791
▁strings	-11.1799
▁costly	-11.1803
▁weaken	-11.1808
▁Hal	-11.1811
▁2%	-11.1814
▁wet	-11.1818
5)	-11.1821
▁gradual	-11.1821
▁counterparts	-11.1826
▁Dam	-11.1827
▁LD	-11.1828
▁Kel	-11.1828
▁cheap	-11.1828
▁sensor	-11.1829
▁demanded	-11.1836
▁minute	-11.1838
roll	-11.1839
▁separately	-11.1841
owing	-11.1843
▁Amendment	-11.1843
▁Caucasus	-11.1843
▁Cherokee	-11.1843
▁Financial	-11.1843
▁Friedrich	-11.1843
▁Lebanon	-11.1843
▁Olympia	-11.1843
▁Religion	-11.1843
▁Rugby	-11.1843
▁Testament	-11.1843
▁Wembley	-11.1843
▁feathers	-11.1843
▁statistics	-11.1843
▁Period	-11.1843
▁aristocracy	-11.1843
▁Saudi	-11.1843
▁drill	-11.1843
▁loose	-11.1843
▁Nordic	-11.1843
▁Lewis	-11.1843
▁Venice	-11.1843
▁snowfall	-11.1844
▁Sometimes	-11.1844
▁manual	-11.1844
▁deployment	-11.1845
both	-11.1845
▁wireless	-11.1845
▁amino	-11.1845
▁assassination	-11.1845
▁trademark	-11.1845
▁Horn	-11.1846
▁Local	-11.1847
▁lawyer	-11.1847
▁1857	-11.1847
▁frontier	-11.1847
▁dealing	-11.1848
▁exclud	-11.1848
▁dictator	-11.1849
▁VIII	-11.1849
▁400,000	-11.1851
▁dishes	-11.1851
till	-11.1851
▁secretary	-11.1852
▁Sen	-11.1852
▁Argentina	-11.1853
▁taste	-11.1853
▁pot	-11.1854
flu	-11.1854
▁Beach	-11.1859
▁indication	-11.1859
▁rap	-11.186
▁Protestantism	-11.1861
▁computing	-11.1866
onian	-11.1878
▁pursued	-11.1879
▁fortune	-11.1881
▁Back	-11.1881
▁Wake	-11.1887
▁excluded	-11.1893
▁Hunting	-11.1897
▁headline	-11.1898
horn	-11.1899
▁Hungarian	-11.1899
▁periodic	-11.1905
care	-11.1914
▁plates	-11.1921
▁retreated	-11.1922
▁horn	-11.1925
▁shirts	-11.1928
▁canal	-11.1936
▁murdered	-11.1937
hit	-11.1942
▁Kar	-11.1948
▁hunt	-11.1948
▁introduc	-11.1951
Saharan	-11.1951
▁rod	-11.1954
Latin	-11.1958
▁scientist	-11.1964
▁mineral	-11.1966
▁hospitals	-11.1968
▁Ice	-11.1969
▁seasonal	-11.197
igi	-11.1971
▁lion	-11.1972
▁Jew	-11.1974
▁prohibit	-11.1974
owed	-11.1975
shin	-11.1983
▁suppress	-11.1986
lip	-11.2012
▁managers	-11.2012
Con	-11.2016
▁nm	-11.2021
▁exempt	-11.2027
▁satellites	-11.2032
▁Birds	-11.2033
▁attribut	-11.2039
▁procedures	-11.2039
▁Arctic	-11.2039
▁Azerbaijan	-11.2039
▁Chengdu	-11.2039
▁Diamond	-11.2039
▁Duchess	-11.2039
▁Telangana	-11.2039
▁abolition	-11.2039
▁adequate	-11.2039
▁decorative	-11.2039
▁dissolution	-11.2039
▁evacuated	-11.2039
▁fifty	-11.2039
▁licensing	-11.2039
▁manifest	-11.2039
▁semiconductor	-11.2039
▁synagogue	-11.2039
▁tungsten	-11.2039
▁vulnerable	-11.2039
▁escort	-11.2039
▁diminish	-11.2039
▁ninth	-11.2039
▁jump	-11.2039
▁subordinate	-11.2039
▁wheat	-11.204
▁dioxide	-11.204
▁reorganiz	-11.204
▁demonstrators	-11.204
▁prima	-11.204
▁imitat	-11.204
▁Normandy	-11.204
▁shock	-11.2041
▁Often	-11.2042
▁Strait	-11.2043
▁reopen	-11.2043
▁theorem	-11.2043
▁Down	-11.2044
▁1904	-11.2044
rite	-11.2044
▁lifestyle	-11.2046
▁passive	-11.2048
▁reward	-11.2058
▁laser	-11.2058
▁geo	-11.2061
▁performers	-11.2061
▁indicator	-11.2062
▁Kant	-11.2063
verb	-11.2064
▁Ky	-11.2071
▁Pal	-11.2076
▁armor	-11.2082
▁Lithuanian	-11.2089
▁Ross	-11.2091
▁Jane	-11.2096
▁Isles	-11.2098
yne	-11.21
▁56	-11.2107
▁crosses	-11.2114
▁specialis	-11.2124
▁persist	-11.2137
▁switched	-11.2141
▁85	-11.2143
built	-11.2152
▁poorly	-11.2153
complete	-11.2156
culture	-11.2157
coding	-11.2158
▁derive	-11.216
▁Shar	-11.2161
▁valued	-11.2163
▁Gla	-11.2163
▁violations	-11.2167
▁opponent	-11.2168
▁victim	-11.2168
written	-11.2169
▁identifying	-11.2186
▁privilege	-11.2186
▁borrow	-11.219
sea	-11.2192
uous	-11.2192
▁belonging	-11.2196
sistence	-11.2198
▁encompass	-11.2201
▁prov	-11.2204
▁update	-11.2209
fore	-11.2213
▁compar	-11.2218
▁statutes	-11.2227
▁sac	-11.2231
▁inaugura	-11.2237
onsequently	-11.2237
responsibilities	-11.2239
▁Habsburg	-11.2239
▁Quebec	-11.2239
▁aluminium	-11.2239
▁artifacts	-11.2239
▁default	-11.2239
▁explosive	-11.2239
▁hormone	-11.2239
▁membrane	-11.2239
▁ministry	-11.2239
▁monsoon	-11.2239
▁prestigious	-11.2239
▁transcription	-11.2239
▁vaccine	-11.2239
Qaeda	-11.2239
▁1789	-11.2239
▁finite	-11.2239
▁harbor	-11.2239
▁injuries	-11.2239
▁textual	-11.2239
▁tonnes	-11.2239
▁Bacteria	-11.2239
▁NASA	-11.2239
▁Warren	-11.2239
▁creature	-11.2239
▁Bavaria	-11.224
▁Gregory	-11.224
▁Register	-11.224
▁endangered	-11.224
▁Duchy	-11.224
▁Senator	-11.224
▁kilometers	-11.224
▁Plaza	-11.224
▁polarization	-11.224
▁everything	-11.224
▁foster	-11.2241
▁digestive	-11.2241
▁prosperity	-11.2241
▁nationwide	-11.2242
▁Midna	-11.2242
▁Holland	-11.2242
▁stamp	-11.2243
▁Aboriginal	-11.2243
▁resumed	-11.2244
▁resignation	-11.2244
▁playback	-11.2245
▁Chola	-11.2245
▁Villa	-11.2245
▁Market	-11.2245
▁1832	-11.2246
▁terrorist	-11.2246
wel	-11.2247
▁bay	-11.2248
▁outlaw	-11.2251
▁Kensington	-11.2252
▁merger	-11.2252
▁embarked	-11.2253
▁ABC	-11.2257
▁57	-11.2262
▁personality	-11.2263
▁rendered	-11.2265
▁arena	-11.2265
▁progressively	-11.227
▁deny	-11.2271
▁Lion	-11.2272
▁columns	-11.2272
▁interconnect	-11.2274
▁listening	-11.2279
pati	-11.2286
▁Fift	-11.2289
▁strictly	-11.229
▁weakened	-11.2291
▁charts	-11.2291
real	-11.2299
▁Joe	-11.23
▁arrangements	-11.2301
▁Shia	-11.2309
▁Moon	-11.2312
▁explorer	-11.2312
▁finale	-11.2313
▁Wo	-11.2314
▁breed	-11.2317
▁commemorate	-11.2324
▁bacteri	-11.2328
▁grades	-11.2328
▁Marie	-11.2333
▁Was	-11.2336
▁flooding	-11.2337
▁Bou	-11.2337
rank	-11.2342
▁exceeding	-11.2342
Bo	-11.2347
▁Name	-11.2351
▁gu	-11.2352
child	-11.2361
central	-11.2362
gua	-11.2366
izz	-11.2367
▁cooling	-11.2367
▁flower	-11.2374
▁citizen	-11.2376
named	-11.2379
although	-11.2381
script	-11.2381
▁(190	-11.2382
only	-11.2389
▁examine	-11.2389
▁fruits	-11.2392
▁wound	-11.2395
grade	-11.24
▁grapes	-11.2402
▁aware	-11.2403
▁fighters	-11.2407
fire	-11.2412
▁Advanc	-11.2414
Me	-11.2415
▁sentences	-11.2416
▁feeding	-11.2417
▁alternate	-11.2426
▁Region	-11.2426
▁archiv	-11.2426
▁deer	-11.2434
racial	-11.2435
▁praise	-11.2435
▁experts	-11.2437
▁consonants	-11.2442
symmetric	-11.2443
▁Hundred	-11.2443
▁Lawrence	-11.2443
▁arbitrary	-11.2443
▁competitor	-11.2443
▁deficit	-11.2443
▁discrete	-11.2443
▁evident	-11.2443
▁guilty	-11.2443
▁hockey	-11.2443
▁inclusion	-11.2443
▁magistrate	-11.2443
▁rebirth	-11.2443
▁Einstein	-11.2443
▁diameter	-11.2443
▁1872	-11.2443
▁width	-11.2443
▁senator	-11.2443
▁Brothers	-11.2443
▁Study	-11.2443
▁Annual	-11.2443
▁Douglas	-11.2443
▁blend	-11.2443
▁monetar	-11.2443
fowl	-11.2444
▁Airlines	-11.2444
▁embryo	-11.2444
▁confused	-11.2444
▁excellen	-11.2444
▁signature	-11.2444
▁cancelled	-11.2444
▁Silver	-11.2444
▁pursuit	-11.2444
▁dipole	-11.2444
▁emitted	-11.2444
▁precedent	-11.2444
▁subgroup	-11.2444
▁managing	-11.2445
▁merit	-11.2445
▁friendship	-11.2445
▁assessment	-11.2447
▁textile	-11.2447
▁interval	-11.2448
▁Pitt	-11.2448
▁1906	-11.2448
▁Theater	-11.2449
cell	-11.2449
▁Cubist	-11.2451
▁1896	-11.2451
▁Ball	-11.2452
▁domesticated	-11.2452
▁1865	-11.2452
▁1878	-11.2452
▁warrant	-11.2453
▁1879	-11.2453
▁encompasse	-11.2454
▁astronomy	-11.2456
▁mentor	-11.2458
▁behalf	-11.2459
▁reef	-11.2459
▁pit	-11.2459
drop	-11.2463
▁shortage	-11.2467
▁emphasized	-11.2468
▁developers	-11.2475
▁consistently	-11.2476
cover	-11.2477
▁declare	-11.2477
▁Led	-11.2479
▁chant	-11.2483
▁trials	-11.2484
▁250	-11.2484
▁moth	-11.2485
▁rhythms	-11.2491
▁bind	-11.2491
▁Farm	-11.2493
▁Tai	-11.2493
▁borrowed	-11.2493
▁Lan	-11.2495
▁logical	-11.2497
–9	-11.2499
▁linguistics	-11.2502
▁secured	-11.2504
▁focuses	-11.2506
▁odd	-11.251
▁Base	-11.2517
▁driver	-11.2522
▁coding	-11.253
▁tier	-11.2531
▁namely	-11.2532
▁atom	-11.2537
▁crowned	-11.2538
▁tele	-11.2541
OC	-11.2541
▁Test	-11.2547
rule	-11.2549
▁aspiration	-11.2551
▁Grande	-11.2553
▁Crimea	-11.2556
▁Auto	-11.2561
▁vers	-11.2567
▁battleships	-11.2568
black	-11.2569
channel	-11.2569
people	-11.2569
Japanese	-11.2569
especially	-11.2569
developed	-11.2569
▁Qur	-11.257
▁holdings	-11.2571
▁intent	-11.2572
This	-11.2574
OT	-11.2578
paid	-11.2587
ON	-11.2587
four	-11.2588
▁Hunt	-11.2613
▁Mason	-11.2623
▁proto	-11.2624
km	-11.2627
winning	-11.263
▁differentiate	-11.2632
▁Ethiopia	-11.2634
▁targeted	-11.2638
▁Bob	-11.2644
lice	-11.2644
▁egg	-11.2644
▁monuments	-11.2645
▁conform	-11.2649
▁Freemason	-11.2649
▁Depression	-11.2652
▁Missouri	-11.2652
▁Nonetheless	-11.2652
▁Orleans	-11.2652
▁Salvador	-11.2652
▁UNESCO	-11.2652
▁Yellow	-11.2652
▁diaspora	-11.2652
▁magnitude	-11.2652
▁remnants	-11.2652
▁slogan	-11.2652
▁HIV	-11.2652
▁Pradesh	-11.2652
▁ecological	-11.2652
▁Crisis	-11.2652
▁Welsh	-11.2652
▁silk	-11.2652
▁spelling	-11.2652
▁Austro	-11.2652
▁Basilica	-11.2652
▁intensive	-11.2652
▁rabbi	-11.2652
▁predation	-11.2652
▁Animal	-11.2652
▁queen	-11.2652
▁openly	-11.2652
▁Kennedy	-11.2652
▁isolation	-11.2652
▁Death	-11.2652
▁infant	-11.2652
▁plug	-11.2653
▁pine	-11.2653
▁neurons	-11.2653
▁Iceland	-11.2654
▁valve	-11.2654
▁interfere	-11.2654
▁Greco	-11.2654
▁Imam	-11.2655
▁Labor	-11.2655
▁limitations	-11.2655
▁exert	-11.2656
▁missing	-11.2659
▁abundant	-11.2659
apa	-11.2661
jack	-11.2663
▁Hinduism	-11.2663
▁discontinued	-11.2667
▁sensory	-11.2667
▁Chu	-11.2668
▁logo	-11.267
▁Neu	-11.2681
▁Multi	-11.2684
▁reactor	-11.2689
▁utilized	-11.269
▁traded	-11.2693
sée	-11.2693
ré	-11.2698
▁obscure	-11.2702
▁literally	-11.2705
▁abilities	-11.2706
▁fusion	-11.2714
▁missiles	-11.2716
▁breeds	-11.2723
▁subsid	-11.2724
▁imagin	-11.2725
▁lover	-11.273
▁watt	-11.2731
▁vegetables	-11.2732
▁Pictures	-11.2739
▁altered	-11.2742
▁Cook	-11.2743
lot	-11.2744
▁constantly	-11.2744
▁Drive	-11.2748
▁feelings	-11.2757
▁Syn	-11.2758
vention	-11.2761
eight	-11.2763
▁exhibited	-11.2766
RS	-11.2773
een	-11.2776
▁glaciers	-11.2776
length	-11.2781
Chinese	-11.2782
sometimes	-11.2782
▁Vas	-11.2783
▁Cooper	-11.2784
▁Sho	-11.2787
ophil	-11.2793
polis	-11.2793
▁differently	-11.2795
▁incentives	-11.2815
vision	-11.2816
▁requirement	-11.2817
▁observers	-11.2823
▁indicat	-11.2824
▁AM	-11.2824
▁Isle	-11.2826
▁128	-11.2833
▁signing	-11.2834
▁wrestlers	-11.2834
▁shops	-11.2841
▁ride	-11.2845
▁conclude	-11.2845
MP	-11.2847
▁energ	-11.2851
▁diplomat	-11.2855
▁ear	-11.2855
One	-11.2856
9,000	-11.2857
▁airlines	-11.2857
▁99	-11.2862
asketball	-11.2863
▁thirty	-11.2864
▁Cabinet	-11.2864
▁Descartes	-11.2864
▁Frédéric	-11.2864
▁Giovanni	-11.2864
▁MacArthur	-11.2864
▁Mesopotamia	-11.2864
▁Phoenix	-11.2864
▁Representative	-11.2864
▁Salisbury	-11.2864
▁Terror	-11.2864
▁Wilhelm	-11.2864
▁archaeological	-11.2864
▁contrary	-11.2864
▁crucifixion	-11.2864
▁diamond	-11.2864
▁papacy	-11.2864
▁primitive	-11.2864
▁sanctions	-11.2864
▁Fierce	-11.2864
▁Lahore	-11.2864
▁renowned	-11.2864
▁squadron	-11.2864
▁ticket	-11.2864
▁virgin	-11.2864
▁yuan	-11.2864
▁convey	-11.2864
▁TCM	-11.2864
▁Fighting	-11.2864
▁Zinc	-11.2864
▁prophet	-11.2864
▁Insects	-11.2864
▁nuns	-11.2864
▁RCC	-11.2864
▁depriv	-11.2865
▁Antonio	-11.2865
▁Private	-11.2865
▁afterwards	-11.2865
▁Dogs	-11.2866
▁creative	-11.2866
▁Rican	-11.2866
▁repair	-11.2867
▁comparable	-11.2867
▁Brahman	-11.2868
▁palm	-11.2868
▁1903	-11.287
▁wait	-11.287
▁75%	-11.287
▁rotor	-11.2872
▁1926	-11.2873
▁kV	-11.2874
▁enlarg	-11.2874
▁physicians	-11.2875
▁payments	-11.2876
▁allele	-11.2876
▁blamed	-11.2882
▁Ful	-11.2883
▁priority	-11.2884
▁Nick	-11.2885
▁disruption	-11.2886
▁atop	-11.2887
▁1836	-11.2889
utter	-11.2891
▁hear	-11.2891
▁attested	-11.2891
▁ease	-11.2892
▁2,500	-11.2897
▁darker	-11.2898
▁peers	-11.2902
▁Artists	-11.2903
▁Batt	-11.2904
▁sentenced	-11.2909
▁explored	-11.291
▁emissions	-11.2912
▁struggled	-11.2915
▁Any	-11.2919
▁calculated	-11.292
▁Allen	-11.2933
▁migrat	-11.2935
▁predicted	-11.2935
▁relieve	-11.2945
▁Bir	-11.2946
▁Roche	-11.2954
▁premiere	-11.2971
▁surrendered	-11.2972
▁Jon	-11.2978
borne	-11.2983
▁threaten	-11.2984
▁matching	-11.299
▁Cardinals	-11.299
idal	-11.2994
▁Den	-11.3
▁marking	-11.3
minute	-11.3
▁List	-11.3005
▁125	-11.3006
–15	-11.3011
▁Bus	-11.3011
scribed	-11.3015
optera	-11.3017
▁monitor	-11.3023
▁Mile	-11.3023
▁register	-11.3033
ogue	-11.3036
▁meta	-11.3038
this	-11.3038
direct	-11.3042
1,000	-11.3048
▁88	-11.3051
wei	-11.3054
▁deposit	-11.3057
▁oppose	-11.3062
▁messages	-11.307
trophic	-11.3082
▁Brasília	-11.3082
▁Symphony	-11.3082
▁ceiling	-11.3082
▁complicated	-11.3082
▁epidemic	-11.3082
▁expenditure	-11.3082
▁intermediate	-11.3082
▁physicist	-11.3082
▁prevail	-11.3082
▁quantities	-11.3082
▁shadow	-11.3082
▁striking	-11.3082
▁subdivision	-11.3082
▁tectonic	-11.3082
▁vernacular	-11.3082
▁Friend	-11.3082
▁Johann	-11.3082
▁Stanley	-11.3082
▁synthesis	-11.3082
▁Friday	-11.3082
▁breath	-11.3082
▁Google	-11.3082
▁infinite	-11.3082
▁patrol	-11.3082
▁Judge	-11.3082
▁ornament	-11.3082
▁rush	-11.3082
▁garment	-11.3082
▁relating	-11.3082
▁evil	-11.3082
▁heaven	-11.3082
▁Rather	-11.3082
▁instability	-11.3082
▁suicide	-11.3082
▁reservations	-11.3082
▁accordance	-11.3082
▁grave	-11.3083
▁shoe	-11.3083
▁tiger	-11.3083
▁disorder	-11.3083
▁spark	-11.3083
▁Food	-11.3084
▁Antiochus	-11.3084
▁1,500	-11.3086
seat	-11.3087
▁gifts	-11.3087
▁Deput	-11.3088
▁fastest	-11.3088
▁morality	-11.3088
loading	-11.309
▁instant	-11.3091
▁sword	-11.3091
▁paved	-11.3091
nius	-11.3092
▁similarities	-11.3094
▁Homer	-11.3099
▁gardens	-11.31
▁wheel	-11.3101
▁consolidated	-11.3101
▁updated	-11.3104
eastern	-11.3107
▁Miss	-11.3109
▁15%	-11.311
▁Augustine	-11.3111
▁privately	-11.3118
▁Your	-11.3119
▁Now	-11.3119
▁5,000	-11.3126
▁escaped	-11.3134
▁Give	-11.3148
▁Ran	-11.315
▁Eye	-11.3154
▁hom	-11.3157
▁Compar	-11.3161
ifying	-11.3171
▁rhythm	-11.3175
▁vertebrates	-11.3184
iki	-11.3187
▁commented	-11.3189
▁Marc	-11.3192
nb	-11.3206
▁3.5	-11.3215
what	-11.3216
aze	-11.3219
economic	-11.3221
South	-11.3222
▁unify	-11.3224
▁belonged	-11.3228
▁monthly	-11.3234
▁mot	-11.3234
rine	-11.3234
bound	-11.3237
box	-11.3238
▁container	-11.324
eppe	-11.324
wall	-11.3244
▁gram	-11.3244
▁bid	-11.325
▁manuscript	-11.3256
▁Avi	-11.3257
▁emission	-11.3258
▁Archive	-11.3259
▁intake	-11.3261
▁Organ	-11.3261
▁assign	-11.3262
"—	-11.3265
▁cathedrals	-11.3267
▁42	-11.3277
▁ignore	-11.3284
▁coordinate	-11.3285
▁restore	-11.3291
▁Northeast	-11.3293
▁Walk	-11.3297
▁documented	-11.3299
▁mate	-11.3299
Köppen	-11.3304
▁Alabama	-11.3304
▁Bismarck	-11.3304
▁Official	-11.3304
▁Regulation	-11.3304
▁Uranium	-11.3304
▁Versailles	-11.3304
▁accuracy	-11.3304
▁beneficial	-11.3304
▁cortex	-11.3304
▁ecclesiastical	-11.3304
▁geometric	-11.3304
▁geometry	-11.3304
▁ignorance	-11.3304
▁interrupt	-11.3304
▁invitation	-11.3304
▁liberation	-11.3304
▁polychaete	-11.3304
▁psychologist	-11.3304
▁qualified	-11.3304
▁relativity	-11.3304
▁triumph	-11.3304
▁£3	-11.3304
▁Speaker	-11.3304
▁penetrate	-11.3304
▁widow	-11.3304
▁dream	-11.3304
▁restoration	-11.3304
▁Legend	-11.3304
▁avenue	-11.3304
▁civic	-11.3304
▁Level	-11.3304
▁Exhibition	-11.3304
▁supernatural	-11.3304
▁depth	-11.3304
▁pension	-11.3305
▁smoke	-11.3305
▁multitude	-11.3305
▁mortality	-11.3305
▁Conception	-11.3305
▁departure	-11.3305
▁considerably	-11.3306
▁Model	-11.3306
▁Saturn	-11.3307
▁marti	-11.3307
▁syllable	-11.3309
▁seminar	-11.331
▁clay	-11.331
▁(30	-11.3311
▁Crow	-11.3311
▁1866	-11.3311
▁verbs	-11.3312
▁confined	-11.3313
▁beaches	-11.3314
▁lessons	-11.3315
▁Highland	-11.3316
▁Flight	-11.3319
▁Flor	-11.332
▁crest	-11.3321
▁tiny	-11.3325
▁Kon	-11.3327
▁Alexandr	-11.3328
▁Brazilian	-11.3328
▁Brook	-11.333
▁Change	-11.3332
hroughout	-11.334
▁providers	-11.3342
▁Beer	-11.3345
▁pale	-11.335
▁depiction	-11.3351
▁Alan	-11.3352
▁gro	-11.3354
▁foreigners	-11.3362
AD	-11.3371
▁burning	-11.3374
ulu	-11.3374
hai	-11.3376
▁Luc	-11.3376
▁Kam	-11.3376
▁Commun	-11.3377
▁Sex	-11.3385
▁Regi	-11.3394
▁imported	-11.3407
▁4,000	-11.3411
worms	-11.3413
▁samples	-11.3414
▁Gary	-11.3416
ault	-11.3419
▁heard	-11.3419
▁tar	-11.3431
▁Cam	-11.3436
▁cleric	-11.3439
watt	-11.344
▁Gur	-11.3441
piece	-11.3448
Spanish	-11.3448
▁spite	-11.345
▁fatal	-11.3451
▁Dou	-11.3459
▁indirect	-11.3468
▁rebuild	-11.347
▁Dom	-11.347
▁institutes	-11.3473
▁factions	-11.3475
▁congregation	-11.3478
▁pri	-11.3479
▁initiat	-11.3482
▁attach	-11.3483
3,000	-11.3485
▁restaurant	-11.3488
hair	-11.3489
mode	-11.349
OK	-11.3494
▁actively	-11.3495
hir	-11.3496
▁cruise	-11.3498
▁rape	-11.3499
aster	-11.3503
stage	-11.352
My	-11.3521
microbi	-11.3522
▁mystic	-11.3528
▁Devon	-11.3529
▁Harris	-11.353
▁BeiDou	-11.3531
▁Boulevard	-11.3531
▁Dwight	-11.3531
▁Fryderyk	-11.3531
▁Patriot	-11.3531
▁Raymond	-11.3531
▁Toronto	-11.3531
▁abbreviation	-11.3531
▁antiquity	-11.3531
▁automobile	-11.3531
▁communism	-11.3531
▁diffusion	-11.3531
▁injection	-11.3531
▁motivated	-11.3531
▁participating	-11.3531
▁paternal	-11.3531
▁prestige	-11.3531
▁survival	-11.3531
▁Franz	-11.3531
▁ambassador	-11.3531
▁fixture	-11.3531
▁seventeen	-11.3531
▁swimming	-11.3531
▁Audio	-11.3531
▁landslide	-11.3531
▁lyrics	-11.3531
▁landowner	-11.3531
▁commentators	-11.3531
▁choir	-11.3531
▁José	-11.3531
▁uncertain	-11.3531
nthropological	-11.3532
▁Devonport	-11.3532
▁euro	-11.3532
▁outlets	-11.3532
▁Rabbi	-11.3532
▁Lilly	-11.3532
▁Chamber	-11.3532
▁Axis	-11.3533
▁Albania	-11.3533
▁northeastern	-11.3533
▁Columbus	-11.3533
▁discoveries	-11.3534
▁tracking	-11.3534
▁barons	-11.3534
▁Macau	-11.3535
▁Baker	-11.3535
▁Orange	-11.3536
▁municipality	-11.3536
▁regiment	-11.3536
▁Nature	-11.3537
dolph	-11.3537
▁rites	-11.3537
▁comedy	-11.3537
▁speculation	-11.3537
▁fever	-11.3538
▁1873	-11.3539
▁Carter	-11.3539
▁Northwest	-11.354
▁1838	-11.354
▁Anne	-11.354
▁Hein	-11.3541
▁arid	-11.3541
▁birthday	-11.3541
mbo	-11.3542
▁veteran	-11.3545
▁protective	-11.3546
▁gland	-11.3546
▁marker	-11.3548
▁Found	-11.3548
▁finalists	-11.3549
▁Serbian	-11.3551
veraging	-11.3551
▁150,000	-11.3559
▁Dick	-11.3559
▁Dark	-11.3559
▁guaranteed	-11.356
▁contributor	-11.356
▁enforced	-11.3562
▁cruiser	-11.3565
▁Pap	-11.3565
uda	-11.3567
▁Nova	-11.3569
▁Fathers	-11.3569
▁alive	-11.3572
▁accurately	-11.3573
▁Arabian	-11.3573
▁competed	-11.3577
take	-11.3581
▁smallest	-11.3583
▁NA	-11.3591
▁Commissioner	-11.3597
▁arriv	-11.3601
▁wished	-11.3604
▁Matt	-11.3606
▁bull	-11.3607
mia	-11.361
▁sampl	-11.3612
▁GB	-11.3618
▁derives	-11.3621
wise	-11.3622
▁Tel	-11.3649
▁failing	-11.3649
▁employing	-11.3653
▁projection	-11.3656
▁scann	-11.3656
▁hoping	-11.366
▁beach	-11.3668
▁pose	-11.3677
original	-11.3681
word	-11.3681
controlled	-11.3681
second	-11.3681
earn	-11.3689
▁winding	-11.3694
▁Ven	-11.3695
▁cloth	-11.3696
▁enzymes	-11.3697
Day	-11.3698
▁Pur	-11.3709
▁tenth	-11.3709
stand	-11.3711
▁"[	-11.3715
▁PCBs	-11.3724
▁Father	-11.3725
▁column	-11.3725
▁originat	-11.3729
▁contestant	-11.373
▁LP	-11.373
▁Churches	-11.3732
▁pathogens	-11.3733
▁landmarks	-11.3737
▁improvement	-11.3738
▁sudden	-11.3742
▁plantation	-11.3743
▁blame	-11.3744
▁versa	-11.3749
▁62	-11.3757
▁dock	-11.3758
tub	-11.3761
regulating	-11.3764
▁Anabaptist	-11.3764
▁Hangzhou	-11.3764
▁Himachal	-11.3764
▁Pharmaceutical	-11.3764
▁Protocol	-11.3764
▁armistice	-11.3764
▁carbohydrate	-11.3764
▁charitable	-11.3764
▁continuation	-11.3764
▁crusade	-11.3764
▁hyper	-11.3764
▁mathematician	-11.3764
▁peripheral	-11.3764
▁phosphor	-11.3764
▁revelation	-11.3764
▁symmetry	-11.3764
▁valuable	-11.3764
▁voluntary	-11.3764
▁£2	-11.3764
▁Baroque	-11.3764
▁Nixon	-11.3764
▁aspirated	-11.3764
▁Album	-11.3764
▁Archbishop	-11.3764
▁Policy	-11.3764
▁burial	-11.3764
▁implies	-11.3764
▁Knights	-11.3764
▁cousin	-11.3764
manuel	-11.3764
▁jail	-11.3764
▁socio	-11.3764
▁injury	-11.3764
▁Algeria	-11.3764
▁legend	-11.3764
▁priesthood	-11.3764
▁censorship	-11.3764
▁Legislative	-11.3764
▁forbidden	-11.3764
▁Popular	-11.3764
▁biography	-11.3765
▁multiracial	-11.3765
▁sync	-11.3765
▁correspondence	-11.3766
▁enrollment	-11.3766
▁colonization	-11.3766
▁flash	-11.3767
▁reluctant	-11.3767
▁occasional	-11.3767
▁Historical	-11.3769
▁1863	-11.3771
▁1895	-11.3772
▁Mother	-11.3772
▁1897	-11.3772
▁Yang	-11.3773
▁Homo	-11.3774
▁1776	-11.3776
▁resolved	-11.3776
▁outstanding	-11.3776
▁Trail	-11.3778
▁Zone	-11.378
FM	-11.378
▁Slim	-11.3781
▁25,000	-11.3784
▁overlap	-11.3788
▁lb	-11.3792
▁FAA	-11.3792
▁retro	-11.3792
▁gang	-11.3793
▁Notabl	-11.3794
▁assertion	-11.3797
▁exiled	-11.3798
▁docks	-11.3803
beit	-11.3805
▁Equ	-11.3817
▁objected	-11.3818
fir	-11.3819
▁Galen	-11.3821
▁suppressed	-11.3823
dvancement	-11.3824
▁Bow	-11.3835
▁resisted	-11.3837
▁universally	-11.3843
▁affirm	-11.3846
,000,000	-11.3849
▁successes	-11.3853
gran	-11.386
9)	-11.3871
▁Crime	-11.3872
▁dispers	-11.3879
▁investigat	-11.388
▁hat	-11.3886
▁Log	-11.3888
▁Imp	-11.3898
▁Nat	-11.3902
produced	-11.3908
sided	-11.3915
break	-11.3918
weight	-11.3922
election	-11.3925
▁Nur	-11.3926
▁negotiat	-11.3928
▁Artist	-11.3934
▁radiat	-11.3936
fish	-11.3942
▁Kat	-11.3944
phor	-11.3944
▁Eric	-11.3946
ask	-11.3951
ogen	-11.3953
▁flourish	-11.3953
▁fragments	-11.3954
▁equations	-11.3961
▁preserv	-11.3961
▁merge	-11.3967
host	-11.3969
▁patient	-11.397
forcing	-11.3973
▁Similar	-11.398
▁eventual	-11.398
▁operators	-11.3981
▁scor	-11.3984
▁slight	-11.3989
▁Basic	-11.3996
▁900	-11.3996
▁Morris	-11.3996
getting	-11.3997
▁afford	-11.3999
▁Monroe	-11.4002
▁Campaign	-11.4002
▁Charlotte	-11.4002
▁Constantine	-11.4002
▁Holocaust	-11.4002
▁Ptolemai	-11.4002
▁Theravada	-11.4002
▁Together	-11.4002
▁affiliation	-11.4002
▁analytic	-11.4002
▁ceramic	-11.4002
▁circular	-11.4002
▁colleague	-11.4002
▁combining	-11.4002
▁delegation	-11.4002
▁demolished	-11.4002
▁drift	-11.4002
▁fabric	-11.4002
▁hidden	-11.4002
▁hydraulic	-11.4002
▁metaphysics	-11.4002
▁obstacle	-11.4002
▁paradox	-11.4002
▁policing	-11.4002
▁sensitivity	-11.4002
▁subdivided	-11.4002
▁translator	-11.4002
▁Manufactur	-11.4002
▁arousal	-11.4002
▁eternal	-11.4002
▁impressed	-11.4002
▁irregular	-11.4002
▁Belgian	-11.4002
▁PVA	-11.4002
▁Romanesque	-11.4002
▁Trinity	-11.4002
▁famine	-11.4002
▁tuition	-11.4002
▁apprecia	-11.4002
▁pulp	-11.4002
▁spawn	-11.4002
▁Dream	-11.4002
▁Faith	-11.4002
▁devised	-11.4002
▁offense	-11.4002
▁Ronald	-11.4002
▁sperm	-11.4002
▁firing	-11.4002
▁bisexual	-11.4003
clarification	-11.4003
▁yards	-11.4003
▁silicon	-11.4003
▁fortress	-11.4003
▁tendency	-11.4003
▁inaugurated	-11.4003
▁opium	-11.4003
▁Osman	-11.4003
▁migratory	-11.4004
actic	-11.4004
▁leaf	-11.4005
▁interstate	-11.4005
▁variant	-11.4006
▁Thai	-11.4007
▁cultivated	-11.4007
▁1869	-11.4008
▁Rey	-11.401
▁oak	-11.4011
▁mature	-11.4012
▁1875	-11.4013
▁300,000	-11.4015
color	-11.4016
▁justify	-11.4017
▁Latvia	-11.4017
▁lens	-11.4019
▁Glass	-11.4022
▁entertain	-11.4022
▁starch	-11.4024
▁Care	-11.4025
▁erected	-11.4025
▁1700	-11.4029
▁calculation	-11.403
▁Hil	-11.4032
▁terrorism	-11.4034
▁Run	-11.4038
▁denote	-11.4041
▁determination	-11.4041
▁reversed	-11.4041
▁suggestion	-11.4057
▁Masonic	-11.4059
base	-11.4059
▁radiate	-11.4064
▁correctly	-11.4067
▁transitional	-11.4077
▁believ	-11.4077
▁precede	-11.4081
▁determin	-11.4086
▁Greg	-11.4089
▁Abd	-11.409
▁pioneered	-11.4098
▁tip	-11.4103
▁Ron	-11.4103
heim	-11.4109
utonomous	-11.4114
▁IP	-11.4124
▁theologians	-11.4128
pole	-11.4135
generat	-11.414
▁terr	-11.4142
▁130	-11.4143
▁Rhodes	-11.4149
▁healthy	-11.415
▁Class	-11.4152
course	-11.4162
bitumen	-11.4162
fighter	-11.4163
general	-11.4165
market	-11.417
phase	-11.4171
ruz	-11.4173
▁concentrat	-11.4186
▁Swa	-11.4189
▁administer	-11.4197
spiration	-11.42
▁evaluat	-11.4202
▁Depend	-11.4216
▁dome	-11.4222
▁peasant	-11.4224
text	-11.4224
▁kilo	-11.4224
▁dimension	-11.4225
▁evolve	-11.4226
▁perceive	-11.4226
▁dub	-11.4227
garde	-11.4227
▁Giu	-11.4231
rip	-11.4232
game	-11.4239
▁spec	-11.4241
▁polar	-11.4243
▁Certain	-11.4246
▁DBMS	-11.4246
▁Hemisphere	-11.4246
▁Swift	-11.4246
▁Tunisia	-11.4246
▁amateur	-11.4246
▁compilation	-11.4246
▁cultivation	-11.4246
▁dinosaurs	-11.4246
▁enslaved	-11.4246
▁globe	-11.4246
▁improving	-11.4246
▁neutron	-11.4246
▁nickel	-11.4246
▁occupies	-11.4246
▁parasitic	-11.4246
▁photosynthesis	-11.4246
▁sanitation	-11.4246
▁unpopular	-11.4246
▁NCAA	-11.4246
▁Nelson	-11.4246
▁Newcastle	-11.4246
▁eldest	-11.4246
▁endowment	-11.4246
▁ethics	-11.4246
▁methane	-11.4246
▁racism	-11.4246
▁Cicero	-11.4246
▁beauty	-11.4246
▁Harlem	-11.4246
▁brewery	-11.4246
▁whale	-11.4246
▁Deccan	-11.4246
▁leap	-11.4246
▁strand	-11.4246
▁pianist	-11.4246
▁(/ˈ	-11.4246
▁nervo	-11.4246
▁grandfather	-11.4246
▁neoclassical	-11.4246
▁analyse	-11.4246
▁overcome	-11.4246
▁float	-11.4246
▁Hegel	-11.4246
▁diesel	-11.4246
▁Prague	-11.4246
▁Dublin	-11.4246
umerous	-11.4246
▁macro	-11.4247
▁Thatcher	-11.4247
▁innovative	-11.4247
▁pavement	-11.4247
feld	-11.4248
▁shallow	-11.4248
▁uncommon	-11.4249
metallic	-11.425
▁Reich	-11.4251
▁bullet	-11.4251
▁1892	-11.4252
▁Last	-11.4252
▁invaders	-11.4253
▁anthem	-11.4254
▁Room	-11.4255
▁1845	-11.4257
▁Team	-11.4258
▁consequently	-11.4259
▁readi	-11.4259
▁Chile	-11.4263
▁cheaper	-11.4264
▁Traditionally	-11.4267
▁alternat	-11.4268
▁peer	-11.427
▁insufficient	-11.4271
▁Oak	-11.4271
▁3%	-11.4273
▁economically	-11.4274
▁Basin	-11.4281
▁Nile	-11.4281
▁sure	-11.4281
▁enact	-11.4283
▁Max	-11.4284
Art	-11.4284
▁rainy	-11.4288
▁fused	-11.4298
name	-11.4308
▁tense	-11.4308
▁negotiated	-11.431
▁urs	-11.432
▁nationality	-11.432
cycle	-11.4324
▁supporter	-11.4328
▁Islamist	-11.433
▁complexes	-11.4333
▁projected	-11.434
▁ballad	-11.4354
On	-11.4366
open	-11.4368
▁Kid	-11.4369
▁mail	-11.4377
▁Ren	-11.4388
▁Mir	-11.4388
pay	-11.4396
▁tiles	-11.4396
ario	-11.4399
▁spann	-11.4402
▁Pala	-11.4404
idae	-11.4405
▁trap	-11.4414
foot	-11.4415
rod	-11.442
▁invad	-11.4422
▁recommend	-11.4426
theistic	-11.4435
around	-11.4437
▁Overse	-11.4438
▁180	-11.4444
▁accumulate	-11.4444
▁encode	-11.4445
▁fix	-11.445
tsu	-11.4452
▁140	-11.4454
▁Ow	-11.4466
▁consume	-11.4467
corn	-11.4474
▁Final	-11.4475
▁employee	-11.4477
▁approve	-11.4477
▁distribute	-11.4477
▁Orient	-11.4478
▁Nizam	-11.4487
▁punish	-11.4493
▁advertise	-11.4496
▁Beatrice	-11.4496
▁Chelsea	-11.4496
▁Constantius	-11.4496
▁IndyMac	-11.4496
▁Mathematica	-11.4496
▁RSFSR	-11.4496
▁Wednesday	-11.4496
▁Winston	-11.4496
▁Yangtze	-11.4496
▁continual	-11.4496
▁convicted	-11.4496
▁iPhone	-11.4496
▁knock	-11.4496
▁lieutenant	-11.4496
▁pregnancy	-11.4496
▁purple	-11.4496
▁servants	-11.4496
▁survivor	-11.4496
▁synthesizer	-11.4496
▁temperate	-11.4496
▁terrestrial	-11.4496
▁tertiary	-11.4496
▁unprecedented	-11.4496
▁virtuos	-11.4496
▁Letters	-11.4496
▁Piedmont	-11.4496
▁impression	-11.4496
▁militant	-11.4496
▁pedestrian	-11.4496
▁resonant	-11.4496
AIDS	-11.4496
▁domination	-11.4496
▁Sierra	-11.4496
▁amended	-11.4496
▁tactics	-11.4496
▁vassal	-11.4496
▁Pierre	-11.4496
▁casino	-11.4496
▁absent	-11.4496
▁Scythian	-11.4496
▁Utah	-11.4496
▁harsh	-11.4496
▁lungs	-11.4496
▁naming	-11.4496
▁augment	-11.4496
▁philosophies	-11.4496
▁Baseball	-11.4496
▁Ladies	-11.4496
▁Czechoslovakia	-11.4496
▁genus	-11.4496
▁Laboratory	-11.4496
▁adverse	-11.4496
▁Plateau	-11.4496
▁bankruptcy	-11.4496
▁supervision	-11.4496
▁uncertainty	-11.4497
▁Rule	-11.4497
▁Vietnamese	-11.4497
▁mythology	-11.4498
▁herald	-11.4498
▁Liberty	-11.4498
▁voyage	-11.4498
▁bow	-11.4499
▁ballot	-11.45
▁Constan	-11.45
yang	-11.4501
▁hostile	-11.4501
▁eukaryotes	-11.4501
frame	-11.4502
▁1851	-11.4502
▁remarkable	-11.4503
▁momentum	-11.4504
▁servers	-11.4506
▁Der	-11.4506
▁outlin	-11.4506
▁revived	-11.4506
▁revert	-11.4507
▁Currently	-11.4508
▁carefully	-11.4508
▁transcribed	-11.4509
▁plum	-11.451
▁1812	-11.451
▁91	-11.4511
oud	-11.4511
▁1915	-11.4512
▁1825	-11.4513
▁platinum	-11.4514
▁Bull	-11.4516
▁Tories	-11.4516
▁formulation	-11.4517
▁anticipated	-11.4518
Cu	-11.452
▁Jem	-11.4521
round	-11.4529
▁buses	-11.4532
Tsang	-11.4539
▁culturally	-11.4545
▁homeland	-11.4546
▁Soon	-11.4547
Denis	-11.4549
▁unlikely	-11.4549
▁realized	-11.4551
▁numerical	-11.4555
▁Joan	-11.4565
▁lifted	-11.4569
▁Our	-11.4572
amo	-11.4579
structed	-11.458
▁behavioral	-11.4589
▁recalled	-11.4596
onym	-11.4598
num	-11.4647
India	-11.465
▁fund	-11.4661
pala	-11.4663
▁Creat	-11.4667
military	-11.467
social	-11.4671
week	-11.4671
ár	-11.4674
track	-11.4677
▁commissioner	-11.4683
▁luc	-11.4683
See	-11.4684
▁mad	-11.469
▁Fil	-11.4695
date	-11.4696
▁resign	-11.4697
▁Constitutional	-11.4705
▁3.1	-11.4716
▁parking	-11.4729
▁precise	-11.473
▁Traditional	-11.473
▁dish	-11.4732
▁cease	-11.4732
product	-11.4733
illon	-11.4734
▁69	-11.4736
▁fifteen	-11.4736
▁disadvantage	-11.4738
▁Govern	-11.474
▁Emil	-11.4745
▁circulat	-11.4748
6,000	-11.4748
▁automatic	-11.4751
embedded	-11.4752
▁Adventure	-11.4752
▁Agreement	-11.4752
▁Confederacy	-11.4752
▁Hockey	-11.4752
▁Literary	-11.4752
▁Orchestra	-11.4752
▁Rohingya	-11.4752
▁SFSR	-11.4752
▁SNES	-11.4752
▁Tottenham	-11.4752
▁Tuesday	-11.4752
▁UNFPA	-11.4752
▁contradict	-11.4752
▁diabetes	-11.4752
▁encouraging	-11.4752
▁fertile	-11.4752
▁grammatical	-11.4752
▁guerrilla	-11.4752
▁inferior	-11.4752
▁petroleum	-11.4752
▁precursor	-11.4752
▁propaganda	-11.4752
▁qualification	-11.4752
▁sympath	-11.4752
▁trillion	-11.4752
▁Monument	-11.4752
▁Specific	-11.4752
▁Triple	-11.4752
▁biographer	-11.4752
▁Maritime	-11.4752
▁NFL	-11.4752
▁shaft	-11.4752
▁Ohio	-11.4752
▁edict	-11.4752
▁Fisher	-11.4752
▁Travel	-11.4752
▁Manuel	-11.4752
▁matrix	-11.4752
▁Oscar	-11.4752
▁freezing	-11.4752
▁nails	-11.4752
▁Concert	-11.4753
▁transaction	-11.4753
▁conductivity	-11.4753
▁definite	-11.4753
▁compell	-11.4754
onymous	-11.4754
▁Sulla	-11.4754
AP	-11.4754
▁legendary	-11.4755
▁physician	-11.4755
▁Yemen	-11.4756
▁elimination	-11.4756
▁pledg	-11.4756
▁static	-11.4757
▁tight	-11.4757
▁stick	-11.4758
▁payment	-11.4759
▁sustainable	-11.476
▁Left	-11.4761
▁Close	-11.4761
▁Liga	-11.4762
▁eaten	-11.4762
▁60%	-11.4763
▁detection	-11.4763
▁Tourism	-11.4764
▁beaten	-11.4766
▁Aristotelian	-11.4769
▁Shortly	-11.4771
partisan	-11.4773
▁Peel	-11.4777
AB	-11.4778
▁Historically	-11.4779
▁Kara	-11.4788
▁prone	-11.4789
▁Maha	-11.4792
dynast	-11.4795
▁surpassed	-11.4795
▁controll	-11.4801
▁175	-11.4803
▁Sim	-11.4816
▁investigated	-11.4825
▁Apart	-11.4831
▁median	-11.4835
surance	-11.4836
▁emit	-11.4838
▁Jam	-11.4838
▁debated	-11.4842
▁refuse	-11.4844
▁Row	-11.4852
▁masses	-11.4853
▁Kil	-11.4856
▁Roy	-11.4856
▁Ala	-11.4858
fig	-11.4865
▁Monte	-11.487
▁pm	-11.4876
▁vow	-11.4886
▁worm	-11.4887
▁Sash	-11.4904
$2	-11.4915
grass	-11.4932
Slavic	-11.4932
Portuguese	-11.4933
Irish	-11.4933
Soviet	-11.4933
African	-11.4933
World	-11.4933
RNA	-11.4933
highest	-11.4936
▁onward	-11.495
cult	-11.495
▁Staten	-11.4952
▁Hay	-11.4961
▁Gay	-11.4964
If	-11.4966
▁Direct	-11.4966
▁repeat	-11.4966
▁advisor	-11.4969
▁$100	-11.4972
▁(100	-11.4977
▁83	-11.4977
▁sporting	-11.498
dale	-11.4983
▁institutional	-11.4993
▁surprise	-11.4996
▁propose	-11.4996
▁compress	-11.4997
elected	-11.4998
▁regulator	-11.5001
▁zoo	-11.5005
▁prosecut	-11.5007
▁Java	-11.5007
▁gift	-11.5009
▁pesticide	-11.501
▁chemist	-11.5013
onstruction	-11.5013
▁Hidalgo	-11.5015
▁Individual	-11.5015
▁Jubilee	-11.5015
▁Munich	-11.5015
▁Palestine	-11.5015
▁Palestinian	-11.5015
▁Picasso	-11.5015
▁Roncalli	-11.5015
▁Terminal	-11.5015
▁abbreviated	-11.5015
▁ambitious	-11.5015
▁annelids	-11.5015
▁arrondissement	-11.5015
▁arsenic	-11.5015
▁economies	-11.5015
▁exhaust	-11.5015
▁fission	-11.5015
▁hurricane	-11.5015
▁hybrid	-11.5015
▁impressive	-11.5015
▁limestone	-11.5015
▁meditation	-11.5015
▁possibilities	-11.5015
▁Female	-11.5015
▁Tulsa	-11.5015
▁sweet	-11.5015
▁tactical	-11.5015
▁Anderson	-11.5015
▁Ridge	-11.5015
▁Wallace	-11.5015
▁companion	-11.5015
Triassic	-11.5015
▁extant	-11.5015
▁audition	-11.5015
▁cartoon	-11.5015
▁rifle	-11.5015
▁tutor	-11.5015
▁modify	-11.5015
▁bribe	-11.5015
▁luminous	-11.5015
▁altar	-11.5016
▁Gautam	-11.5016
▁Henri	-11.5016
▁Herald	-11.5016
▁wives	-11.5016
▁Technical	-11.5016
▁ineffective	-11.5016
▁concession	-11.5016
▁fraud	-11.5016
unconstitutional	-11.5016
▁cricket	-11.5016
▁Underground	-11.5017
▁Madras	-11.5017
▁treatise	-11.5017
▁flesh	-11.5018
▁Marx	-11.5018
▁email	-11.5018
▁likewise	-11.5019
▁reconstruction	-11.502
▁wool	-11.502
hail	-11.5021
▁coral	-11.5021
▁weakness	-11.5022
▁westward	-11.5023
▁methodology	-11.5023
▁1,200	-11.5024
▁Cornel	-11.5024
▁apse	-11.5024
▁1842	-11.5024
▁Broz	-11.5025
▁Patent	-11.5025
▁François	-11.5025
▁Hugo	-11.5026
▁recognise	-11.5029
▁Originally	-11.5031
▁1790	-11.5032
▁statehood	-11.5032
▁exemption	-11.5032
▁ITV	-11.5035
ère	-11.5036
▁pursuing	-11.5037
▁modest	-11.5037
▁assistant	-11.5037
▁Rail	-11.5043
▁60,000	-11.5043
▁abort	-11.5043
▁Snow	-11.5047
▁boxes	-11.505
▁rendering	-11.5056
▁sack	-11.5074
▁proton	-11.5079
heat	-11.508
▁"...	-11.5092
▁Cali	-11.5092
▁intestine	-11.5099
▁sustained	-11.5112
▁Boo	-11.5117
▁listener	-11.5118
iron	-11.5122
wich	-11.5123
▁possessed	-11.5126
▁exceeded	-11.5131
▁germ	-11.5131
2.4	-11.5132
wen	-11.5142
▁Primar	-11.5143
there	-11.5144
▁Malay	-11.5147
▁Bach	-11.5151
▁Did	-11.5158
▁remov	-11.5162
▁prose	-11.5163
quoted	-11.5167
dad	-11.5175
▁defending	-11.5179
▁activat	-11.5179
▁Arg	-11.5181
onnie	-11.5182
load	-11.5183
▁Casa	-11.5184
▁issu	-11.5197
official	-11.5198
operation	-11.52
since	-11.5201
religious	-11.5203
producing	-11.5203
south	-11.5222
pad	-11.5225
▁blocked	-11.5234
▁inherit	-11.5236
▁favored	-11.5236
▁utiliz	-11.5236
▁badge	-11.5244
▁liturg	-11.525
odd	-11.5254
▁Rand	-11.5257
▁attain	-11.5279
▁digest	-11.5281
disc	-11.5283
rative	-11.5284
▁Tajik	-11.5286
▁Bristol	-11.5286
▁Culture	-11.5286
▁Leibniz	-11.5286
▁Morocco	-11.5286
▁Municipal	-11.5286
▁Statistics	-11.5286
▁Survey	-11.5286
▁Zeppelin	-11.5286
▁accommodate	-11.5286
▁algebra	-11.5286
▁battalion	-11.5286
▁critique	-11.5286
▁devastated	-11.5286
▁eligible	-11.5286
▁empiricism	-11.5286
▁expulsion	-11.5286
▁glucose	-11.5286
▁hostilities	-11.5286
▁identities	-11.5286
▁pancrea	-11.5286
▁pregnant	-11.5286
▁recognizable	-11.5286
▁respiratory	-11.5286
▁shield	-11.5286
▁symphon	-11.5286
▁vaccination	-11.5286
▁Mirror	-11.5286
▁devotion	-11.5286
▁furnish	-11.5286
▁incorrect	-11.5286
▁maternal	-11.5286
▁unexpected	-11.5286
▁violin	-11.5286
▁soccer	-11.5286
▁Austin	-11.5286
▁flank	-11.5286
▁metaphysical	-11.5286
▁genius	-11.5286
▁ideological	-11.5286
▁geese	-11.5286
▁aggression	-11.5286
▁endemic	-11.5286
▁Heaven	-11.5286
▁afternoon	-11.5286
esteem	-11.5286
soluble	-11.5286
Crazy	-11.5286
▁Uthman	-11.5286
▁Honor	-11.5286
▁brass	-11.5286
▁Organisation	-11.5286
▁salon	-11.5286
▁marsh	-11.5286
▁Karmapa	-11.5286
▁gear	-11.5287
▁warships	-11.5287
▁scandal	-11.5287
▁consonant	-11.5287
▁dictatorship	-11.5287
▁Buck	-11.5287
▁avant	-11.5287
▁healthcare	-11.5287
atio	-11.5287
▁golf	-11.5288
▁Nathan	-11.5288
▁reliance	-11.5288
▁orange	-11.5289
▁Graham	-11.5289
▁affordable	-11.5289
▁Messi	-11.5289
▁fitness	-11.529
▁cement	-11.529
lihood	-11.5291
▁customary	-11.5292
▁1846	-11.5293
▁1886	-11.5295
▁Parthian	-11.5296
▁1864	-11.5296
▁mistaken	-11.5297
▁deposed	-11.5297
▁Guardian	-11.5298
iano	-11.5298
▁Hume	-11.5298
▁disappoint	-11.5299
▁Merck	-11.5301
▁$8	-11.5302
▁tenure	-11.5303
▁Swan	-11.5304
▁prehistoric	-11.5308
mural	-11.5309
▁destroyers	-11.531
aste	-11.5311
▁Sacr	-11.5311
▁portable	-11.5315
cost	-11.5317
▁centralized	-11.5322
▁provok	-11.5324
▁proven	-11.5325
▁decreed	-11.533
▁neuro	-11.533
▁Acc	-11.5333
▁investigate	-11.5335
▁grip	-11.5341
▁Luis	-11.5342
▁Does	-11.5343
illo	-11.5347
▁balanced	-11.5358
▁endorse	-11.5364
▁substantially	-11.5367
▁Diet	-11.5371
0%)	-11.5372
▁tear	-11.5378
▁complained	-11.5379
unch	-11.538
ét	-11.5383
ulf	-11.5385
▁walking	-11.5392
effect	-11.5396
month	-11.5399
▁compare	-11.5399
public	-11.5399
station	-11.5405
▁spy	-11.5407
▁broadcaster	-11.5416
▁detected	-11.5428
▁mixing	-11.5428
Semit	-11.5429
▁exit	-11.5433
▁tail	-11.5457
▁substitut	-11.547
either	-11.548
Dutch	-11.5481
China	-11.5482
three	-11.5483
shore	-11.5502
fusion	-11.5502
▁Here	-11.5508
▁Sri	-11.5514
▁progressed	-11.5521
start	-11.5526
▁Amb	-11.5529
▁Fen	-11.5537
▁weigh	-11.5544
lap	-11.5545
▁Sil	-11.5548
▁Croatia	-11.5551
▁monument	-11.5556
▁madrasa	-11.5559
There	-11.5562
scopic	-11.5563
▁Achaemenid	-11.5563
▁Anthropology	-11.5563
▁Consumer	-11.5563
▁Galileo	-11.5563
▁Jupiter	-11.5563
▁Jurassic	-11.5563
▁archipelago	-11.5563
▁celebrities	-11.5563
▁cellulose	-11.5563
▁confidence	-11.5563
▁cylinder	-11.5563
▁harbour	-11.5563
▁hemisphere	-11.5563
▁metabolism	-11.5563
▁moisture	-11.5563
▁neglect	-11.5563
▁opposing	-11.5563
▁purchasing	-11.5563
▁ribbon	-11.5563
▁rupture	-11.5563
▁slope	-11.5563
▁supremacy	-11.5563
▁victorious	-11.5563
solving	-11.5563
▁Maratha	-11.5563
▁bilateral	-11.5563
▁fortifications	-11.5563
▁pharmac	-11.5563
▁Watson	-11.5563
▁accompany	-11.5563
▁cattle	-11.5563
▁placing	-11.5563
▁Globe	-11.5563
▁Innocent	-11.5563
▁MGM	-11.5563
▁prolonged	-11.5563
▁gallery	-11.5563
▁heavier	-11.5563
▁empty	-11.5563
▁Cairo	-11.5563
▁Jiangsu	-11.5563
▁revised	-11.5563
▁sociology	-11.5564
▁spurr	-11.5564
▁bicycle	-11.5564
▁neighbourhood	-11.5564
▁aviation	-11.5564
▁Florence	-11.5564
▁morphological	-11.5564
▁prospect	-11.5565
▁breast	-11.5565
▁outrage	-11.5565
▁modification	-11.5565
▁Panther	-11.5566
▁Copper	-11.5566
▁hatch	-11.5567
▁Slave	-11.5567
▁graphics	-11.5567
▁Sparta	-11.5569
▁Tsar	-11.5569
▁Cowell	-11.5569
▁1843	-11.5571
▁1893	-11.5572
▁expert	-11.5572
▁profitable	-11.5572
▁favorite	-11.5572
▁venue	-11.5573
▁metric	-11.5573
▁pink	-11.5573
▁politician	-11.5573
▁particle	-11.5573
▁reliable	-11.5574
▁1888	-11.5574
▁bison	-11.5574
▁rivalry	-11.5574
▁1829	-11.5574
▁obligation	-11.5575
▁proud	-11.5575
▁integrate	-11.5576
scence	-11.5578
▁promulgated	-11.5584
▁Osborn	-11.5589
▁certified	-11.5591
tune	-11.5592
▁mud	-11.5594
▁Hence	-11.5596
▁practised	-11.5596
▁Berg	-11.5599
▁Data	-11.56
powered	-11.5601
▁Bird	-11.5603
▁wooden	-11.5607
▁violated	-11.5608
▁quote	-11.561
▁coil	-11.561
hill	-11.5611
▁Sport	-11.5612
▁duo	-11.5614
▁airline	-11.562
▁similarity	-11.5623
–13	-11.5624
▁arrow	-11.5631
lak	-11.5631
▁aligned	-11.564
▁Zion	-11.5641
NH	-11.5644
▁voiced	-11.5645
▁Transit	-11.5645
▁broader	-11.565
Bohemian	-11.5651
nberg	-11.5656
▁Forum	-11.5659
▁rhythmic	-11.5662
title	-11.5674
▁basin	-11.5674
tribute	-11.568
Com	-11.5704
▁displace	-11.5712
odor	-11.5722
▁(32	-11.5726
▁Marco	-11.573
▁harder	-11.573
▁measur	-11.573
▁$10	-11.5732
▁instruct	-11.5745
government	-11.5754
▁$50	-11.5759
Tibet	-11.5761
chemical	-11.5765
Hungarian	-11.5766
Prussian	-11.5766
author	-11.5766
▁releas	-11.5767
founded	-11.5768
introduc	-11.5769
richest	-11.5769
green	-11.5776
layer	-11.578
▁Gene	-11.5782
ploid	-11.5782
USA	-11.579
▁procession	-11.5795
▁Note	-11.5797
$3	-11.582
West	-11.5822
classical	-11.583
wave	-11.583
▁overthrow	-11.5839
▁speculat	-11.5842
▁Apostolic	-11.5849
▁Crystal	-11.5849
▁FireWire	-11.5849
▁Genocide	-11.5849
▁Hydrogen	-11.5849
▁Industry	-11.5849
▁Juárez	-11.5849
▁Maurice	-11.5849
▁Menzies	-11.5849
▁Pittsburgh	-11.5849
▁Robinson	-11.5849
▁Yiddish	-11.5849
▁affluent	-11.5849
▁algorithm	-11.5849
▁amphibi	-11.5849
▁brigade	-11.5849
▁bubble	-11.5849
▁contemporaries	-11.5849
▁desirable	-11.5849
▁embassy	-11.5849
▁façade	-11.5849
▁flexibility	-11.5849
▁fragrance	-11.5849
▁penguin	-11.5849
▁romance	-11.5849
▁stimuli	-11.5849
▁treasure	-11.5849
▁umbrella	-11.5849
▁Emirate	-11.5849
▁Xiamen	-11.5849
▁charging	-11.5849
▁licence	-11.5849
▁livestock	-11.5849
▁malware	-11.5849
▁powder	-11.5849
▁recaptur	-11.5849
▁stylistic	-11.5849
▁Carthage	-11.5849
▁NPO	-11.5849
▁hinder	-11.5849
▁inflict	-11.5849
▁landlord	-11.5849
▁parameters	-11.5849
▁sparse	-11.5849
▁Chapter	-11.5849
▁Uranus	-11.5849
▁deputy	-11.5849
▁ratified	-11.5849
▁Voice	-11.5849
▁brutal	-11.5849
▁worrie	-11.5849
▁brush	-11.5849
▁Appeal	-11.5849
▁Relations	-11.5849
▁Universe	-11.5849
Telephone	-11.5849
▁ECB	-11.5849
▁1905	-11.5849
▁crust	-11.5849
▁gymnastics	-11.5849
▁Montreal	-11.5849
▁counterweight	-11.585
▁Silesia	-11.585
▁Universities	-11.585
▁submitted	-11.585
▁random	-11.585
▁Wild	-11.5851
▁postulate	-11.5851
▁Madero	-11.5851
centric	-11.5852
▁León	-11.5852
▁Mercy	-11.5852
▁persistent	-11.5853
ndhra	-11.5853
▁Milton	-11.5853
▁disagreement	-11.5853
▁mood	-11.5854
▁Wayne	-11.5854
▁dying	-11.5854
▁enumerat	-11.5856
▁Champ	-11.5856
▁Luke	-11.5856
▁Danube	-11.5857
▁Noble	-11.5857
▁Wind	-11.5857
▁unrelated	-11.5858
▁1807	-11.5858
▁bike	-11.5858
▁1894	-11.5859
▁Contra	-11.5859
▁Scandinavian	-11.5859
▁(−1	-11.5859
▁Iberian	-11.586
▁Toward	-11.5861
▁500,000	-11.5861
aught	-11.5861
▁reproduce	-11.5862
▁travelling	-11.5862
▁750	-11.5863
▁journalism	-11.5863
▁Production	-11.5864
▁Box	-11.5866
▁Elder	-11.5866
▁statute	-11.5867
▁affair	-11.5868
ichi	-11.5868
▁Boat	-11.5872
▁dispatched	-11.5873
▁assemblies	-11.5878
▁subjective	-11.588
▁geological	-11.588
▁retired	-11.5883
▁Liu	-11.5883
▁taxation	-11.5886
eptic	-11.589
▁pig	-11.5901
lift	-11.5907
▁undermine	-11.5909
IG	-11.5909
▁posit	-11.5909
▁Cell	-11.5909
▁Abi	-11.591
▁relie	-11.591
▁catch	-11.5911
Outside	-11.5916
won	-11.5916
▁attained	-11.5917
▁Whereas	-11.5921
▁aggregate	-11.5921
remium	-11.5922
▁hunted	-11.5922
▁stained	-11.5926
hole	-11.5926
▁monitoring	-11.5927
mbu	-11.5931
aurus	-11.5931
large	-11.5933
▁enabl	-11.5934
keeping	-11.5954
▁hail	-11.5962
▁airway	-11.5962
$5	-11.5963
big	-11.5974
▁Aires	-11.5981
ffective	-11.5984
IR	-11.5986
▁Nation	-11.5989
▁fungi	-11.601
link	-11.6012
▁listen	-11.6015
▁surround	-11.6036
▁Carol	-11.6046
▁Bohemia	-11.6051
▁anger	-11.6058
particularly	-11.606
defined	-11.606
growing	-11.6061
positive	-11.6062
▁110	-11.6067
great	-11.6069
common	-11.6069
▁defi	-11.6073
▁Nam	-11.6076
▁cul	-11.6077
sumption	-11.6078
▁tetra	-11.6081
opted	-11.6085
▁surge	-11.6086
▁submit	-11.6093
▁surpass	-11.6094
▁announc	-11.6097
just	-11.6106
ennial	-11.6113
▁scan	-11.6121
▁simultaneous	-11.6121
▁Origin	-11.6126
lob	-11.6126
▁crack	-11.6127
▁1,0	-11.6128
▁mistake	-11.6132
preservation	-11.6134
▁3.0	-11.6139
▁quest	-11.6139
▁Express	-11.6142
▁naviga	-11.6142
▁Knowles	-11.6143
▁Resident	-11.6143
▁exclusion	-11.6143
▁intellect	-11.6143
Afghan	-11.6143
ultraviolet	-11.6143
▁Aeneid	-11.6143
▁Afrikaans	-11.6143
▁Angevin	-11.6143
▁Ascension	-11.6143
▁Broadcasting	-11.6143
▁Democracy	-11.6143
▁Puritan	-11.6143
▁Sheffield	-11.6143
▁Telegraph	-11.6143
▁archaeologist	-11.6143
▁celebrity	-11.6143
▁ceremonies	-11.6143
▁convenient	-11.6143
▁devastating	-11.6143
▁dukkha	-11.6143
▁eclips	-11.6143
▁hierarchy	-11.6143
▁improvis	-11.6143
▁intersection	-11.6143
▁junior	-11.6143
▁leather	-11.6143
▁lesbian	-11.6143
▁masculine	-11.6143
▁monastery	-11.6143
▁nomadic	-11.6143
▁proclamation	-11.6143
▁salvation	-11.6143
▁sapwood	-11.6143
▁sibling	-11.6143
▁steady	-11.6143
▁subscription	-11.6143
▁swamp	-11.6143
compatibility	-11.6143
▁Craig	-11.6143
▁Freddie	-11.6143
▁Pepsi	-11.6143
▁premises	-11.6143
▁literate	-11.6143
▁pinyin	-11.6143
▁Blitz	-11.6143
▁terminology	-11.6143
▁Igbo	-11.6143
▁Radical	-11.6143
▁Thames	-11.6143
▁1762	-11.6143
▁null	-11.6143
▁humor	-11.6143
▁nitrogen	-11.6143
▁Clause	-11.6143
▁Genesis	-11.6143
▁Gustav	-11.6143
▁carved	-11.6143
▁Josef	-11.6143
▁expire	-11.6143
▁ISP	-11.6143
▁Mosque	-11.6143
Packard	-11.6143
▁prototype	-11.6143
ocratic	-11.6143
▁inflation	-11.6143
▁fortified	-11.6144
▁haplogroup	-11.6144
▁balloon	-11.6144
▁Navigat	-11.6144
▁flux	-11.6144
▁Hasidi	-11.6145
▁Taiwanese	-11.6145
▁Soci	-11.6145
▁offshore	-11.6145
▁submission	-11.6145
▁surgery	-11.6146
état	-11.6146
▁slot	-11.6147
▁barley	-11.6148
▁Danish	-11.6148
▁Kurt	-11.6148
▁Gaza	-11.6148
▁Babylonian	-11.6149
▁appellat	-11.615
ermanent	-11.615
guild	-11.615
▁Lynd	-11.6151
Gerald	-11.6152
road	-11.6152
▁upheld	-11.6152
▁coldest	-11.6152
▁welcomed	-11.6153
▁1847	-11.6153
▁prosecution	-11.6153
▁1833	-11.6153
▁1887	-11.6154
▁1884	-11.6155
▁boil	-11.6155
▁Buen	-11.6156
▁elementary	-11.6158
▁experimentation	-11.616
▁sheep	-11.616
▁arches	-11.616
▁unitary	-11.6162
▁ballet	-11.6162
▁Soul	-11.6163
▁Venezuelan	-11.6164
▁Oriental	-11.6164
▁Sinai	-11.6164
▁regal	-11.6164
▁Clay	-11.6165
kaya	-11.6165
▁surprised	-11.6165
▁finest	-11.6167
ongressional	-11.6169
▁Beautiful	-11.617
▁mammal	-11.6171
▁alcoholic	-11.6171
▁operator	-11.6171
▁counterpart	-11.6171
▁$9	-11.6172
▁Ever	-11.6173
▁enclos	-11.6174
▁Jacques	-11.6175
▁Miller	-11.6176
izable	-11.6176
Aryan	-11.6179
▁encoder	-11.618
▁guitarist	-11.618
▁intercept	-11.6184
▁withdrawn	-11.6185
home	-11.6192
▁reflection	-11.6195
▁Iraqi	-11.6195
▁accelerated	-11.6198
▁Tuvaluan	-11.6199
fair	-11.6205
▁graph	-11.6206
Double	-11.6207
Egg	-11.6208
▁stimulate	-11.6213
▁350	-11.622
▁Nine	-11.6224
uddh	-11.6225
▁deeper	-11.6229
▁conserv	-11.6252
▁rot	-11.6252
OD	-11.6257
rose	-11.6263
▁identifie	-11.6272
wu	-11.6276
▁thermo	-11.6289
flat	-11.6294
luck	-11.6304
▁nutritional	-11.6313
dvisory	-11.6319
▁Sala	-11.6321
▁arc	-11.6327
▁characteris	-11.6331
thora	-11.6341
▁advanc	-11.6352
store	-11.6353
▁Nationalist	-11.6358
Muslim	-11.6363
political	-11.6363
typically	-11.6364
Old	-11.6364
▁Bath	-11.6364
▁tap	-11.6365
Russian	-11.6368
Islamic	-11.6368
▁Brigh	-11.6372
metre	-11.6376
peak	-11.6386
Big	-11.6392
▁descend	-11.6396
▁analyz	-11.6397
▁dismiss	-11.6397
stablishment	-11.6404
▁Jenni	-11.6413
3.6	-11.6414
▁shop	-11.6414
▁Georgi	-11.6426
▁Short	-11.6426
▁locate	-11.6427
▁Heat	-11.6435
▁drag	-11.6437
▁clash	-11.6441
ustainable	-11.6444
Confucian	-11.6446
▁implicit	-11.6446
▁vigorous	-11.6446
▁Agriculture	-11.6446
▁Architects	-11.6446
▁Charlemagne	-11.6446
▁Conversely	-11.6446
▁Custom	-11.6446
▁Cyclone	-11.6446
▁Explorer	-11.6446
▁Safety	-11.6446
▁Samurai	-11.6446
▁Secretariat	-11.6446
▁Tunnel	-11.6446
▁Winchester	-11.6446
▁Yankee	-11.6446
▁accredit	-11.6446
▁ambition	-11.6446
▁ancestral	-11.6446
▁authentic	-11.6446
▁bilingual	-11.6446
▁electrified	-11.6446
▁emulate	-11.6446
▁hereditary	-11.6446
▁judging	-11.6446
▁pottery	-11.6446
▁practitioner	-11.6446
▁prevalence	-11.6446
▁rugby	-11.6446
▁sequel	-11.6446
▁steadily	-11.6446
▁susceptible	-11.6446
▁trophies	-11.6446
▁vitamin	-11.6446
▁welfare	-11.6446
▁Ontario	-11.6446
▁ecumeni	-11.6446
▁erosion	-11.6446
▁oscillat	-11.6446
▁renewal	-11.6446
▁silence	-11.6446
▁sultan	-11.6446
▁wolf	-11.6446
▁Isaac	-11.6446
▁Pearl	-11.6446
▁protectorate	-11.6446
▁rumour	-11.6446
▁essay	-11.6446
▁incidence	-11.6446
▁spatial	-11.6446
▁burst	-11.6446
▁depleted	-11.6446
▁Domestic	-11.6446
▁1862	-11.6446
▁polish	-11.6446
▁Complex	-11.6446
▁airplane	-11.6446
▁worse	-11.6446
▁XVI	-11.6446
▁goddess	-11.6446
▁refined	-11.6446
▁limb	-11.6446
▁ultra	-11.6446
▁Nashville	-11.6447
▁shortened	-11.6447
▁Ltd	-11.6447
▁purification	-11.6447
▁motif	-11.6447
▁inmates	-11.6447
▁repel	-11.6447
▁Phase	-11.6447
porous	-11.6448
▁Countries	-11.6448
▁Thrace	-11.6448
▁feedback	-11.6448
▁sitting	-11.6448
▁$15	-11.6449
▁indoor	-11.6449
▁gateway	-11.6449
▁Transportation	-11.6449
▁grace	-11.6451
▁Diana	-11.6451
▁specify	-11.6451
▁Medina	-11.6451
▁Aviation	-11.6452
▁Pasha	-11.6452
▁Viking	-11.6452
▁[ˈ	-11.6453
▁Parade	-11.6453
▁Member	-11.6454
tensi	-11.6455
▁hung	-11.6455
▁1831	-11.6455
▁Morgan	-11.6456
▁Hoover	-11.6456
▁subdue	-11.6456
▁composite	-11.6456
ranking	-11.6456
sisting	-11.6457
▁regent	-11.6458
▁synchronous	-11.6458
▁rubber	-11.6458
▁Typically	-11.6459
▁clothes	-11.646
▁pact	-11.646
▁Consul	-11.6461
▁1814	-11.6462
▁viruses	-11.6463
tempo	-11.6467
▁interim	-11.6468
▁mourning	-11.6471
▁recycling	-11.6471
▁mega	-11.6472
▁suddenly	-11.6475
▁motorway	-11.6476
▁mold	-11.6481
▁newborn	-11.6482
▁Kelly	-11.6482
▁landmark	-11.6486
▁Marcel	-11.6489
You	-11.6494
▁(194	-11.6494
▁Slovak	-11.6496
▁analyzed	-11.6496
▁Bloc	-11.6497
▁Anton	-11.6503
▁resistant	-11.6508
▁bath	-11.6511
▁saved	-11.6511
▁dig	-11.6515
mechani	-11.6515
▁Leonard	-11.6516
▁prisoner	-11.6519
▁showcas	-11.6521
▁morale	-11.6522
▁Paper	-11.6522
▁Dash	-11.6529
▁exceptional	-11.6542
▁Mega	-11.6548
May	-11.6551
antom	-11.6565
▁replica	-11.6571
9.8	-11.6576
shaped	-11.6586
nagar	-11.6594
▁dogma	-11.6622
abad	-11.6643
▁entrepreneur	-11.665
von	-11.6662
▁calib	-11.6665
7)	-11.6665
govern	-11.6674
sale	-11.6674
definition	-11.6676
discovered	-11.6676
world	-11.6676
number	-11.6678
▁stimulat	-11.6685
gainst	-11.6703
slated	-11.6704
▁annex	-11.6704
pending	-11.6713
▁Path	-11.6726
▁stereo	-11.6731
▁proportional	-11.6734
▁isolate	-11.674
▁Argentin	-11.6743
consist	-11.6756
▁Zoo	-11.6756
▁bankrupt	-11.6758
2.1	-11.6758
▁thorough	-11.6759
Immaculate	-11.6759
Lorraine	-11.6759
▁Alfonso	-11.6759
▁Chronicle	-11.6759
▁Competition	-11.6759
▁Cornwall	-11.6759
▁Damascus	-11.6759
▁DigiDestined	-11.6759
▁Evanston	-11.6759
▁Glasgow	-11.6759
▁Gondwana	-11.6759
▁Hampshire	-11.6759
▁Hussein	-11.6759
▁Illinois	-11.6759
▁Istanbul	-11.6759
▁Jamaica	-11.6759
▁Kashmir	-11.6759
▁Knoxville	-11.6759
▁MacBook	-11.6759
▁Memphis	-11.6759
▁Mithridates	-11.6759
▁Muawiyah	-11.6759
▁Observer	-11.6759
▁Paleolithic	-11.6759
▁Patriarch	-11.6759
▁Pompey	-11.6759
▁Resolution	-11.6759
▁Revival	-11.6759
▁Stewart	-11.6759
▁Sydney	-11.6759
▁Tokyo	-11.6759
▁bombardment	-11.6759
▁dictionaries	-11.6759
▁distortion	-11.6759
▁divinity	-11.6759
▁doctrinal	-11.6759
▁emblem	-11.6759
▁flexible	-11.6759
▁furniture	-11.6759
▁gambling	-11.6759
▁gospel	-11.6759
▁hectares	-11.6759
▁inexpensive	-11.6759
▁irrigation	-11.6759
▁miracle	-11.6759
▁populace	-11.6759
▁poultry	-11.6759
▁proprietary	-11.6759
▁pyramid	-11.6759
▁rhetoric	-11.6759
▁skelet	-11.6759
▁sunshine	-11.6759
▁tendencies	-11.6759
▁tobacco	-11.6759
▁transcend	-11.6759
▁Brunswick	-11.6759
▁Jesuit	-11.6759
▁burden	-11.6759
▁epicenter	-11.6759
▁equity	-11.6759
▁hazard	-11.6759
▁longitude	-11.6759
▁portrait	-11.6759
▁theatrical	-11.6759
▁Hastings	-11.6759
▁Reagan	-11.6759
▁Seoul	-11.6759
▁denounc	-11.6759
▁staple	-11.6759
▁Translation	-11.6759
▁diffuse	-11.6759
separating	-11.6759
▁blank	-11.6759
▁essence	-11.6759
▁fidelity	-11.6759
▁Kaiser	-11.6759
▁implied	-11.6759
▁histories	-11.6759
▁milk	-11.6759
▁bundle	-11.6759
▁NARA	-11.6759
▁Angola	-11.6759
▁freight	-11.6759
▁augur	-11.6759
▁inquiry	-11.6759
▁Gilbert	-11.6759
▁Performance	-11.676
▁Vedic	-11.676
vasive	-11.676
vascular	-11.676
stadt	-11.676
▁knight	-11.676
▁acute	-11.676
▁Foster	-11.6761
▁Doctor	-11.6761
▁Castro	-11.6761
▁Directive	-11.6762
▁knot	-11.6762
▁wedding	-11.6763
▁Devonian	-11.6763
▁Wool	-11.6763
▁exam	-11.6765
▁Ground	-11.6765
▁95%	-11.6765
▁purity	-11.6765
▁footage	-11.6765
▁gray	-11.6766
▁RAM	-11.6766
▁southwestern	-11.6766
▁Kenne	-11.6766
▁1881	-11.6768
▁Indus	-11.6768
▁dragon	-11.6769
▁phonology	-11.6771
▁Mik	-11.6772
▁Wright	-11.6773
buck	-11.6773
▁Swann	-11.6773
-235	-11.6773
▁cash	-11.6776
▁segregation	-11.6778
▁repetitive	-11.6782
▁Indonesian	-11.6784
▁warned	-11.6785
▁delivery	-11.6785
▁commuter	-11.6788
▁noticeabl	-11.6789
▁Catal	-11.6796
ashion	-11.6796
lapping	-11.6797
All	-11.6799
▁1750	-11.6801
▁vessel	-11.6806
Blessed	-11.6807
▁differential	-11.6815
web	-11.6822
▁reasonable	-11.6823
▁Neg	-11.6838
▁VH	-11.6848
▁Karma	-11.6855
▁secretion	-11.6856
▁Boot	-11.686
▁bomber	-11.6863
▁Alma	-11.689
urged	-11.6895
3.2	-11.6908
▁lease	-11.6913
governmental	-11.6918
dorf	-11.692
▁sweep	-11.6937
▁Torr	-11.6954
▁upload	-11.6955
▁Yi	-11.6968
half	-11.6977
continent	-11.6981
▁Pā	-11.6984
conscious	-11.6994
Polish	-11.6998
Black	-11.6998
ethnic	-11.6999
storm	-11.7001
visible	-11.7002
▁accidental	-11.7008
dong	-11.7009
super	-11.7011
clad	-11.7012
unit	-11.7023
help	-11.7029
▁enroll	-11.7031
haul	-11.7032
5.2	-11.7046
▁Brahm	-11.7051
▁announce	-11.7056
▁quick	-11.706
tlantic	-11.7067
▁seize	-11.7068
▁Babylon	-11.7074
▁Rick	-11.7075
▁Beyon	-11.7079
▁expel	-11.7081
▁squad	-11.7081
▁symbio	-11.7081
Brazzaville	-11.7081
disciplinary	-11.7081
▁Aragon	-11.7081
▁Arkansas	-11.7081
▁Bangladesh	-11.7081
▁Brussels	-11.7081
▁Canberra	-11.7081
▁Commerce	-11.7081
▁Conservation	-11.7081
▁Corridor	-11.7081
▁Different	-11.7081
▁Disraeli	-11.7081
▁Edinburgh	-11.7081
▁Fantasy	-11.7081
▁Increasing	-11.7081
▁Leopold	-11.7081
▁Mandarin	-11.7081
▁Pentecostal	-11.7081
▁Physics	-11.7081
▁Reynolds	-11.7081
▁Rousseau	-11.7081
▁Seleucus	-11.7081
▁Vajrayana	-11.7081
▁Winners	-11.7081
▁collateral	-11.7081
▁continuum	-11.7081
▁conviction	-11.7081
▁diagnosis	-11.7081
▁dictionary	-11.7081
▁diocese	-11.7081
▁electrification	-11.7081
▁enclave	-11.7081
▁evacuation	-11.7081
▁feminine	-11.7081
▁feminist	-11.7081
▁fragile	-11.7081
▁polytechnic	-11.7081
▁precision	-11.7081
▁reservoir	-11.7081
▁summary	-11.7081
▁torpedo	-11.7081
▁turmoil	-11.7081
▁unveiled	-11.7081
▁virtue	-11.7081
▁wolves	-11.7081
Karabakh	-11.7081
▁Atlanta	-11.7081
▁Delphi	-11.7081
▁Resort	-11.7081
▁diagram	-11.7081
▁laptop	-11.7081
▁potato	-11.7081
▁scarce	-11.7081
▁vibration	-11.7081
▁Barbara	-11.7081
▁codified	-11.7081
▁detriment	-11.7081
▁distress	-11.7081
▁grasp	-11.7081
▁steep	-11.7081
▁applies	-11.7081
▁locus	-11.7081
▁disabled	-11.7081
▁racing	-11.7081
▁urging	-11.7081
▁Fighter	-11.7081
▁meteor	-11.7082
▁escalat	-11.7082
▁definitive	-11.7082
▁Lambert	-11.7082
▁ascetic	-11.7082
▁subspecies	-11.7082
▁altogether	-11.7082
▁pixels	-11.7082
▁rumor	-11.7082
▁Midtown	-11.7083
▁Fuller	-11.7083
▁Lamb	-11.7083
▁Text	-11.7083
credible	-11.7083
▁plateau	-11.7083
enewable	-11.7084
▁Marwan	-11.7084
▁enrich	-11.7084
▁summon	-11.7084
▁Karim	-11.7084
▁calm	-11.7085
▁assignment	-11.7085
▁unconscious	-11.7085
▁nonpartisan	-11.7086
boat	-11.7086
▁1801	-11.7087
▁blog	-11.7087
▁Kind	-11.7087
▁annexation	-11.7087
▁mysticism	-11.7088
▁KPA	-11.7088
▁molte	-11.7089
▁Touch	-11.7089
▁1902	-11.7089
▁familiaris	-11.709
▁faithful	-11.709
▁Malta	-11.709
▁favourite	-11.7092
info	-11.7092
▁1899	-11.7092
▁70%	-11.7094
▁southward	-11.7094
▁1844	-11.7095
▁1758	-11.7097
▁favorable	-11.7098
▁mined	-11.7098
▁substitution	-11.7099
▁latewood	-11.71
▁symbolism	-11.71
▁Papal	-11.7105
▁Ethiopian	-11.7109
▁precisely	-11.7109
▁Secret	-11.7111
▁Thuringian	-11.7112
▁indirectly	-11.7113
▁Zant	-11.7114
–100	-11.7115
▁120,000	-11.7116
▁Lyon	-11.7121
▁addresses	-11.7129
▁Walt	-11.7129
▁predominate	-11.7134
directional	-11.7137
except	-11.7138
▁equation	-11.7139
▁vertically	-11.7143
▁Luci	-11.7149
▁lute	-11.7153
▁rub	-11.7154
▁deposited	-11.7155
▁PCB	-11.7159
▁whatever	-11.716
▁thrive	-11.7167
ité	-11.7171
▁$40	-11.719
▁trapp	-11.7199
▁gastr	-11.7204
▁monk	-11.7226
lower	-11.723
negative	-11.7251
▁reader	-11.7251
cross	-11.7252
▁Pet	-11.7254
nnie	-11.7264
▁Thor	-11.7265
▁240	-11.7295
circumvent	-11.7301
icip	-11.7302
▁intestin	-11.731
funded	-11.7332
mainly	-11.7333
standard	-11.7333
founder	-11.7333
Free	-11.7333
running	-11.7335
▁captur	-11.7337
local	-11.7339
virus	-11.7342
540	-11.7345
▁Citi	-11.7348
taking	-11.7349
ductive	-11.7355
egg	-11.7355
▁quart	-11.7365
▁gut	-11.7371
▁Palm	-11.7372
NET	-11.7375
há	-11.7375
imated	-11.7377
4.9	-11.7378
▁Bibl	-11.7381
0)	-11.7383
▁commute	-11.7385
crystalline	-11.7389
▁intervene	-11.7395
▁bloc	-11.7396
nucle	-11.7399
▁Schw	-11.7401
▁feud	-11.7403
▁Off	-11.7408
▁reconstruct	-11.741
▁disturb	-11.7414
doubling	-11.7415
▁Amtrak	-11.7415
▁Architectural	-11.7415
▁Beatles	-11.7415
▁Carrefour	-11.7415
▁Deréon	-11.7415
▁Díaz	-11.7415
▁Enterprise	-11.7415
▁GameCube	-11.7415
▁Ganondorf	-11.7415
▁Khazar	-11.7415
▁Knowledge	-11.7415
▁Lancaster	-11.7415
▁Literature	-11.7415
▁Melinda	-11.7415
▁Murdoch	-11.7415
▁Naguib	-11.7415
▁Nehru	-11.7415
▁Principia	-11.7415
▁Shakespeare	-11.7415
▁Statute	-11.7415
▁Timothy	-11.7415
▁Tokugawa	-11.7415
▁distributor	-11.7415
▁experiencing	-11.7415
▁galleries	-11.7415
▁hierarchical	-11.7415
▁invertebrates	-11.7415
▁mercury	-11.7415
▁obesity	-11.7415
▁prairie	-11.7415
▁prefix	-11.7415
▁prejudice	-11.7415
▁registration	-11.7415
▁revitaliz	-11.7415
▁syndrome	-11.7415
▁thunderstorm	-11.7415
▁tremendous	-11.7415
▁unanimous	-11.7415
▁Cruise	-11.7415
▁Limited	-11.7415
▁Micronesia	-11.7415
▁fierce	-11.7415
▁happy	-11.7415
▁archaic	-11.7415
▁Levant	-11.7415
▁surname	-11.7415
▁overlook	-11.7415
▁spiral	-11.7415
mbulance	-11.7415
▁(2008)	-11.7415
▁Writing	-11.7415
▁riding	-11.7415
▁teeth	-11.7415
▁Sadat	-11.7415
▁minimize	-11.7415
▁Writer	-11.7415
▁obstruct	-11.7415
correlation	-11.7415
▁damaging	-11.7415
transliterat	-11.7415
▁Belgrade	-11.7415
▁soap	-11.7415
▁timber	-11.7415
▁allocated	-11.7415
▁Resource	-11.7416
▁dissent	-11.7416
▁embodi	-11.7416
▁Catalonia	-11.7416
▁productivity	-11.7416
▁2013–14	-11.7416
▁beetle	-11.7416
▁Urdu	-11.7417
kinetic	-11.7418
▁Josi	-11.7418
▁axon	-11.7418
▁coinage	-11.7418
▁Alexi	-11.7419
▁Fortune	-11.7419
▁finger	-11.7419
▁adaptive	-11.7419
▁workshop	-11.742
▁Communion	-11.7421
▁grandson	-11.7421
▁Revel	-11.7421
▁techno	-11.7422
▁1883	-11.7422
▁battlefield	-11.7422
▁homosexuality	-11.7423
cephalo	-11.7424
▁Harper	-11.7424
▁Philippe	-11.7425
▁1867	-11.7426
▁undertaken	-11.7427
▁Subsequently	-11.7428
▁Gris	-11.7429
▁Finch	-11.7429
▁seventy	-11.7431
▁Glen	-11.7431
▁resin	-11.7431
▁rally	-11.7431
▁1775	-11.7434
▁specialty	-11.7434
▁attractive	-11.7435
▁instituted	-11.7435
▁productive	-11.7437
▁believers	-11.7437
▁axis	-11.7438
▁Maryland	-11.7438
▁scattered	-11.7441
▁thinkers	-11.7441
▁viable	-11.7442
▁Deep	-11.7446
▁photography	-11.7449
▁displaced	-11.7452
▁Still	-11.7455
▁Taiping	-11.7457
▁2020	-11.7458
▁canceled	-11.7462
▁IX	-11.7463
▁16%	-11.7474
▁Salt	-11.7474
farther	-11.7476
▁HP	-11.7479
▁fragment	-11.7482
▁grape	-11.7483
▁designate	-11.7492
pair	-11.7503
tzi	-11.7504
ught	-11.7508
▁Mort	-11.7509
▁realize	-11.7509
▁designation	-11.7513
wear	-11.7514
▁1.3	-11.7516
▁circum	-11.7529
▁warmer	-11.753
▁$20	-11.7538
▁680	-11.7544
▁Gala	-11.7559
▁publishe	-11.7583
▁defender	-11.7589
Paleo	-11.759
▁Sid	-11.7594
▁flagell	-11.762
continental	-11.7625
keeper	-11.7651
system	-11.7677
Israel	-11.7677
British	-11.7677
Tibetan	-11.7683
▁revolv	-11.7684
bility	-11.7695
3%)	-11.7695
▁Cow	-11.7707
▁suspend	-11.7711
▁deploy	-11.7712
▁Dave	-11.7712
ncia	-11.7717
▁colloquial	-11.7737
▁105	-11.7744
▁marginal	-11.7748
bile	-11.7752
▁caliph	-11.7755
▁prosper	-11.7757
atellite	-11.7757
▁undertake	-11.7757
opyright	-11.7759
lumina	-11.7759
▁pronoun	-11.7759
sanctioned	-11.7759
▁Academic	-11.7759
▁Akkadian	-11.7759
▁Analysis	-11.7759
▁Aquitaine	-11.7759
▁Birmingham	-11.7759
▁Bourbon	-11.7759
▁Caliphate	-11.7759
▁Chattanooga	-11.7759
▁Commercial	-11.7759
▁Corruption	-11.7759
▁Empress	-11.7759
▁Exchange	-11.7759
▁Himalayas	-11.7759
▁Magadha	-11.7759
▁Phoenician	-11.7759
▁Progress	-11.7759
▁Seminary	-11.7759
▁Silurian	-11.7759
▁Spaniards	-11.7759
▁Spinoza	-11.7759
▁Treasury	-11.7759
▁Yerevan	-11.7759
▁abdomen	-11.7759
▁accommodation	-11.7759
▁admiration	-11.7759
▁baptized	-11.7759
▁brilliant	-11.7759
▁certification	-11.7759
▁collision	-11.7759
▁conscription	-11.7759
▁controversies	-11.7759
▁homogeneous	-11.7759
▁hypothetical	-11.7759
▁illumination	-11.7759
▁imprisoned	-11.7759
▁jealous	-11.7759
▁microorganisms	-11.7759
▁militarily	-11.7759
▁skyscraper	-11.7759
▁spontaneous	-11.7759
▁squirrel	-11.7759
▁stimulus	-11.7759
▁suffix	-11.7759
▁unacceptable	-11.7759
▁unicameral	-11.7759
▁volcanic	-11.7759
▁Budapest	-11.7759
▁Concern	-11.7759
▁carnivor	-11.7759
▁probability	-11.7759
▁Creek	-11.7759
▁Gelug	-11.7759
▁Glacier	-11.7759
▁consecrat	-11.7759
▁precious	-11.7759
▁Mathew	-11.7759
▁Solomon	-11.7759
▁harmony	-11.7759
▁outnumbered	-11.7759
dividing	-11.776
▁Xiang	-11.776
▁blind	-11.776
▁algae	-11.776
▁Keith	-11.776
▁copied	-11.776
▁sutras	-11.776
▁UTC	-11.776
iferous	-11.776
▁Scots	-11.776
▁ferry	-11.776
▁Title	-11.776
▁behave	-11.776
▁agenda	-11.776
▁mobility	-11.776
▁Evangelical	-11.776
▁conscience	-11.776
▁enforcing	-11.776
▁disturbance	-11.7761
▁quit	-11.7761
osphere	-11.7761
▁cooperative	-11.7761
▁discourse	-11.7761
▁analogue	-11.7761
▁terrace	-11.7761
▁oversaw	-11.7761
▁Moravia	-11.7761
▁Jiang	-11.7762
▁click	-11.7762
-1990	-11.7762
▁transmitting	-11.7762
▁karma	-11.7763
▁agitat	-11.7763
▁correlate	-11.7763
▁turntable	-11.7763
▁vein	-11.7764
▁complementary	-11.7764
▁ROK	-11.7764
▁thickness	-11.7765
▁Kann	-11.7765
▁hegemony	-11.7765
▁Soft	-11.7765
▁palat	-11.7766
▁Gallo	-11.7766
▁motto	-11.7766
▁phonetic	-11.7766
▁deadline	-11.7767
▁NBA	-11.7767
▁Morrison	-11.7767
kilometre	-11.7768
▁parishes	-11.7768
▁1859	-11.7768
bird	-11.7768
▁swing	-11.777
▁Kievan	-11.777
▁Casp	-11.777
▁Rough	-11.777
▁clashes	-11.7771
▁Peak	-11.7771
▁missionary	-11.7771
▁1858	-11.7772
▁playoff	-11.7772
▁1874	-11.7772
▁PhD	-11.7775
▁negotiate	-11.7775
▁imagery	-11.7777
▁prescribed	-11.7777
▁discouraged	-11.7779
▁intervened	-11.778
▁dependence	-11.778
▁ethnically	-11.7781
▁fifteenth	-11.7782
▁wishes	-11.7782
▁accelerate	-11.7782
▁Rush	-11.7787
▁1400	-11.7788
contain	-11.779
▁colonialism	-11.7793
▁Nige	-11.7795
▁Lé	-11.7796
▁Mix	-11.7797
▁Melo	-11.7799
▁Mariana	-11.78
▁Seventh	-11.7802
▁450	-11.7803
▁Vot	-11.7808
▁Unity	-11.781
▁wartime	-11.7819
▁bore	-11.7824
▁elderly	-11.7824
▁violate	-11.7827
logue	-11.783
realist	-11.7831
▁visually	-11.7833
▁mice	-11.7838
▁incentive	-11.784
▁Studio	-11.784
▁helicopter	-11.784
GaAs	-11.7841
Aircraft	-11.7841
DT	-11.7849
▁speeches	-11.785
▁cancel	-11.7859
▁correction	-11.7863
▁inhabit	-11.787
threatening	-11.7871
treat	-11.7878
operative	-11.7885
▁observer	-11.7888
▁Ciu	-11.7891
▁Aero	-11.7892
▁Card	-11.79
bade	-11.7902
▁(1,2	-11.7909
OP	-11.7913
LP	-11.7943
▁cyber	-11.7952
subway	-11.7964
bud	-11.7975
▁decid	-11.7993
currently	-11.8011
▁assum	-11.8025
▁Haz	-11.8028
sensitive	-11.8033
compatible	-11.8033
dynamic	-11.8034
John	-11.8034
▁Kev	-11.8042
▁purge	-11.8043
arrow	-11.8055
posit	-11.8064
value	-11.8075
▁ascend	-11.809
▁Venezuela	-11.8091
1.8	-11.8094
▁Additional	-11.8095
▁discourage	-11.8097
▁dictat	-11.8104
▁fuse	-11.8105
▁Method	-11.8108
ardo	-11.811
▁proliferat	-11.8113
▁televis	-11.8113
teau	-11.8114
emphasiz	-11.8115
episcopal	-11.8117
▁Baghdad	-11.8117
▁Brittany	-11.8117
▁Bronze	-11.8117
▁Eagle	-11.8117
▁Economist	-11.8117
▁Hewlett	-11.8117
▁Lexington	-11.8117
▁Migration	-11.8117
▁Nishimura	-11.8117
▁Ozawa	-11.8117
▁Partnership	-11.8117
▁Prominent	-11.8117
▁Registration	-11.8117
▁Santiago	-11.8117
▁Skull	-11.8117
▁Strategic	-11.8117
▁Thomson	-11.8117
▁Vladimir	-11.8117
▁Voltaire	-11.8117
▁agglomeration	-11.8117
▁cessation	-11.8117
▁closure	-11.8117
▁compulsory	-11.8117
▁dancing	-11.8117
▁digivolve	-11.8117
▁disastrous	-11.8117
▁eclectic	-11.8117
▁elephant	-11.8117
▁envelop	-11.8117
▁fertility	-11.8117
▁grandmother	-11.8117
▁hiatus	-11.8117
▁hydride	-11.8117
▁hymn	-11.8117
▁larvae	-11.8117
▁locomotive	-11.8117
▁magnates	-11.8117
▁microprocessor	-11.8117
▁penicillin	-11.8117
▁persecuted	-11.8117
▁reconcil	-11.8117
▁resentment	-11.8117
▁scarlet	-11.8117
▁seldom	-11.8117
▁spectators	-11.8117
▁telescope	-11.8117
▁utility	-11.8117
▁Jeff	-11.8117
▁Kazakhstan	-11.8117
▁bureau	-11.8117
▁ensemble	-11.8117
▁puberty	-11.8117
▁Stuart	-11.8117
▁Mosaic	-11.8117
▁convened	-11.8117
▁Carolingian	-11.8117
▁Sardinia	-11.8117
▁logistics	-11.8117
▁parasites	-11.8117
▁DIN	-11.8117
▁Flanders	-11.8117
▁Hindi	-11.8117
▁fluent	-11.8117
▁glyph	-11.8117
▁Miguel	-11.8117
▁Stefan	-11.8117
Hellenic	-11.8117
▁Donald	-11.8117
▁artisan	-11.8117
▁Banners	-11.8117
▁pivot	-11.8117
▁deviation	-11.8117
▁hurt	-11.8117
▁boast	-11.8117
▁Serge	-11.8117
▁oath	-11.8117
▁Epic	-11.8117
▁Skyfall	-11.8117
▁geology	-11.8117
▁diplomacy	-11.8117
▁Castile	-11.8117
▁Stoic	-11.8117
▁bachelor	-11.8117
▁Hyrule	-11.8117
▁emigration	-11.8117
▁rotating	-11.8118
▁Mechani	-11.8118
▁pleased	-11.8118
▁Heights	-11.8118
▁Agu	-11.8118
▁Derby	-11.8118
▁Stein	-11.8118
olithic	-11.8118
▁Mecca	-11.8118
promising	-11.8119
▁Maurya	-11.8119
▁McCa	-11.8119
▁Bantu	-11.8119
▁observance	-11.8119
▁Nicolas	-11.812
▁Access	-11.812
▁Punic	-11.812
▁Duck	-11.812
▁pace	-11.8121
▁downstream	-11.8121
▁classroom	-11.8121
▁Perform	-11.8121
▁Image	-11.8121
▁sailors	-11.8121
▁Niger	-11.8122
▁flock	-11.8122
▁undertook	-11.8123
▁Sephardic	-11.8123
▁functionality	-11.8124
▁cheer	-11.8124
1.4	-11.8124
rahim	-11.8124
▁Niko	-11.8124
placental	-11.8125
▁PAL	-11.8125
▁eastward	-11.8126
▁wax	-11.8127
▁Blanc	-11.8128
▁antigen	-11.8129
▁anywhere	-11.8129
▁tough	-11.8129
▁rationalism	-11.813
▁retailer	-11.8132
▁1885	-11.8133
▁1834	-11.8133
▁Antony	-11.8133
▁Stock	-11.8134
▁nuclei	-11.8135
▁250,000	-11.8135
▁proponent	-11.8137
▁monumental	-11.8137
▁Hope	-11.8138
deacon	-11.8138
▁Sox	-11.8139
▁Jet	-11.8139
▁shareholder	-11.8146
arctic	-11.8152
▁Nash	-11.8152
▁Serv	-11.8153
▁sang	-11.8153
▁Candi	-11.8153
▁dust	-11.8153
▁attendant	-11.8154
▁upward	-11.8155
▁stresses	-11.8156
▁thicker	-11.8162
▁domestication	-11.8169
▁sexuality	-11.8174
▁Mack	-11.8183
▁accumulat	-11.8187
▁censuses	-11.8187
▁institute	-11.8191
▁MW	-11.8201
dried	-11.8218
conduct	-11.8249
▁Nag	-11.8252
elecommunication	-11.8266
▁Cara	-11.8274
▁maxim	-11.8294
▁Malaya	-11.83
▁demonstrat	-11.8303
▁fli	-11.8317
gression	-11.8318
▁0.5	-11.8333
lination	-11.8344
competent	-11.8349
▁deriv	-11.8351
▁Process	-11.838
800	-11.8386
▁Ferr	-11.8396
▁prepar	-11.8403
control	-11.8403
Sanskrit	-11.8404
blue	-11.8404
Western	-11.8404
Star	-11.8405
What	-11.8408
released	-11.8414
▁Congregation	-11.8421
▁accord	-11.8428
God	-11.8431
▁1.0	-11.8435
▁107	-11.8444
▁literal	-11.8465
▁resolve	-11.8467
▁quo	-11.847
2.6	-11.847
▁recreation	-11.8471
▁abundan	-11.8474
▁repress	-11.8478
▁cow	-11.8482
▁ferment	-11.8483
▁compass	-11.8484
▁Benedict	-11.8485
nunciation	-11.8486
▁Wilkins	-11.8487
satisfied	-11.8487
▁Beethoven	-11.8487
▁Brotherhood	-11.8487
▁Guatemala	-11.8487
▁Kentucky	-11.8487
▁Lhasa	-11.8487
▁Lythgoe	-11.8487
▁Nikolai	-11.8487
▁Oberhauser	-11.8487
▁Spencer	-11.8487
▁Sprague	-11.8487
▁Wisconsin	-11.8487
▁Xiongnu	-11.8487
▁acronym	-11.8487
▁applicable	-11.8487
▁assimilated	-11.8487
▁beneath	-11.8487
▁burrow	-11.8487
▁continuity	-11.8487
▁crushing	-11.8487
▁cycling	-11.8487
▁diagnosed	-11.8487
▁evangelical	-11.8487
▁expectancy	-11.8487
▁inadequate	-11.8487
▁intelligible	-11.8487
▁leisure	-11.8487
▁numeral	-11.8487
▁penalties	-11.8487
▁preliminary	-11.8487
▁revoked	-11.8487
▁sequencing	-11.8487
▁simplification	-11.8487
▁sulfide	-11.8487
▁synthesized	-11.8487
▁vendors	-11.8487
▁Episcopal	-11.8487
▁Pontific	-11.8487
▁conspiracy	-11.8487
▁counsel	-11.8487
▁cyclone	-11.8487
▁mockingbird	-11.8487
▁patrician	-11.8487
▁regency	-11.8487
▁scratch	-11.8487
▁snake	-11.8487
▁sociologist	-11.8487
▁stylus	-11.8487
▁tweet	-11.8487
▁Integrat	-11.8487
▁Justinian	-11.8487
▁captive	-11.8487
▁convoy	-11.8487
▁Instrument	-11.8487
▁Portsmouth	-11.8487
▁freehold	-11.8487
▁friendlies	-11.8487
▁Harvey	-11.8487
▁Qutb	-11.8487
▁constrain	-11.8487
▁Ultra	-11.8487
ogenesis	-11.8487
▁Sutton	-11.8487
▁kinship	-11.8487
scape	-11.8487
▁Institution	-11.8487
▁heretical	-11.8487
▁Adolf	-11.8487
▁Idris	-11.8487
▁MCA	-11.8487
▁guidelines	-11.8487
▁Geographic	-11.8487
▁reinforcements	-11.8487
▁Cancer	-11.8487
▁retirement	-11.8487
▁spearhead	-11.8487
▁Gamal	-11.8487
▁Qatar	-11.8487
▁Likewise	-11.8488
▁Folk	-11.8488
▁deterr	-11.8488
▁wealthiest	-11.8488
▁inequality	-11.8488
▁niche	-11.8488
▁empower	-11.8488
▁16:9	-11.8488
▁neck	-11.8488
▁athletes	-11.8488
▁Boeing	-11.8489
disbanded	-11.8489
▁morphology	-11.8489
▁inauguration	-11.8489
supervised	-11.8489
▁accomplishment	-11.8489
▁multinational	-11.8489
▁anchor	-11.8489
▁Torah	-11.8489
▁Elector	-11.8489
▁2014–15	-11.849
▁Priv	-11.849
▁Lanka	-11.849
▁Mario	-11.849
▁liability	-11.849
▁CPU	-11.8491
▁View	-11.8491
▁grey	-11.8491
▁graduation	-11.8491
Near	-11.8492
▁Daylight	-11.8492
▁trafficking	-11.8492
▁intimate	-11.8492
▁heartwood	-11.8492
▁binary	-11.8493
▁coexist	-11.8493
▁enhancement	-11.8493
▁madrasah	-11.8493
▁analogous	-11.8493
▁toxicity	-11.8494
▁Sagar	-11.8495
▁800,000	-11.8495
▁undergone	-11.8495
▁Cooperation	-11.8496
▁evolving	-11.8496
▁Monday	-11.8497
▁85%	-11.8497
▁alarm	-11.8497
▁realistic	-11.8497
▁predate	-11.8498
▁categorized	-11.8499
▁emigrated	-11.8499
▁Shima	-11.8499
▁fertiliz	-11.85
▁extraction	-11.85
▁bitter	-11.8501
▁(1,0	-11.8502
▁Hanoverian	-11.8505
▁CST	-11.8506
Indo	-11.8506
▁Allah	-11.8508
▁instrumentation	-11.8509
▁stereotyp	-11.851
▁Moors	-11.851
▁hetero	-11.8512
▁100%	-11.8512
▁1760	-11.8517
▁Bulgarian	-11.8518
niform	-11.852
▁80,000	-11.8526
LDS	-11.8527
gotten	-11.853
$200	-11.8534
▁countryside	-11.8535
▁1200	-11.8535
lique	-11.855
▁makeup	-11.8551
▁ASA	-11.8556
▁Rosa	-11.8561
Pali	-11.8566
mitting	-11.8566
East	-11.8572
▁Rank	-11.8572
▁enzyme	-11.8595
▁1.1	-11.8595
▁Cub	-11.8601
▁phonolog	-11.8604
▁Maj	-11.8623
early	-11.8628
▁0.0	-11.8631
▁graduat	-11.8652
▁faction	-11.8662
▁Raja	-11.869
fantry	-11.8691
music	-11.8692
▁Rich	-11.8693
pollen	-11.8694
▁Hale	-11.8695
▁luna	-11.8695
charge	-11.8714
Sikh	-11.8718
liable	-11.8744
ogenic	-11.8747
Coburg	-11.8749
rmal	-11.8752
bearing	-11.8753
▁pertain	-11.8757
▁render	-11.8764
▁gather	-11.8765
▁Plate	-11.8768
▁accelerat	-11.8775
▁Nico	-11.8788
quarter	-11.8789
Turkish	-11.8789
glass	-11.8789
marriage	-11.8789
wealth	-11.8789
better	-11.8789
June	-11.8789
Somali	-11.879
estimated	-11.8791
country	-11.8795
▁4.5	-11.881
▁impos	-11.8822
▁abolish	-11.8823
▁Whit	-11.8827
▁attest	-11.8828
▁incur	-11.883
▁labell	-11.8837
eterans	-11.8848
▁execute	-11.8852
▁viceroy	-11.8856
▁Iberia	-11.8857
0.7%	-11.8862
▁assassin	-11.8866
▁precipitat	-11.8868
riminal	-11.887
▁censor	-11.8871
▁loud	-11.8872
Caucasian	-11.8872
conclusive	-11.8872
phosphate	-11.8872
▁Aegean	-11.8872
▁Ambassador	-11.8872
▁Aonuma	-11.8872
▁Bedouin	-11.8872
▁Britannica	-11.8872
▁Character	-11.8872
▁Collection	-11.8872
▁Divinity	-11.8872
▁Eurozone	-11.8872
▁Geoffrey	-11.8872
▁Important	-11.8872
▁Khrushchev	-11.8872
▁Reservation	-11.8872
▁Ritchie	-11.8872
▁Sebasti	-11.8872
▁Simpson	-11.8872
▁Thursday	-11.8872
▁Trafalgar	-11.8872
▁Vedanta	-11.8872
▁admired	-11.8872
▁basilica	-11.8872
▁bureaucracy	-11.8872
▁capacitance	-11.8872
▁coconut	-11.8872
▁commune	-11.8872
▁corridor	-11.8872
▁decreasing	-11.8872
▁encyclical	-11.8872
▁fluorescent	-11.8872
▁immortal	-11.8872
▁incendiaries	-11.8872
▁infamous	-11.8872
▁intermediaries	-11.8872
▁lodging	-11.8872
▁perpetrator	-11.8872
▁phylogenetic	-11.8872
▁relaxed	-11.8872
▁retrieve	-11.8872
▁rudiment	-11.8872
▁sanctuary	-11.8872
▁surveillance	-11.8872
▁swept	-11.8872
▁treason	-11.8872
▁tribune	-11.8872
▁undesirable	-11.8872
▁Felix	-11.8872
▁Naples	-11.8872
▁Soccer	-11.8872
▁severity	-11.8872
▁teenager	-11.8872
▁Pioneer	-11.8872
▁necessitat	-11.8872
▁reaffirm	-11.8872
▁straight	-11.8872
▁1856	-11.8872
▁Wellington	-11.8872
▁climb	-11.8872
▁Election	-11.8872
▁Ernest	-11.8872
▁Sakya	-11.8872
▁Uprising	-11.8872
▁pennant	-11.8872
▁statutor	-11.8872
▁Adult	-11.8872
▁Regard	-11.8872
▁superseded	-11.8872
▁Ganges	-11.8872
▁Guild	-11.8872
▁lupus	-11.8872
▁1841	-11.8872
▁Gupta	-11.8872
▁Blair	-11.8872
▁Potter	-11.8872
▁Vocal	-11.8872
▁Reason	-11.8872
▁archbishop	-11.8872
▁hawk	-11.8872
▁Cilicia	-11.8872
▁advertisements	-11.8872
▁fauna	-11.8872
▁Crete	-11.8872
▁Collins	-11.8872
▁NTC	-11.8872
▁chord	-11.8872
▁ceasefire	-11.8872
▁polymerase	-11.8872
▁mantle	-11.8872
Soyuz	-11.8872
▁barrels	-11.8872
▁watershed	-11.8872
▁Monarch	-11.8872
variance	-11.8872
▁presumably	-11.8872
shaping	-11.8872
▁scriptures	-11.8872
▁metropolis	-11.8872
▁Paramount	-11.8872
▁miniature	-11.8872
▁counterattack	-11.8872
▁refrain	-11.8872
▁arcade	-11.8872
▁mercenaries	-11.8872
▁ganglia	-11.8872
▁Horse	-11.8872
▁destructive	-11.8872
▁tennis	-11.8872
▁Oliver	-11.8873
▁derivatives	-11.8873
▁hiring	-11.8873
▁discharge	-11.8873
▁subscribers	-11.8873
▁fatalities	-11.8873
▁eagles	-11.8873
nihil	-11.8873
▁Cosmo	-11.8873
▁intact	-11.8873
▁Edgar	-11.8874
▁rigid	-11.8874
▁accusations	-11.8874
▁airspace	-11.8874
▁vector	-11.8875
▁Drake	-11.8875
▁feral	-11.8875
▁1,600	-11.8876
▁extraordinary	-11.8876
▁spray	-11.8876
▁Regiment	-11.8876
▁downfall	-11.8876
▁Sarah	-11.8877
▁pride	-11.8877
▁banish	-11.8877
▁Lucas	-11.8877
▁photons	-11.8878
▁Ballet	-11.8878
▁Overall	-11.8879
▁illuminated	-11.888
▁arising	-11.888
▁summari	-11.888
throp	-11.8881
▁jure	-11.8881
▁Susan	-11.8881
▁spirituality	-11.8882
▁seaport	-11.8883
▁1891	-11.8883
▁1757	-11.8884
▁weekday	-11.8884
▁1806	-11.8884
▁1809	-11.8885
▁1781	-11.8886
▁upright	-11.8886
▁Ferry	-11.8887
▁collaborated	-11.8887
▁ethn	-11.8888
▁1798	-11.889
▁liturgy	-11.8892
▁grasses	-11.8893
▁colloquially	-11.8896
▁certainty	-11.8898
▁Herman	-11.8899
▁sura	-11.89
▁degrade	-11.8901
▁Brest	-11.8901
▁Albanian	-11.8903
▁Lind	-11.8904
▁coordinated	-11.8906
▁phil	-11.8907
▁goat	-11.8908
▁reserv	-11.8908
▁differentiated	-11.8909
▁Estate	-11.8911
110	-11.8912
▁Sanders	-11.8915
▁directive	-11.8916
▁Sufi	-11.8916
▁1720	-11.8917
▁Vai	-11.8918
▁Peru	-11.8925
taining	-11.8926
barely	-11.8927
▁Poll	-11.893
▁modernization	-11.8933
eaux	-11.8958
▁Made	-11.896
▁pill	-11.896
lved	-11.896
▁Pain	-11.8967
▁Dub	-11.8986
▁Bean	-11.8987
▁cage	-11.9011
▁conferr	-11.9011
▁modell	-11.9017
wage	-11.9032
▁forbid	-11.9038
rophy	-11.9043
▁Marian	-11.9048
took	-11.9054
▁Feder	-11.9061
7.8	-11.9071
▁Lim	-11.9073
ritz	-11.9075
▁withhold	-11.9076
▁Job	-11.9078
etti	-11.9085
oretically	-11.9085
akis	-11.9098
▁Ranch	-11.9104
▁Heath	-11.9111
migrated	-11.9111
▁0.2	-11.9118
▁eliminat	-11.9153
▁1.2	-11.916
▁twin	-11.9161
▁13,000	-11.9166
▁optional	-11.9185
filled	-11.9188
sponsored	-11.9188
DNA	-11.9188
mouth	-11.9189
traditional	-11.9189
cellular	-11.9189
Great	-11.9189
support	-11.9189
▁Polo	-11.9189
mentioned	-11.919
▁clinic	-11.9197
3.4	-11.9199
▁rubb	-11.9199
▁educat	-11.9219
▁Living	-11.9219
1970	-11.9249
▁quota	-11.9249
▁append	-11.9252
exclud	-11.9254
▁hire	-11.9257
▁Product	-11.9258
▁Belarus	-11.926
oxy	-11.9271
▁confident	-11.9272
aldehyde	-11.9272
▁Aeneas	-11.9272
▁Antigonus	-11.9272
[...]
